<pad>	0
<s>	0
</s>	0
<unk>	0
▁t	-0
▁th	-1
▁a	-2
in	-3
▁w	-4
▁the	-5
re	-6
▁o	-7
▁s	-8
at	-9
er	-10
nd	-11
ou	-12
▁c	-13
is	-14
it	-15
▁b	-16
ing	-17
▁m	-18
en	-19
▁h	-20
on	-21
▁to	-22
▁p	-23
▁f	-24
an	-25
es	-26
▁d	-27
or	-28
▁of	-29
ll	-30
▁in	-31
▁I	-32
▁and	-33
ed	-34
▁l	-35
ar	-36
▁that	-37
▁y	-38
om	-39
▁g	-40
as	-41
我们	-42
ic	-43
le	-44
ve	-45
▁you	-46
al	-47
▁we	-48
▁n	-49
▁wh	-50
ow	-51
us	-52
▁e	-53
▁is	-54
▁A	-55
▁be	-56
ut	-57
▁it	-58
ion	-59
ot	-60
et	-61
▁T	-62
▁re	-63
ent	-64
▁ha	-65
ct	-66
▁on	-67
ld	-68
ver	-69
ay	-70
id	-71
▁And	-72
▁Th	-73
se	-74
all	-75
im	-76
▁this	-77
st	-78
▁这	-79
ro	-80
▁S	-81
ig	-82
一个	-83
▁我	-84
ur	-85
ly	-86
ch	-87
▁st	-88
ere	-89
ke	-90
ce	-91
▁for	-92
if	-93
▁was	-94
ra	-95
▁W	-96
--	-97
ir	-98
▁an	-99
▁我们	-100
▁do	-101
▁are	-102
他们	-103
oo	-104
ith	-105
op	-106
ally	-107
th	-108
am	-109
▁have	-110
▁with	-111
▁ab	-112
▁--	-113
▁u	-114
▁they	-115
▁se	-116
▁k	-117
▁can	-118
▁B	-119
▁mo	-120
ation	-121
▁as	-122
out	-123
ht	-124
▁li	-125
▁so	-126
▁go	-127
ad	-128
▁what	-129
▁wor	-130
▁So	-131
▁com	-132
▁he	-133
very	-134
ould	-135
ill	-136
▁me	-137
▁at	-138
▁sh	-139
▁about	-140
▁ne	-141
ter	-142
ant	-143
▁not	-144
ge	-145
il	-146
可以	-147
ol	-148
ul	-149
ust	-150
▁all	-151
▁但	-152
ers	-153
▁j	-154
▁fr	-155
▁ex	-156
▁The	-157
use	-158
▁pro	-159
ight	-160
▁ch	-161
▁som	-162
▁r	-163
▁"	-164
▁or	-165
▁de	-166
▁my	-167
▁there	-168
▁pe	-169
art	-170
▁在	-171
00	-172
ear	-173
um	-174
ople	-175
ck	-176
pp	-177
这个	-178
▁We	-179
ate	-180
▁con	-181
▁你	-182
▁like	-183
ess	-184
ies	-185
▁It	-186
ure	-187
▁people	-188
ity	-189
▁one	-190
▁N	-191
ive	-192
ca	-193
nt	-194
est	-195
▁ma	-196
▁from	-197
ect	-198
ist	-199
▁kn	-200
ble	-201
qu	-202
就是	-203
▁but	-204
▁our	-205
什么	-206
ind	-207
▁C	-208
ink	-209
▁al	-210
▁us	-211
▁out	-212
▁M	-213
▁te	-214
▁just	-215
un	-216
▁H	-217
rou	-218
▁int	-219
ook	-220
▁know	-221
▁v	-222
因为	-223
这些	-224
▁thing	-225
cause	-226
▁而	-227
and	-228
▁them	-229
ide	-230
ie	-231
▁sp	-232
os	-233
▁1	-234
▁But	-235
▁see	-236
her	-237
如果	-238
ort	-239
▁these	-240
▁tr	-241
▁if	-242
▁up	-243
▁very	-244
▁who	-245
▁think	-246
▁get	-247
▁pl	-248
▁所	-249
ich	-250
没有	-251
el	-252
ci	-253
▁by	-254
▁going	-255
▁Y	-256
one	-257
ain	-258
iv	-259
▁他们	-260
▁some	-261
▁when	-262
▁act	-263
现在	-264
▁had	-265
▁它	-266
▁那	-267
▁more	-268
▁because	-269
▁your	-270
em	-271
▁year	-272
▁were	-273
og	-274
▁sa	-275
our	-276
▁would	-277
▁im	-278
▁tim	-279
ine	-280
od	-281
知道	-282
▁their	-283
问题	-284
▁which	-285
▁所以	-286
▁look	-287
ment	-288
ame	-289
▁want	-290
ast	-291
▁work	-292
▁how	-293
▁ta	-294
▁really	-295
▁comp	-296
iz	-297
▁su	-298
."	-299
▁O	-300
ard	-301
ually	-302
▁Wh	-303
ous	-304
的人	-305
ood	-306
ack	-307
act	-308
gh	-309
不是	-310
▁E	-311
ap	-312
▁en	-313
reat	-314
ose	-315
▁way	-316
hing	-317
▁这是	-318
ore	-319
▁le	-320
are	-321
▁因为	-322
▁world	-323
世界	-324
▁P	-325
ab	-326
自己	-327
ans	-328
▁here	-329
▁has	-330
ag	-331
▁time	-332
ther	-333
▁当	-334
▁then	-335
▁但是	-336
非常	-337
▁per	-338
▁D	-339
ong	-340
▁You	-341
▁This	-342
▁every	-343
▁qu	-344
ace	-345
▁don	-346
▁exp	-347
▁G	-348
开始	-349
这样	-350
▁could	-351
▁into	-352
▁man	-353
一些	-354
▁他	-355
▁ev	-356
的时	-357
ions	-358
▁L	-359
▁actually	-360
res	-361
ud	-362
▁will	-363
▁是	-364
▁say	-365
▁fe	-366
需要	-367
ild	-368
▁如果	-369
▁co	-370
我的	-371
ence	-372
看到	-373
▁where	-374
itt	-375
可能	-376
age	-377
▁2	-378
▁now	-379
▁years	-380
▁things	-381
▁did	-382
▁ag	-383
▁other	-384
alk	-385
▁F	-386
然后	-387
ff	-388
ach	-389
▁Now	-390
▁somet	-391
nder	-392
iff	-393
▁In	-394
▁They	-395
的是	-396
▁been	-397
ical	-398
▁有	-399
▁any	-400
你们	-401
▁make	-402
▁no	-403
ice	-404
▁cl	-405
ip	-406
▁diff	-407
▁happ	-408
▁than	-409
▁R	-410
so	-411
▁need	-412
▁tw	-413
▁un	-414
red	-415
▁start	-416
▁pr	-417
▁right	-418
irst	-419
▁part	-420
ia	-421
▁said	-422
▁不	-423
ome	-424
ry	-425
ree	-426
▁over	-427
▁imp	-428
own	-429
▁bu	-430
ign	-431
▁dis	-432
▁something	-433
一种	-434
已经	-435
ite	-436
很多	-437
工作	-438
ory	-439
我们的	-440
ount	-441
▁back	-442
▁po	-443
pt	-444
人们	-445
uch	-446
orm	-447
东西	-448
round	-449
ens	-450
▁those	-451
▁much	-452
▁two	-453
olog	-454
▁got	-455
▁chan	-456
▁ar	-457
▁然后	-458
▁call	-459
ell	-460
ib	-461
▁first	-462
ife	-463
..	-464
▁并	-465
ater	-466
ass	-467
▁differe	-468
ound	-469
的时候	-470
的事	-471
▁also	-472
▁♫	-473
▁“	-474
sel	-475
▁ro	-476
ep	-477
▁kind	-478
ittle	-479
cent	-480
▁new	-481
ue	-482
ac	-483
▁lot	-484
它们	-485
▁little	-486
▁J	-487
▁lo	-488
认为	-489
▁cont	-490
ght	-491
ber	-492
——	-493
▁spe	-494
way	-495
ult	-496
▁ac	-497
ple	-498
▁most	-499
▁talk	-500
▁也	-501
▁That	-502
▁bet	-503
▁就	-504
ves	-505
king	-506
发现	-507
所有	-508
▁she	-509
vel	-510
ru	-511
▁ph	-512
▁这些	-513
▁res	-514
ody	-515
▁only	-516
▁under	-517
那些	-518
ving	-519
▁现在	-520
ated	-521
▁des	-522
rain	-523
或者	-524
able	-525
▁even	-526
▁his	-527
研究	-528
发生	-529
▁life	-530
ations	-531
co	-532
▁day	-533
▁这个	-534
▁sy	-535
ick	-536
▁ad	-537
大的	-538
▁am	-539
▁hum	-540
国家	-541
一样	-542
▁many	-543
lo	-544
▁take	-545
▁different	-546
ial	-547
ict	-548
孩子	-549
到了	-550
▁her	-551
不同	-552
ish	-553
ms	-554
如何	-555
other	-556
rough	-557
。”	-558
其他	-559
int	-560
du	-561
▁good	-562
生活	-563
ase	-564
ank	-565
ire	-566
▁real	-567
▁comm	-568
还有	-569
000	-570
▁around	-571
▁does	-572
重要	-573
的一	-574
pe	-575
ph	-576
▁U	-577
▁和	-578
▁through	-579
▁ide	-580
▁There	-581
▁down	-582
大家	-583
地方	-584
ents	-585
▁一	-586
▁What	-587
urn	-588
▁put	-589
cess	-590
ark	-591
▁use	-592
▁pre	-593
你的	-594
起来	-595
美国	-596
▁show	-597
▁being	-598
▁He	-599
▁off	-600
▁tell	-601
ak	-602
ors	-603
form	-604
ress	-605
通过	-606
这是	-607
ade	-608
▁bl	-609
ary	-610
ible	-611
▁对	-612
he	-613
ether	-614
▁too	-615
这种	-616
▁happen	-617
les	-618
▁same	-619
好的	-620
都是	-621
告诉	-622
▁以	-623
▁thou	-624
改变	-625
ath	-626
▁em	-627
▁她	-628
per	-629
ject	-630
ance	-631
▁proble	-632
▁try	-633
▁inc	-634
ne	-635
xt	-636
▁sm	-637
部分	-638
chn	-639
设计	-640
ang	-641
▁count	-642
wn	-643
▁fact	-644
能够	-645
ars	-646
ys	-647
ord	-648
stem	-649
row	-650
▁come	-651
iver	-652
ful	-653
方式	-654
day	-655
tern	-656
▁从	-657
ual	-658
▁ra	-659
任何	-660
▁doing	-661
ons	-662
▁gen	-663
ile	-664
▁may	-665
ric	-666
人的	-667
ning	-668
▁find	-669
为什么	-670
ool	-671
使用	-672
▁big	-673
▁br	-674
▁来	-675
中的	-676
ces	-677
▁great	-678
▁techn	-679
▁Ch	-680
ting	-681
▁让	-682
ub	-683
▁three	-684
▁human	-685
ower	-686
▁wr	-687
ved	-688
▁bec	-689
▁pers	-690
▁If	-691
ically	-692
关于	-693
▁sur	-694
人类	-695
▁percent	-696
▁tra	-697
te	-698
只是	-699
这里	-700
ied	-701
系统	-702
▁system	-703
▁dec	-704
▁well	-705
故事	-706
fter	-707
▁K	-708
illion	-709
▁而且	-710
事实	-711
ology	-712
▁build	-713
igh	-714
body	-715
nds	-716
▁app	-717
thing	-718
fore	-719
▁called	-720
▁一个	-721
不会	-722
怎么	-723
▁let	-724
▁stud	-725
self	-726
▁gu	-727
时间	-728
▁inv	-729
▁最	-730
50	-731
▁again	-732
进行	-733
cial	-734
we	-735
▁sim	-736
▁child	-737
▁quest	-738
ition	-739
ious	-740
一下	-741
应该	-742
▁made	-743
▁exper	-744
ics	-745
mer	-746
ities	-747
▁Well	-748
▁ind	-749
技术	-750
数据	-751
▁long	-752
因此	-753
一起	-754
希望	-755
▁3	-756
▁rem	-757
社会	-758
ating	-759
▁fl	-760
▁own	-761
觉得	-762
▁lear	-763
ian	-764
▁wom	-765
oss	-766
▁import	-767
▁bel	-768
是一个	-769
科学	-770
▁should	-771
必须	-772
ize	-773
be	-774
ren	-775
ew	-776
▁sc	-777
ates	-778
来的	-779
上的	-780
▁why	-781
来说	-782
oc	-783
▁它们	-784
av	-785
lic	-786
▁underst	-787
实际	-788
他们的	-789
成为	-790
?"	-791
▁turn	-792
▁change	-793
这样的	-794
ft	-795
erest	-796
▁didn	-797
正在	-798
ty	-799
不能	-800
,000	-801
▁feel	-802
▁after	-803
▁today	-804
ction	-805
这一	-806
自己的	-807
个人	-808
▁started	-809
▁thought	-810
▁important	-811
▁ob	-812
信息	-813
▁design	-814
con	-815
▁end	-816
▁mean	-817
▁person	-818
▁ask	-819
▁hel	-820
▁cour	-821
▁Thank	-822
ail	-823
als	-824
▁idea	-825
▁sci	-826
还是	-827
一次	-828
的事情	-829
▁19	-830
▁Be	-831
▁last	-832
到的	-833
▁bas	-834
ull	-835
▁him	-836
▁brain	-837
▁interest	-838
▁its	-839
▁inst	-840
▁creat	-841
old	-842
▁我想	-843
gan	-844
▁help	-845
▁car	-846
▁sch	-847
▁因此	-848
▁rel	-849
▁exam	-850
生物	-851
方法	-852
▁ins	-853
▁trans	-854
▁play	-855
▁understand	-856
▁went	-857
ution	-858
▁better	-859
样的	-860
ily	-861
ough	-862
创造	-863
▁might	-864
ost	-865
▁并且	-866
ise	-867
▁before	-868
真的	-869
▁20	-870
ists	-871
▁St	-872
的东西	-873
▁比	-874
今天	-875
▁如果你	-876
▁give	-877
我想	-878
ility	-879
ob	-880
▁another	-881
▁problem	-882
▁never	-883
▁bit	-884
喜欢	-885
▁或者	-886
ular	-887
▁ke	-888
公司	-889
▁每	-890
ave	-891
▁coll	-892
▁able	-893
▁point	-894
发展	-895
完全	-896
und	-897
ros	-898
ese	-899
▁gra	-900
▁course	-901
▁cons	-902
▁pol	-903
存在	-904
▁produ	-905
做的	-906
ven	-907
▁那么	-908
▁power	-909
▁still	-910
▁belie	-911
新的	-912
▁story	-913
▁commun	-914
▁fam	-915
▁tog	-916
,"	-917
ert	-918
▁found	-919
▁together	-920
ix	-921
▁few	-922
▁inter	-923
谢谢	-924
甚至	-925
▁bo	-926
同时	-927
kes	-928
▁ent	-929
▁plan	-930
了一个	-931
▁就是	-932
生命	-933
了一	-934
▁rep	-935
oth	-936
20	-937
这么	-938
那个	-939
▁ele	-940
▁sol	-941
更多	-942
大脑	-943
atch	-944
▁sl	-945
之后	-946
ited	-947
▁mon	-948
▁其	-949
▁ago	-950
alth	-951
▁next	-952
▁10	-953
▁kid	-954
影响	-955
事实上	-956
▁place	-957
▁num	-958
▁这就是	-959
解决	-960
▁came	-961
▁mod	-962
▁water	-963
erg	-964
▁dr	-965
velop	-966
▁sort	-967
▁high	-968
作为	-969
▁school	-970
他的	-971
经济	-972
ata	-973
▁cr	-974
▁我的	-975
帮助	-976
实际上	-977
ng	-978
ween	-979
真正	-980
uc	-981
▁learn	-982
▁str	-983
ather	-984
▁comple	-985
▁imag	-986
ED	-987
▁第	-988
iss	-989
ense	-990
read	-991
了解	-992
的问题	-993
▁used	-994
决定	-995
情况	-996
ized	-997
▁都	-998
▁between	-999
▁la	-1000
▁When	-1001
▁each	-1002
,“	-1003
meric	-1004
▁ter	-1005
ience	-1006
▁art	-1007
城市	-1008
的地方	-1009
结果	-1010
机器	-1011
ness	-1012
ork	-1013
ward	-1014
为了	-1015
实验	-1016
arch	-1017
az	-1018
▁rec	-1019
有一个	-1020
▁question	-1021
也是	-1022
▁还有	-1023
简单	-1024
ah	-1025
▁technology	-1026
▁pat	-1027
▁develop	-1028
▁ext	-1029
▁Af	-1030
▁ser	-1031
:“	-1032
ram	-1033
▁data	-1034
▁med	-1035
ures	-1036
▁大	-1037
▁small	-1038
ets	-1039
▁att	-1040
▁met	-1041
如此	-1042
▁V	-1043
过去	-1044
▁women	-1045
▁cre	-1046
选择	-1047
▁你们	-1048
得到	-1049
▁fin	-1050
▁Americ	-1051
许多	-1052
想法	-1053
意识	-1054
看看	-1055
ways	-1056
动物	-1057
▁looking	-1058
▁love	-1059
组织	-1060
是在	-1061
▁care	-1062
▁op	-1063
▁old	-1064
▁four	-1065
那里	-1066
不同的	-1067
▁grow	-1068
▁example	-1069
ific	-1070
两个	-1071
相信	-1072
cond	-1073
▁partic	-1074
时候	-1075
ute	-1076
ered	-1077
一直	-1078
事情	-1079
▁doesn	-1080
▁eff	-1081
ced	-1082
▁done	-1083
▁wanted	-1084
▁light	-1085
▁min	-1086
▁mom	-1087
仅仅	-1088
cy	-1089
▁以及	-1090
iness	-1091
▁How	-1092
ings	-1093
ative	-1094
▁comput	-1095
▁Because	-1096
▁word	-1097
cept	-1098
环境	-1099
ably	-1100
pl	-1101
▁cent	-1102
过程	-1103
▁move	-1104
▁read	-1105
之前	-1106
整个	-1107
▁ever	-1108
只有	-1109
▁hard	-1110
项目	-1111
conom	-1112
性的	-1113
▁cell	-1114
▁reas	-1115
▁stu	-1116
▁whole	-1117
formation	-1118
产生	-1119
政府	-1120
照片	-1121
ross	-1122
▁4	-1123
感觉	-1124
▁chang	-1125
变得	-1126
▁lar	-1127
▁live	-1128
年前	-1129
细胞	-1130
▁far	-1131
10	-1132
就会	-1133
oney	-1134
▁beh	-1135
ands	-1136
▁poss	-1137
原因	-1138
▁million	-1139
▁trying	-1140
here	-1141
ger	-1142
不知道	-1143
▁bi	-1144
▁ear	-1145
▁的	-1146
▁nat	-1147
ational	-1148
selves	-1149
ope	-1150
拥有	-1151
ote	-1152
ism	-1153
想象	-1154
▁always	-1155
▁away	-1156
来自	-1157
方面	-1158
▁children	-1159
?”	-1160
想要	-1161
▁ed	-1162
▁less	-1163
▁giv	-1164
▁working	-1165
▁econom	-1166
于是	-1167
地球	-1168
▁el	-1169
▁Un	-1170
艺术	-1171
▁cap	-1172
全球	-1173
ments	-1174
下来	-1175
▁believe	-1176
之间	-1177
的话	-1178
▁country	-1179
▁supp	-1180
▁Afric	-1181
▁gener	-1182
▁你可以	-1183
ural	-1184
cer	-1185
▁bus	-1186
ird	-1187
出来	-1188
自然	-1189
之一	-1190
▁resp	-1191
▁或	-1192
无法	-1193
一点	-1194
ries	-1195
▁sk	-1196
▁health	-1197
朋友	-1198
▁As	-1199
ont	-1200
gin	-1201
▁book	-1202
理解	-1203
例子	-1204
hip	-1205
nect	-1206
网络	-1207
▁expl	-1208
▁sub	-1209
ruct	-1210
▁anim	-1211
▁using	-1212
▁project	-1213
能力	-1214
vers	-1215
ps	-1216
我在	-1217
▁frie	-1218
oll	-1219
▁pict	-1220
▁cor	-1221
▁means	-1222
▁run	-1223
▁thinking	-1224
找到	-1225
▁vis	-1226
▁谢谢	-1227
▁open	-1228
变化	-1229
atter	-1230
展示	-1231
教育	-1232
▁inf	-1233
▁information	-1234
▁took	-1235
▁money	-1236
led	-1237
▁home	-1238
▁space	-1239
提供	-1240
▁organ	-1241
那么	-1242
▁可以	-1243
▁去	-1244
里的	-1245
vern	-1246
▁mus	-1247
nce	-1248
▁five	-1249
▁hand	-1250
变成	-1251
学习	-1252
▁maybe	-1253
运动	-1254
its	-1255
ident	-1256
▁create	-1257
ks	-1258
▁cou	-1259
建筑	-1260
▁pub	-1261
▁everything	-1262
ract	-1263
▁好	-1264
它的	-1265
▁比如	-1266
▁于是	-1267
是什么	-1268
▁lead	-1269
gg	-1270
aces	-1271
▁become	-1272
air	-1273
▁doll	-1274
▁number	-1275
▁用	-1276
ital	-1277
▁prob	-1278
▁人们	-1279
▁process	-1280
ues	-1281
▁当然	-1282
ond	-1283
▁kids	-1284
▁compan	-1285
▁reg	-1286
行为	-1287
对于	-1288
并不	-1289
▁spec	-1290
rib	-1291
ten	-1292
▁acc	-1293
▁prog	-1294
▁second	-1295
19	-1296
非洲	-1297
ivers	-1298
是个	-1299
▁200	-1300
学生	-1301
▁One	-1302
alf	-1303
ouse	-1304
▁mind	-1305
成功	-1306
▁fut	-1307
▁teach	-1308
lob	-1309
▁sing	-1310
关系	-1311
▁form	-1312
aut	-1313
▁head	-1314
▁walk	-1315
计算	-1316
▁事实上	-1317
▁把	-1318
▁left	-1319
音乐	-1320
iron	-1321
ever	-1322
ergy	-1323
基本	-1324
▁getting	-1325
iew	-1326
▁My	-1327
有一	-1328
▁Ind	-1329
▁eng	-1330
▁enough	-1331
▁best	-1332
ention	-1333
▁我们的	-1334
学家	-1335
意思	-1336
▁要	-1337
▁ca	-1338
▁interesting	-1339
sw	-1340
▁future	-1341
▁war	-1342
基因	-1343
ines	-1344
▁govern	-1345
iting	-1346
▁quite	-1347
▁pres	-1348
如果你	-1349
▁month	-1350
▁这种	-1351
▁grou	-1352
▁comes	-1353
▁这样	-1354
的方式	-1355
▁cle	-1356
▁social	-1357
ories	-1358
▁food	-1359
思考	-1360
▁conf	-1361
▁times	-1362
▁fun	-1363
▁set	-1364
▁making	-1365
电脑	-1366
美元	-1367
▁These	-1368
▁contro	-1369
学校	-1370
是一	-1371
▁happened	-1372
ety	-1373
▁那些	-1374
▁sense	-1375
...	-1376
▁energy	-1377
ier	-1378
▁sign	-1379
pr	-1380
▁answ	-1381
▁talking	-1382
科技	-1383
▁mark	-1384
▁She	-1385
ts	-1386
▁dem	-1387
NA	-1388
▁probably	-1389
▁add	-1390
▁told	-1391
出现	-1392
▁connect	-1393
声音	-1394
▁会	-1395
经历	-1396
安全	-1397
ertain	-1398
▁pass	-1399
▁countries	-1400
▁body	-1401
ately	-1402
▁building	-1403
imes	-1404
▁room	-1405
tty	-1406
60	-1407
reen	-1408
▁job	-1409
▁cur	-1410
▁begin	-1411
▁moment	-1412
▁将	-1413
历史	-1414
▁stuff	-1415
空间	-1416
▁就像	-1417
▁without	-1418
让我	-1419
意义	-1420
控制	-1421
▁pop	-1422
意味	-1423
▁phys	-1424
ner	-1425
ient	-1426
▁men	-1427
▁wee	-1428
ying	-1429
▁model	-1430
身体	-1431
▁young	-1432
▁For	-1433
lobal	-1434
▁elect	-1435
▁keep	-1436
▁reason	-1437
女性	-1438
▁allow	-1439
利用	-1440
ake	-1441
▁side	-1442
机会	-1443
演讲	-1444
▁env	-1445
▁没有	-1446
▁hist	-1447
▁dollars	-1448
me	-1449
有趣	-1450
irl	-1451
▁Is	-1452
ices	-1453
怎样	-1454
▁else	-1455
▁beaut	-1456
▁Here	-1457
▁lives	-1458
▁opp	-1459
▁dist	-1460
的一个	-1461
件事	-1462
▁coming	-1463
▁pretty	-1464
就像	-1465
▁anything	-1466
另一个	-1467
▁pie	-1468
▁gr	-1469
的时间	-1470
▁half	-1471
未来	-1472
▁prot	-1473
▁top	-1474
▁soci	-1475
▁def	-1476
▁science	-1477
▁such	-1478
▁—	-1479
ogra	-1480
以及	-1481
建立	-1482
ember	-1483
印度	-1484
各种	-1485
ortun	-1486
▁An	-1487
▁stop	-1488
▁business	-1489
▁很	-1490
▁与	-1491
世纪	-1492
令人	-1493
der	-1494
特别	-1495
▁across	-1496
▁saw	-1497
ality	-1498
uring	-1499
意味着	-1500
gs	-1501
我们可以	-1502
复杂	-1503
▁Let	-1504
▁No	-1505
▁New	-1506
所有的	-1507
io	-1508
man	-1509
▁rese	-1510
健康	-1511
▁matter	-1512
▁bad	-1513
▁wo	-1514
ead	-1515
▁environ	-1516
其实	-1517
ior	-1518
完成	-1519
最后	-1520
most	-1521
▁family	-1522
▁(	-1523
其中	-1524
是否	-1525
idd	-1526
kay	-1527
▁eas	-1528
在一起	-1529
▁bring	-1530
制造	-1531
让我们	-1532
▁seen	-1533
▁makes	-1534
▁sound	-1535
▁这里	-1536
▁stand	-1537
确实	-1538
尝试	-1539
▁later	-1540
ince	-1541
▁All	-1542
▁ty	-1543
▁says	-1544
amp	-1545
ided	-1546
保护	-1547
宇宙	-1548
游戏	-1549
▁educ	-1550
▁我们可以	-1551
▁[	-1552
ots	-1553
olution	-1554
▁scient	-1555
感到	-1556
ream	-1557
多少	-1558
▁ey	-1559
▁hope	-1560
▁asked	-1561
▁Africa	-1562
做了	-1563
▁所有	-1564
▁particular	-1565
▁fig	-1566
80	-1567
ott	-1568
▁living	-1569
主义	-1570
文化	-1571
▁experience	-1572
ime	-1573
arth	-1574
有些	-1575
▁aut	-1576
▁hour	-1577
▁share	-1578
▁simple	-1579
说的	-1580
▁ways	-1581
ective	-1582
医生	-1583
当时	-1584
▁det	-1585
▁我认为	-1586
重要的	-1587
▁Chin	-1588
▁having	-1589
把它	-1590
▁goes	-1591
合作	-1592
神经	-1593
where	-1594
ash	-1595
ization	-1596
参与	-1597
ken	-1598
▁sit	-1599
▁global	-1600
▁happens	-1601
arr	-1602
▁research	-1603
▁case	-1604
▁♪	-1605
ught	-1606
▁fore	-1607
lf	-1608
年的	-1609
▁days	-1610
▁complete	-1611
▁正	-1612
活动	-1613
语言	-1614
▁list	-1615
进入	-1616
▁val	-1617
▁cult	-1618
意识到	-1619
▁equ	-1620
▁air	-1621
我们在	-1622
▁ref	-1623
▁所以我	-1624
地区	-1625
多数	-1626
几个	-1627
食物	-1628
▁即	-1629
▁col	-1630
▁picture	-1631
目标	-1632
▁thous	-1633
获得	-1634
▁computer	-1635
ilt	-1636
计划	-1637
ready	-1638
▁planet	-1639
▁wonder	-1640
继续	-1641
ike	-1642
▁single	-1643
中国	-1644
iter	-1645
注意	-1646
orn	-1647
▁city	-1648
你可以	-1649
▁Se	-1650
▁polit	-1651
也许	-1652
▁level	-1653
▁rob	-1654
▁char	-1655
中心	-1656
▁为什么	-1657
另一	-1658
小时	-1659
政治	-1660
▁watch	-1661
ins	-1662
▁通过	-1663
▁prof	-1664
▁phot	-1665
▁bre	-1666
allen	-1667
ants	-1668
arent	-1669
▁problems	-1670
aps	-1671
▁mem	-1672
▁9	-1673
将会	-1674
第一	-1675
另外	-1676
所以	-1677
模式	-1678
▁almost	-1679
▁不过	-1680
angu	-1681
less	-1682
med	-1683
▁while	-1684
▁rest	-1685
▁Earth	-1686
30	-1687
▁loc	-1688
▁dise	-1689
世界上	-1690
▁six	-1691
▁public	-1692
接受	-1693
▁environment	-1694
▁amaz	-1695
▁both	-1696
▁inside	-1697
才能	-1698
▁test	-1699
ograph	-1700
市场	-1701
▁saying	-1702
▁already	-1703
▁sure	-1704
uge	-1705
▁Al	-1706
▁community	-1707
大学	-1708
▁mach	-1709
联系	-1710
更加	-1711
ulation	-1712
▁只	-1713
有人	-1714
看起来	-1715
▁这是一个	-1716
作用	-1717
治疗	-1718
解释	-1719
unch	-1720
▁certain	-1721
疾病	-1722
叫做	-1723
▁yet	-1724
▁mor	-1725
▁hear	-1726
▁而是	-1727
▁到	-1728
no	-1729
然而	-1730
▁looked	-1731
▁billion	-1732
小的	-1733
▁answer	-1734
家庭	-1735
ases	-1736
▁TED	-1737
▁suc	-1738
▁我在	-1739
▁possible	-1740
努力	-1741
ivid	-1742
osed	-1743
▁nothing	-1744
工具	-1745
▁langu	-1746
▁whether	-1747
▁30	-1748
▁once	-1749
▁control	-1750
价值	-1751
▁gl	-1752
几乎	-1753
▁但我	-1754
ange	-1755
▁pain	-1756
ury	-1757
年轻	-1758
▁exc	-1759
▁girl	-1760
重新	-1761
量的	-1762
▁age	-1763
▁同时	-1764
▁disco	-1765
▁someone	-1766
▁100	-1767
▁contin	-1768
▁50	-1769
▁vide	-1770
三个	-1771
▁music	-1772
▁basically	-1773
▁par	-1774
首先	-1775
▁within	-1776
▁iss	-1777
imate	-1778
▁challen	-1779
▁ideas	-1780
领域	-1781
itive	-1782
work	-1783
▁lab	-1784
▁wrong	-1785
▁unt	-1786
▁ass	-1787
▁often	-1788
实现	-1789
电影	-1790
▁如果我们	-1791
▁exact	-1792
▁remember	-1793
▁looks	-1794
▁amazing	-1795
▁mil	-1796
▁incred	-1797
ield	-1798
▁product	-1799
▁history	-1800
生产	-1801
机器人	-1802
Wh	-1803
是我们	-1804
▁myself	-1805
回到	-1806
side	-1807
▁然而	-1808
oice	-1809
▁guy	-1810
▁beautif	-1811
▁wa	-1812
出了	-1813
▁cost	-1814
▁7	-1815
十分	-1816
死亡	-1817
ene	-1818
▁true	-1819
▁所以我们	-1820
▁非常	-1821
▁treat	-1822
我要	-1823
▁dev	-1824
▁months	-1825
▁接	-1826
看到的	-1827
▁heart	-1828
▁dire	-1829
▁Intern	-1830
”。	-1831
年代	-1832
▁Why	-1833
同样	-1834
并不是	-1835
ters	-1836
里面	-1837
ages	-1838
de	-1839
关注	-1840
反应	-1841
社区	-1842
ware	-1843
数字	-1844
答案	-1845
undred	-1846
包括	-1847
▁sw	-1848
▁night	-1849
▁imagine	-1850
讨论	-1851
就可以	-1852
lish	-1853
▁kill	-1854
▁United	-1855
iverse	-1856
曾经	-1857
cle	-1858
观察	-1859
aterial	-1860
▁再	-1861
作品	-1862
up	-1863
就能	-1864
▁self	-1865
▁large	-1866
▁entire	-1867
uck	-1868
ling	-1869
处理	-1870
▁heard	-1871
▁被	-1872
200	-1873
▁Or	-1874
▁figure	-1875
ians	-1876
产品	-1877
▁对于	-1878
▁adv	-1879
bers	-1880
▁wasn	-1881
都有	-1882
▁individ	-1883
都会	-1884
utes	-1885
▁'	-1886
太阳	-1887
uro	-1888
▁class	-1889
▁state	-1890
▁cells	-1891
持续	-1892
孩子们	-1893
▁che	-1894
▁更	-1895
更多的	-1896
ivity	-1897
▁works	-1898
感谢	-1899
eah	-1900
▁cond	-1901
▁group	-1902
分享	-1903
ollow	-1904
▁你会	-1905
land	-1906
▁face	-1907
▁order	-1908
ired	-1909
▁hundred	-1910
▁full	-1911
▁news	-1912
现实	-1913
▁words	-1914
ex	-1915
一定	-1916
过的	-1917
ering	-1918
她的	-1919
▁beautiful	-1920
▁还	-1921
oot	-1922
分钟	-1923
挑战	-1924
ives	-1925
▁friends	-1926
▁mag	-1927
vious	-1928
▁government	-1929
▁aff	-1930
相当	-1931
iddle	-1932
▁5	-1933
自由	-1934
▁也许	-1935
区域	-1936
▁built	-1937
▁net	-1938
▁couple	-1939
▁最后	-1940
容易	-1941
百万	-1942
ock	-1943
是我	-1944
▁pay	-1945
ected	-1946
有点	-1947
▁当我	-1948
▁appro	-1949
▁fil	-1950
▁sec	-1951
▁incre	-1952
▁result	-1953
▁实际上	-1954
▁Fr	-1955
▁individual	-1956
结构	-1957
▁must	-1958
▁material	-1959
准备	-1960
▁ret	-1961
不可	-1962
有了	-1963
汽车	-1964
outh	-1965
atic	-1966
▁front	-1967
▁until	-1968
出的	-1969
认识	-1970
▁无	-1971
▁能	-1972
▁ris	-1973
▁tre	-1974
成的	-1975
aper	-1976
bs	-1977
▁为	-1978
超过	-1979
get	-1980
▁甚至	-1981
服务	-1982
在这	-1983
ustr	-1984
▁vir	-1985
▁piece	-1986
制作	-1987
某种	-1988
▁Br	-1989
资源	-1990
▁law	-1991
在这里	-1992
▁follow	-1993
观众	-1994
▁像	-1995
行动	-1996
ush	-1997
oy	-1998
显示	-1999
力量	-2000
▁market	-2001
▁places	-2002
▁everybody	-2003
色的	-2004
▁quick	-2005
▁cancer	-2006
▁di	-2007
▁fund	-2008
▁species	-2009
▁completely	-2010
▁decided	-2011
▁Internet	-2012
主要	-2013
▁const	-2014
▁States	-2015
▁z	-2016
视频	-2017
▁became	-2018
....	-2019
▁knew	-2020
▁name	-2021
▁isn	-2022
▁line	-2023
▁past	-2024
代表	-2025
兴趣	-2026
ats	-2027
▁deep	-2028
to	-2029
▁可	-2030
的故事	-2031
战争	-2032
▁land	-2033
▁object	-2034
▁当你	-2035
15	-2036
line	-2037
▁language	-2038
▁cra	-2039
▁though	-2040
模型	-2041
▁让我们	-2042
▁education	-2043
根本	-2044
的大	-2045
▁15	-2046
▁view	-2047
带来	-2048
▁At	-2049
总是	-2050
程度	-2051
omes	-2052
▁tool	-2053
唯一	-2054
我说	-2055
直到	-2056
▁abs	-2057
巨大的	-2058
▁terr	-2059
▁experim	-2060
分子	-2061
支持	-2062
ane	-2063
发生了	-2064
去了	-2065
▁happening	-2066
增长	-2067
ision	-2068
▁learned	-2069
明白	-2070
那样	-2071
的方法	-2072
这个问题	-2073
可能会	-2074
▁invest	-2075
▁dra	-2076
▁America	-2077
ined	-2078
▁Every	-2079
▁study	-2080
▁train	-2081
当然	-2082
▁stories	-2083
越来	-2084
▁dru	-2085
▁exactly	-2086
cing	-2087
▁free	-2088
▁video	-2089
br	-2090
▁taking	-2091
ental	-2092
类似	-2093
ator	-2094
寻找	-2095
理论	-2096
▁somebody	-2097
▁students	-2098
▁看	-2099
ien	-2100
▁sca	-2101
▁huge	-2102
不到	-2103
精神	-2104
nov	-2105
越来越	-2106
▁house	-2107
aw	-2108
比较	-2109
真实	-2110
▁woman	-2111
▁itself	-2112
▁也就是	-2113
病毒	-2114
gest	-2115
▁deal	-2116
▁animals	-2117
▁gets	-2118
▁nature	-2119
end	-2120
▁engine	-2121
海洋	-2122
考虑	-2123
▁success	-2124
发明	-2125
▁struct	-2126
基础	-2127
rop	-2128
▁society	-2129
知识	-2130
第二	-2131
科学家	-2132
aster	-2133
ret	-2134
omet	-2135
都在	-2136
TED	-2137
▁pos	-2138
▁mess	-2139
▁since	-2140
▁av	-2141
ients	-2142
▁universe	-2143
ones	-2144
▁ones	-2145
目前	-2146
▁themselves	-2147
成了	-2148
观点	-2149
▁against	-2150
▁ourselves	-2151
▁mic	-2152
ional	-2153
▁spend	-2154
▁questions	-2155
多的	-2156
dd	-2157
▁我们在	-2158
▁kinds	-2159
力的	-2160
▁Do	-2161
化的	-2162
虽然	-2163
itting	-2164
工程	-2165
是因为	-2166
办法	-2167
ogn	-2168
▁close	-2169
▁opportun	-2170
女孩	-2171
通常	-2172
ocus	-2173
▁meet	-2174
电话	-2175
acter	-2176
▁behav	-2177
上面	-2178
▁sometimes	-2179
不断	-2180
每个	-2181
face	-2182
机构	-2183
etic	-2184
▁meas	-2185
▁turns	-2186
▁使	-2187
▁OK	-2188
ee	-2189
纽约	-2190
ctor	-2191
icult	-2192
▁India	-2193
sy	-2194
▁CA	-2195
att	-2196
的人们	-2197
thers	-2198
的小	-2199
一个人	-2200
▁prov	-2201
▁along	-2202
的工作	-2203
▁company	-2204
▁complex	-2205
尽管	-2206
lud	-2207
ron	-2208
▁dep	-2209
▁Some	-2210
gle	-2211
▁关于	-2212
▁hours	-2213
▁created	-2214
以前	-2215
结束	-2216
但是	-2217
▁minutes	-2218
eg	-2219
haps	-2220
▁couldn	-2221
听到	-2222
同样的	-2223
▁team	-2224
ability	-2225
她们	-2226
投资	-2227
▁focus	-2228
▁worked	-2229
▁mass	-2230
▁pred	-2231
▁disease	-2232
cc	-2233
▁其实	-2234
▁我们需要	-2235
iversity	-2236
▁oce	-2237
▁sex	-2238
▁clear	-2239
有关	-2240
很多人	-2241
▁parent	-2242
病人	-2243
在一个	-2244
每个人	-2245
传统	-2246
ium	-2247
▁Ar	-2248
▁hold	-2249
▁Sh	-2250
概念	-2251
ames	-2252
▁relations	-2253
11	-2254
身上	-2255
▁mother	-2256
urs	-2257
▁God	-2258
▁Then	-2259
▁rather	-2260
做出	-2261
ature	-2262
哪里	-2263
母亲	-2264
自我	-2265
计算机	-2266
ming	-2267
▁Can	-2268
”,	-2269
材料	-2270
▁wind	-2271
离开	-2272
记录	-2273
▁ill	-2274
▁thousands	-2275
▁least	-2276
一切	-2277
▁third	-2278
▁如	-2279
▁bott	-2280
▁black	-2281
清楚	-2282
最终	-2283
ibly	-2284
▁program	-2285
▁difficult	-2286
能源	-2287
▁everyone	-2288
并且	-2289
有的	-2290
▁innov	-2291
▁others	-2292
▁说	-2293
第一个	-2294
▁Chr	-2295
▁emp	-2296
▁那就是	-2297
▁guys	-2298
▁exist	-2299
illions	-2300
▁fly	-2301
▁liter	-2302
测试	-2303
ale	-2304
▁won	-2305
▁early	-2306
做到	-2307
第一次	-2308
一位	-2309
大概	-2310
▁jour	-2311
愿意	-2312
百分	-2313
▁其中	-2314
▁...	-2315
手机	-2316
▁math	-2317
▁listen	-2318
用的	-2319
istic	-2320
▁miss	-2321
▁bab	-2322
▁instead	-2323
媒体	-2324
英国	-2325
角度	-2326
仅仅是	-2327
ither	-2328
▁给	-2329
app	-2330
▁game	-2331
ially	-2332
wards	-2333
cul	-2334
▁lots	-2335
▁speak	-2336
ider	-2337
ented	-2338
▁gave	-2339
▁happy	-2340
ination	-2341
医疗	-2342
记得	-2343
实验室	-2344
▁aud	-2345
▁field	-2346
速度	-2347
iqu	-2348
▁var	-2349
erv	-2350
▁rad	-2351
▁arch	-2352
▁norm	-2353
▁amount	-2354
▁不是	-2355
▁作为	-2356
olved	-2357
▁taken	-2358
也不	-2359
就在	-2360
▁leg	-2361
▁systems	-2362
▁mot	-2363
▁sens	-2364
物质	-2365
受到	-2366
▁当我们	-2367
▁outside	-2368
得不	-2369
The	-2370
▁Euro	-2371
仍然	-2372
not	-2373
别人	-2374
▁York	-2375
▁fail	-2376
▁simp	-2377
▁natural	-2378
12	-2379
关键	-2380
领导	-2381
uss	-2382
世界的	-2383
充满	-2384
▁pot	-2385
▁difference	-2386
移动	-2387
▁network	-2388
错误	-2389
iol	-2390
▁今天	-2391
▁他说	-2392
谈论	-2393
定的	-2394
▁Pe	-2395
▁cir	-2396
utions	-2397
当你	-2398
ared	-2399
▁bro	-2400
▁step	-2401
▁death	-2402
等等	-2403
▁record	-2404
名字	-2405
aking	-2406
▁extra	-2407
▁changed	-2408
有个	-2409
飞行	-2410
ential	-2411
▁American	-2412
ift	-2413
▁hy	-2414
▁ve	-2415
▁大家	-2416
▁China	-2417
回答	-2418
这就是	-2419
你会	-2420
▁为了	-2421
试图	-2422
▁stre	-2423
▁recent	-2424
▁support	-2425
▁interact	-2426
▁由	-2427
一天	-2428
图片	-2429
大约	-2430
导致	-2431
证明	-2432
100	-2433
ological	-2434
▁learning	-2435
▁ant	-2436
▁middle	-2437
后来	-2438
有效	-2439
正确	-2440
有很多	-2441
▁lim	-2442
男人	-2443
▁18	-2444
▁Okay	-2445
▁effect	-2446
数学	-2447
电视	-2448
vered	-2449
40	-2450
每天	-2451
在这个	-2452
▁shap	-2453
▁colle	-2454
应用	-2455
rew	-2456
▁cam	-2457
▁oper	-2458
▁leave	-2459
ased	-2460
▁cut	-2461
▁saf	-2462
女人	-2463
相关	-2464
父母	-2465
▁relationship	-2466
管理	-2467
而言	-2468
▁seven	-2469
设备	-2470
面对	-2471
▁rev	-2472
ully	-2473
▁machine	-2474
保持	-2475
▁area	-2476
orth	-2477
▁eyes	-2478
ides	-2479
▁Europe	-2480
大多数	-2481
▁red	-2482
▁typ	-2483
▁turned	-2484
▁century	-2485
人口	-2486
▁cities	-2487
植物	-2488
▁es	-2489
的世界	-2490
fect	-2491
▁da	-2492
elt	-2493
▁dig	-2494
足够	-2495
并没有	-2496
▁beginning	-2497
连接	-2498
era	-2499
▁behind	-2500
电子	-2501
▁因为我	-2502
▁ident	-2503
父亲	-2504
不可能	-2505
▁green	-2506
▁yourself	-2507
一样的	-2508
▁dream	-2509
▁given	-2510
增加	-2511
直接	-2512
els	-2513
gen	-2514
▁hands	-2515
▁behavior	-2516
看见	-2517
至少	-2518
▁low	-2519
下的	-2520
ney	-2521
olute	-2522
很好	-2523
是如何	-2524
▁common	-2525
inal	-2526
inary	-2527
▁pick	-2528
▁explain	-2529
iving	-2530
▁local	-2531
也会	-2532
做什么	-2533
我们所	-2534
verage	-2535
▁communic	-2536
oh	-2537
▁40	-2538
▁del	-2539
▁short	-2540
内容	-2541
民主	-2542
sych	-2543
▁needed	-2544
▁population	-2545
利亚	-2546
▁reach	-2547
▁seeing	-2548
探索	-2549
物种	-2550
简单的	-2551
▁Man	-2552
▁sent	-2553
▁began	-2554
▁takes	-2555
itch	-2556
▁finally	-2557
▁On	-2558
你知道	-2559
▁Eng	-2560
交流	-2561
ern	-2562
ison	-2563
▁sym	-2564
▁easy	-2565
▁break	-2566
▁perhaps	-2567
ey	-2568
ges	-2569
ove	-2570
lock	-2571
astic	-2572
▁access	-2573
例如	-2574
共同	-2575
气候	-2576
老师	-2577
建造	-2578
▁12	-2579
放在	-2580
aring	-2581
itions	-2582
儿童	-2583
想到	-2584
ump	-2585
year	-2586
而且	-2587
达到	-2588
▁pattern	-2589
▁impro	-2590
具有	-2591
ipp	-2592
真正的	-2593
▁我不	-2594
▁首先	-2595
reme	-2596
十年	-2597
用来	-2598
▁我说	-2599
▁non	-2600
▁oil	-2601
▁moving	-2602
了我	-2603
在我	-2604
物理	-2605
现象	-2606
▁jo	-2607
▁terms	-2608
ples	-2609
▁culture	-2610
▁companies	-2611
互联	-2612
com	-2613
▁obvious	-2614
药物	-2615
▁6	-2616
创新	-2617
随着	-2618
jor	-2619
▁Not	-2620
▁stay	-2621
方向	-2622
范围	-2623
▁needs	-2624
时代	-2625
▁opt	-2626
也有	-2627
减少	-2628
让人	-2629
ero	-2630
ery	-2631
▁tot	-2632
▁cannot	-2633
▁realized	-2634
▁fre	-2635
▁trad	-2636
▁parts	-2637
▁longer	-2638
▁simply	-2639
▁powerful	-2640
更好	-2641
本身	-2642
网站	-2643
▁during	-2644
癌症	-2645
▁第二	-2646
idence	-2647
▁emot	-2648
ony	-2649
▁paper	-2650
▁super	-2651
。“	-2652
功能	-2653
▁tem	-2654
▁而不是	-2655
▁intell	-2656
You	-2657
的情况	-2658
能量	-2659
给你们	-2660
▁wonderful	-2661
明显	-2662
看着	-2663
表现	-2664
上去	-2665
企业	-2666
到底	-2667
团队	-2668
▁我要	-2669
我认为	-2670
▁father	-2671
▁DNA	-2672
▁image	-2673
给我	-2674
ton	-2675
的一部分	-2676
▁Just	-2677
▁serv	-2678
▁viol	-2679
▁famil	-2680
▁friend	-2681
我不	-2682
最大的	-2683
▁surv	-2684
形式	-2685
某些	-2686
▁我是	-2687
是一种	-2688
▁occ	-2689
▁To	-2690
▁week	-2691
▁eight	-2692
刚刚	-2693
之间的	-2694
了这个	-2695
▁size	-2696
▁includ	-2697
▁reality	-2698
ax	-2699
port	-2700
▁因为我们	-2701
▁psych	-2702
样子	-2703
▁chem	-2704
▁event	-2705
▁disc	-2706
者的	-2707
▁当时	-2708
体的	-2709
告诉你	-2710
▁repres	-2711
危险	-2712
我是	-2713
突然	-2714
▁一些	-2715
▁major	-2716
▁absolute	-2717
▁ge	-2718
的原因	-2719
▁arg	-2720
▁felt	-2721
分析	-2722
欧洲	-2723
永远	-2724
cious	-2725
▁tried	-2726
▁resour	-2727
▁perform	-2728
▁whatever	-2729
我会	-2730
基本上	-2731
▁parents	-2732
ode	-2733
▁ess	-2734
斯坦	-2735
▁poor	-2736
▁perfect	-2737
▁special	-2738
▁priv	-2739
ised	-2740
▁sun	-2741
▁press	-2742
70	-2743
一张	-2744
▁pract	-2745
▁quickly	-2746
▁approach	-2747
一步	-2748
开发	-2749
很难	-2750
飞机	-2751
hood	-2752
▁我觉得	-2753
fully	-2754
▁squ	-2755
▁economic	-2756
我就	-2757
进化	-2758
lease	-2759
▁fish	-2760
▁phone	-2761
90	-2762
人员	-2763
其它	-2764
面的	-2765
osp	-2766
oogle	-2767
▁fall	-2768
▁wall	-2769
▁robot	-2770
▁surpr	-2771
▁expect	-2772
会有	-2773
▁media	-2774
商业	-2775
rought	-2776
▁blood	-2777
公共	-2778
坐在	-2779
很有	-2780
数量	-2781
rodu	-2782
ibility	-2783
经常	-2784
▁protect	-2785
▁People	-2786
规模	-2787
▁已经	-2788
互联网	-2789
▁dark	-2790
▁想	-2791
itect	-2792
▁situ	-2793
周围	-2794
▁让我	-2795
▁insp	-2796
▁requ	-2797
▁personal	-2798
Well	-2799
困难	-2800
▁emb	-2801
ledge	-2802
▁grand	-2803
▁present	-2804
来看	-2805
▁Tw	-2806
crib	-2807
▁buy	-2808
▁yes	-2809
ising	-2810
▁ground	-2811
▁humans	-2812
sh	-2813
ged	-2814
▁interested	-2815
▁你的	-2816
ilar	-2817
▁conv	-2818
▁ocean	-2819
▁spent	-2820
心理	-2821
▁有些	-2822
▁gone	-2823
▁growth	-2824
▁opportunity	-2825
unt	-2826
urb	-2827
ards	-2828
orld	-2829
rent	-2830
▁但我们	-2831
▁strong	-2832
lt	-2833
以后	-2834
地图	-2835
▁尽管	-2836
百分之	-2837
▁recogn	-2838
▁political	-2839
▁我会	-2840
▁civ	-2841
▁scale	-2842
不要	-2843
位置	-2844
难以	-2845
bor	-2846
ived	-2847
▁Z	-2848
相同	-2849
▁-	-2850
▁feed	-2851
▁weeks	-2852
oph	-2853
预测	-2854
人都	-2855
型的	-2856
▁你知道	-2857
▁fight	-2858
▁measure	-2859
表达	-2860
▁key	-2861
▁known	-2862
▁虽然	-2863
▁risk	-2864
个月	-2865
▁即使	-2866
告诉我	-2867
avor	-2868
▁ability	-2869
▁除	-2870
地的	-2871
▁travel	-2872
如果我们	-2873
不再	-2874
ler	-2875
ains	-2876
ators	-2877
消息	-2878
▁blue	-2879
▁下	-2880
严重	-2881
方案	-2882
▁either	-2883
▁leaders	-2884
▁eat	-2885
▁sitting	-2886
手术	-2887
▁enc	-2888
▁vers	-2889
▁predict	-2890
尼亚	-2891
过来	-2892
room	-2893
▁consum	-2894
▁economy	-2895
让你	-2896
zy	-2897
调查	-2898
▁May	-2899
▁fear	-2900
ole	-2901
▁cy	-2902
▁direct	-2903
加入	-2904
程序	-2905
▁shows	-2906
▁changes	-2907
有着	-2908
其他的	-2909
▁intern	-2910
▁surface	-2911
上帝	-2912
给你	-2913
▁美国	-2914
ouch	-2915
▁near	-2916
▁extreme	-2917
快乐	-2918
梦想	-2919
ologies	-2920
18	-2921
根据	-2922
ills	-2923
收入	-2924
大部分	-2925
最好的	-2926
▁Our	-2927
▁dest	-2928
▁mult	-2929
▁Right	-2930
▁architect	-2931
▁lost	-2932
▁impact	-2933
▁respons	-2934
▁send	-2935
ik	-2936
各位	-2937
▁obs	-2938
izing	-2939
▁可能	-2940
▁能够	-2941
也可以	-2942
▁sum	-2943
cially	-2944
来到	-2945
更好的	-2946
▁climate	-2947
bo	-2948
要求	-2949
▁democ	-2950
▁challenge	-2951
眼睛	-2952
全世界	-2953
▁write	-2954
ral	-2955
▁在我	-2956
▁value	-2957
▁white	-2958
▁incredible	-2959
对我	-2960
拍摄	-2961
▁feet	-2962
在于	-2963
行的	-2964
▁cool	-2965
▁morning	-2966
当我	-2967
担心	-2968
uth	-2969
▁ap	-2970
▁它是	-2971
▁caus	-2972
▁orig	-2973
▁animal	-2974
ug	-2975
▁请	-2976
事物	-2977
传播	-2978
国际	-2979
▁har	-2980
▁他们的	-2981
iny	-2982
▁那是	-2983
▁cal	-2984
▁areas	-2985
▁wouldn	-2986
▁却	-2987
▁feeling	-2988
确定	-2989
anger	-2990
肯定	-2991
发生在	-2992
▁structure	-2993
▁直到	-2994
状态	-2995
石油	-2996
妈妈	-2997
What	-2998
ument	-2999
▁micro	-3000
entially	-3001
▁8	-3002
体验	-3003
只能	-3004
它是	-3005
形成	-3006
现代	-3007
过程中	-3008
▁based	-3009
cl	-3010
这一点	-3011
book	-3012
▁patients	-3013
ales	-3014
▁nice	-3015
▁slow	-3016
ev	-3017
ny	-3018
称为	-3019
经过	-3020
道德	-3021
那种	-3022
▁draw	-3023
▁bottom	-3024
▁physical	-3025
定义	-3026
erm	-3027
住在	-3028
ule	-3029
lect	-3030
▁indust	-3031
医院	-3032
提高	-3033
法律	-3034
软件	-3035
▁anal	-3036
▁fast	-3037
▁pull	-3038
▁soft	-3039
▁average	-3040
▁growing	-3041
ted	-3042
它们的	-3043
问题是	-3044
▁neigh	-3045
面临	-3046
eed	-3047
人类的	-3048
▁redu	-3049
参加	-3050
▁结果	-3051
国家的	-3052
过去的	-3053
我们需要	-3054
▁foot	-3055
▁numbers	-3056
子的	-3057
系列	-3058
▁还是	-3059
▁mar	-3060
▁post	-3061
cr	-3062
一年	-3063
▁comb	-3064
▁brought	-3065
▁photograph	-3066
任务	-3067
你在	-3068
信号	-3069
宗教	-3070
有什么	-3071
▁born	-3072
出来的	-3073
似乎	-3074
▁都是	-3075
▁evolution	-3076
▁scientists	-3077
▁”	-3078
化学	-3079
hor	-3080
ateg	-3081
▁realize	-3082
▁attention	-3083
▁box	-3084
▁win	-3085
▁profess	-3086
描述	-3087
相互	-3088
ustain	-3089
暴力	-3090
正常	-3091
生活在	-3092
dden	-3093
▁bene	-3094
of	-3095
平均	-3096
思想	-3097
比如	-3098
生的	-3099
▁我知道	-3100
最近	-3101
试着	-3102
长的	-3103
vent	-3104
ression	-3105
▁sudden	-3106
▁experiment	-3107
从来	-3108
其他人	-3109
▁die	-3110
▁pur	-3111
▁mole	-3112
lu	-3113
一段	-3114
子里	-3115
▁只有	-3116
▁literally	-3117
▁understanding	-3118
事件	-3119
目的	-3120
▁在这个	-3121
▁wrote	-3122
多么	-3123
好像	-3124
▁例如	-3125
leep	-3126
▁medic	-3127
▁hundreds	-3128
发现了	-3129
感兴趣	-3130
▁deg	-3131
▁hor	-3132
25	-3133
ified	-3134
ensive	-3135
▁knowledge	-3136
尤其	-3137
幸福	-3138
生存	-3139
▁ste	-3140
▁film	-3141
▁prin	-3142
loy	-3143
chie	-3144
感受	-3145
是很	-3146
风险	-3147
ext	-3148
发生的	-3149
▁circ	-3150
一条	-3151
阶段	-3152
▁vol	-3153
▁serious	-3154
奇怪	-3155
收集	-3156
▁running	-3157
▁technologies	-3158
DNA	-3159
▁main	-3160
▁instit	-3161
带着	-3162
bon	-3163
▁无论	-3164
值得	-3165
行星	-3166
acy	-3167
不需要	-3168
了我们	-3169
▁mov	-3170
▁text	-3171
全部	-3172
和我	-3173
很快	-3174
ored	-3175
▁civil	-3176
聪明	-3177
的孩子	-3178
▁我希望	-3179
▁meaning	-3180
标准	-3181
我们要	-3182
▁map	-3183
▁hosp	-3184
▁alone	-3185
▁seems	-3186
▁starting	-3187
完美	-3188
eng	-3189
ned	-3190
ging	-3191
▁ball	-3192
▁sour	-3193
里斯	-3194
ped	-3195
▁ast	-3196
▁rock	-3197
▁giving	-3198
▁millions	-3199
你能	-3200
新闻	-3201
bit	-3202
▁但是我	-3203
ption	-3204
▁World	-3205
▁polic	-3206
oon	-3207
▁fac	-3208
▁Yeah	-3209
▁color	-3210
▁guess	-3211
▁developed	-3212
我们有	-3213
▁books	-3214
▁spread	-3215
▁similar	-3216
by	-3217
▁sea	-3218
▁tools	-3219
▁movement	-3220
本书	-3221
▁flo	-3222
▁crit	-3223
▁prom	-3224
▁stra	-3225
▁forward	-3226
房间	-3227
ows	-3228
▁miles	-3229
效果	-3230
森林	-3231
说过	-3232
▁25	-3233
▁favor	-3234
生态	-3235
训练	-3236
▁做	-3237
试验	-3238
aged	-3239
▁telling	-3240
普通	-3241
这张	-3242
par	-3243
ai	-3244
革命	-3245
iod	-3246
omen	-3247
▁dead	-3248
美丽	-3249
意思是	-3250
看到了	-3251
▁vill	-3252
head	-3253
▁soon	-3254
▁South	-3255
▁force	-3256
▁issue	-3257
▁development	-3258
兴奋	-3259
后的	-3260
因素	-3261
▁一种	-3262
▁fundam	-3263
▁describ	-3264
失败	-3265
水平	-3266
▁人	-3267
不仅	-3268
专家	-3269
打开	-3270
经验	-3271
表演	-3272
我们能	-3273
▁hot	-3274
▁path	-3275
▁images	-3276
por	-3277
▁但这	-3278
▁depe	-3279
▁anyone	-3280
▁collect	-3281
用于	-3282
▁theory	-3283
在那	-3284
chan	-3285
▁tele	-3286
▁relig	-3287
以为	-3288
ades	-3289
iant	-3290
racy	-3291
▁thank	-3292
▁compet	-3293
▁tradition	-3294
ggest	-3295
▁touch	-3296
▁talked	-3297
▁audience	-3298
不过	-3299
▁gives	-3300
▁center	-3301
自身	-3302
得到了	-3303
问题的	-3304
▁sell	-3305
▁issues	-3306
▁proper	-3307
▁absolutely	-3308
▁又	-3309
一只	-3310
回来	-3311
妇女	-3312
恐怖	-3313
是有	-3314
▁suggest	-3315
▁electric	-3316
oose	-3317
▁convers	-3318
▁current	-3319
▁假	-3320
好了	-3321
吸引	-3322
恐惧	-3323
▁Am	-3324
每一个	-3325
▁forest	-3326
图像	-3327
政策	-3328
绝对	-3329
我们就	-3330
的研究	-3331
▁suff	-3332
▁stage	-3333
我所	-3334
▁接着	-3335
了很多	-3336
▁avail	-3337
▁worth	-3338
Th	-3339
▁60	-3340
▁chance	-3341
▁visual	-3342
会议	-3343
记忆	-3344
▁period	-3345
是的	-3346
英尺	-3347
视觉	-3348
▁我们有	-3349
糟糕	-3350
▁sn	-3351
amed	-3352
▁sil	-3353
▁我们要	-3354
▁road	-3355
星期	-3356
需求	-3357
告诉我们	-3358
▁cars	-3359
▁English	-3360
当我们	-3361
▁ice	-3362
重要的是	-3363
▁achie	-3364
pecially	-3365
▁只是	-3366
▁rul	-3367
▁showed	-3368
oud	-3369
▁camp	-3370
▁track	-3371
ilities	-3372
▁solution	-3373
▁arr	-3374
▁With	-3375
▁girls	-3376
▁industry	-3377
高的	-3378
▁如何	-3379
ances	-3380
▁rate	-3381
不起	-3382
消失	-3383
这是一个	-3384
▁online	-3385
ma	-3386
下去	-3387
开放	-3388
运作	-3389
▁By	-3390
▁fu	-3391
ique	-3392
▁stat	-3393
▁sustain	-3394
iet	-3395
▁discovered	-3396
介绍	-3397
句话	-3398
显然	-3399
▁很多	-3400
ites	-3401
▁est	-3402
▁among	-3403
▁normal	-3404
▁subject	-3405
危机	-3406
▁attack	-3407
两种	-3408
都不	-3409
的一切	-3410
心的	-3411
的最	-3412
很重要	-3413
▁hon	-3414
上了	-3415
允许	-3416
表明	-3417
urity	-3418
▁fire	-3419
▁type	-3420
▁concept	-3421
▁experien	-3422
▁intellig	-3423
这项	-3424
ency	-3425
asing	-3426
ished	-3427
▁aren	-3428
鼓掌	-3429
是怎么	-3430
▁benef	-3431
▁modern	-3432
▁creating	-3433
以来	-3434
星球	-3435
伟大的	-3436
▁resources	-3437
,”	-3438
▁Google	-3439
▁recently	-3440
结合	-3441
imens	-3442
▁我们必须	-3443
▁react	-3444
▁solve	-3445
▁developing	-3446
某个	-3447
神奇	-3448
责任	-3449
▁另外	-3450
▁它的	-3451
▁cop	-3452
▁prop	-3453
不错	-3454
基于	-3455
▁我也	-3456
▁lay	-3457
▁truth	-3458
▁reasons	-3459
▁situation	-3460
ung	-3461
▁他的	-3462
pect	-3463
▁seem	-3464
▁innovation	-3465
的数据	-3466
▁我可以	-3467
▁designed	-3468
apt	-3469
asc	-3470
▁sold	-3471
中间	-3472
like	-3473
phere	-3474
▁voice	-3475
改变了	-3476
一名	-3477
空气	-3478
说明	-3479
▁她们	-3480
▁看看	-3481
时的	-3482
▁那个	-3483
ival	-3484
▁arm	-3485
▁eye	-3486
ences	-3487
▁mathem	-3488
▁capital	-3489
▁available	-3490
成本	-3491
▁这就	-3492
不多	-3493
细菌	-3494
距离	-3495
▁Ph	-3496
yond	-3497
▁fur	-3498
▁plant	-3499
▁asking	-3500
▁playing	-3501
▁produce	-3502
进步	-3503
▁开始	-3504
▁knows	-3505
到达	-3506
▁baby	-3507
▁smart	-3508
▁especially	-3509
或许	-3510
▁De	-3511
复杂的	-3512
▁song	-3513
▁tiny	-3514
assion	-3515
▁search	-3516
男孩	-3517
边的	-3518
ify	-3519
▁我们也	-3520
会说	-3521
运用	-3522
▁不管	-3523
都知道	-3524
▁imm	-3525
▁save	-3526
▁sleep	-3527
▁groups	-3528
▁patient	-3529
▁evidence	-3530
▁computers	-3531
▁incredibly	-3532
SA	-3533
平等	-3534
心脏	-3535
ude	-3536
▁ult	-3537
▁vac	-3538
几年	-3539
▁er	-3540
itiz	-3541
▁haven	-3542
▁shape	-3543
权利	-3544
联合	-3545
▁80	-3546
▁Sp	-3547
▁drive	-3548
▁journey	-3549
▁involved	-3550
一件	-3551
动作	-3552
接触	-3553
str	-3554
▁bra	-3555
▁但是我们	-3556
▁medical	-3557
土地	-3558
正是	-3559
可能是	-3560
arily	-3561
▁bigger	-3562
创作	-3563
▁sever	-3564
▁street	-3565
▁transform	-3566
医学	-3567
ister	-3568
▁changing	-3569
▁aw	-3570
iction	-3571
之为	-3572
真是	-3573
oes	-3574
这样做	-3575
▁Yes	-3576
▁becomes	-3577
▁pictures	-3578
先生	-3579
abor	-3580
▁dou	-3581
▁poll	-3582
类的	-3583
▁din	-3584
oices	-3585
▁table	-3586
▁mechan	-3587
▁report	-3588
英里	-3589
ohn	-3590
在那里	-3591
艺术家	-3592
lear	-3593
▁emerg	-3594
感染	-3595
规则	-3596
▁fem	-3597
消费	-3598
些什么	-3599
一般	-3600
▁或是	-3601
▁bar	-3602
▁克	-3603
erence	-3604
▁danger	-3605
▁message	-3606
▁generation	-3607
oms	-3608
▁最终	-3609
称之为	-3610
istan	-3611
▁lived	-3612
动的	-3613
工业	-3614
▁人类	-3615
▁beyond	-3616
▁carbon	-3617
▁likely	-3618
▁putting	-3619
▁towards	-3620
有一些	-3621
▁rain	-3622
压力	-3623
pid	-3624
▁我们会	-3625
ishing	-3626
去做	-3627
婴儿	-3628
有多	-3629
监狱	-3630
还没有	-3631
▁flu	-3632
▁trust	-3633
办公	-3634
女士	-3635
幸运	-3636
投入	-3637
智慧	-3638
给大家	-3639
给我们	-3640
▁Com	-3641
▁drugs	-3642
▁solar	-3643
▁choice	-3644
▁Chinese	-3645
▁several	-3646
不用	-3647
种族	-3648
不得不	-3649
的信息	-3650
come	-3651
light	-3652
▁Inst	-3653
▁drug	-3654
▁First	-3655
▁necess	-3656
yn	-3657
花费	-3658
ips	-3659
ran	-3660
▁正如	-3661
这么做	-3662
▁lea	-3663
▁unf	-3664
▁clos	-3665
▁flow	-3666
▁safe	-3667
▁function	-3668
▁effective	-3669
▁相	-3670
提出	-3671
状况	-3672
西方	-3673
ube	-3674
▁fa	-3675
的生活	-3676
▁lif	-3677
▁basic	-3678
▁defin	-3679
fort	-3680
lict	-3681
oring	-3682
▁citiz	-3683
体系	-3684
转变	-3685
银行	-3686
▁只要	-3687
在我们	-3688
▁except	-3689
wh	-3690
处于	-3691
▁fair	-3692
▁没	-3693
的想法	-3694
▁dom	-3695
▁这是个	-3696
▁tend	-3697
▁我们现在	-3698
▁mount	-3699
Oh	-3700
表面	-3701
une	-3702
很好的	-3703
▁died	-3704
▁因为他们	-3705
iP	-3706
建议	-3707
条件	-3708
▁breat	-3709
取得	-3710
艾滋	-3711
装置	-3712
工作的	-3713
▁rece	-3714
之中	-3715
或是	-3716
▁stru	-3717
▁Chris	-3718
▁potential	-3719
特殊	-3720
▁writing	-3721
威胁	-3722
形状	-3723
▁ce	-3724
一直在	-3725
没有人	-3726
▁bed	-3727
▁sat	-3728
ously	-3729
▁sounds	-3730
▁neighbor	-3731
公民	-3732
当地	-3733
彼此	-3734
ires	-3735
medi	-3736
▁national	-3737
▁跟	-3738
同事	-3739
▁Re	-3740
eter	-3741
vert	-3742
▁speed	-3743
▁device	-3744
▁schools	-3745
▁我们能	-3746
▁extraord	-3747
▁software	-3748
男性	-3749
还在	-3750
都能	-3751
未来的	-3752
让他们	-3753
告诉你们	-3754
▁nine	-3755
▁communities	-3756
对吧	-3757
角色	-3758
umb	-3759
设计的	-3760
ctors	-3761
▁bird	-3762
▁neur	-3763
情绪	-3764
这一切	-3765
......	-3766
▁digital	-3767
动力	-3768
▁你能	-3769
我可以	-3770
表示	-3771
降低	-3772
了一些	-3773
的国家	-3774
▁mob	-3775
igher	-3776
▁After	-3777
▁anybody	-3778
▁revolution	-3779
▁自	-3780
期的	-3781
每年	-3782
还要	-3783
rast	-3784
▁activ	-3785
▁return	-3786
▁general	-3787
▁examples	-3788
500	-3789
ana	-3790
ief	-3791
▁Oh	-3792
世界各	-3793
▁Maybe	-3794
▁office	-3795
▁Im	-3796
生命的	-3797
▁log	-3798
▁然后我们	-3799
ressed	-3800
▁princi	-3801
▁quality	-3802
大量的	-3803
▁starts	-3804
▁account	-3805
我也	-3806
痛苦	-3807
那时	-3808
uly	-3809
所有人	-3810
ners	-3811
▁block	-3812
▁rules	-3813
▁action	-3814
▁particularly	-3815
专业	-3816
总统	-3817
患者	-3818
▁之后	-3819
▁那时	-3820
找到了	-3821
▁Bra	-3822
▁wish	-3823
▁higher	-3824
▁screen	-3825
从未	-3826
你所	-3827
▁我们就	-3828
▁virus	-3829
ask	-3830
ina	-3831
pre	-3832
▁ep	-3833
把它们	-3834
▁son	-3835
▁onto	-3836
▁rights	-3837
▁certainly	-3838
▁compassion	-3839
交通	-3840
晚上	-3841
见的	-3842
▁好吧	-3843
irth	-3844
onse	-3845
itary	-3846
▁cross	-3847
▁peace	-3848
▁showing	-3849
思维	-3850
▁后来	-3851
▁clean	-3852
▁particip	-3853
▁character	-3854
学会	-3855
很大	-3856
房子	-3857
高兴	-3858
lex	-3859
oun	-3860
▁nuc	-3861
usion	-3862
▁rich	-3863
▁非常感谢	-3864
▁North	-3865
▁violence	-3866
不想	-3867
出去	-3868
刚才	-3869
小孩	-3870
是最	-3871
▁来自	-3872
的照片	-3873
pped	-3874
▁Pro	-3875
ground	-3876
IV	-3877
内部	-3878
的那	-3879
▁我就	-3880
情况下	-3881
view	-3882
▁moved	-3883
▁biggest	-3884
▁largest	-3885
塑料	-3886
▁Of	-3887
idge	-3888
▁bacter	-3889
▁camera	-3890
▁walking	-3891
▁materials	-3892
避免	-3893
▁Ge	-3894
▁这是我	-3895
▁prim	-3896
▁effic	-3897
▁obviously	-3898
站在	-3899
▁Pr	-3900
很大的	-3901
▁199	-3902
▁hit	-3903
ought	-3904
▁Where	-3905
▁vision	-3906
▁conscious	-3907
属于	-3908
iar	-3909
▁包括	-3910
rest	-3911
可以看到	-3912
▁further	-3913
▁totally	-3914
害怕	-3915
质量	-3916
▁af	-3917
▁neg	-3918
▁okay	-3919
▁exciting	-3920
▁scientific	-3921
名的	-3922
这件事	-3923
别的	-3924
大量	-3925
蛋白	-3926
uit	-3927
其中的	-3928
这些人	-3929
▁virt	-3930
使得	-3931
冲突	-3932
颜色	-3933
▁pa	-3934
是非常	-3935
的影响	-3936
的能力	-3937
▁plants	-3938
回家	-3939
讲述	-3940
想象一下	-3941
antly	-3942
▁code	-3943
▁diag	-3944
▁cause	-3945
▁results	-3946
对话	-3947
▁ec	-3948
差不多	-3949
more	-3950
▁syn	-3951
▁aware	-3952
▁wants	-3953
是不	-3954
独立	-3955
积极	-3956
▁threat	-3957
▁response	-3958
他人	-3959
和平	-3960
oke	-3961
▁然后我	-3962
▁cris	-3963
▁teachers	-3964
▁extremely	-3965
xy	-3966
你要	-3967
资金	-3968
aur	-3969
▁meant	-3970
▁prison	-3971
出生	-3972
所在	-3973
知的	-3974
竞争	-3975
how	-3976
▁role	-3977
isions	-3978
▁represent	-3979
▁everywhere	-3980
学的	-3981
屏幕	-3982
当中	-3983
爱的	-3984
相似	-3985
年轻人	-3986
我觉得	-3987
设计师	-3988
▁ready	-3989
保证	-3990
博物	-3991
▁在这	-3992
▁detail	-3993
▁nobody	-3994
▁creative	-3995
我能	-3996
▁adm	-3997
▁boy	-3998
▁fix	-3999
▁rele	-4000
▁skin	-4001
对此	-4002
文章	-4003
疯狂	-4004
组成	-4005
下来的	-4006
tend	-4007
▁progress	-4008
▁watching	-4009
▁individuals	-4010
互相	-4011
关心	-4012
基金	-4013
▁这一	-4014
博物馆	-4015
地球上	-4016
ores	-4017
▁led	-4018
▁apart	-4019
快速	-4020
测量	-4021
绿色	-4022
阅读	-4023
imp	-4024
put	-4025
▁需要	-4026
得到的	-4027
有可能	-4028
▁gas	-4029
▁door	-4030
二十	-4031
价格	-4032
for	-4033
▁或许	-4034
osphere	-4035
▁student	-4036
只要	-4037
四个	-4038
适应	-4039
ech	-4040
▁任何	-4041
▁div	-4042
verty	-4043
▁push	-4044
▁context	-4045
▁projects	-4046
▁security	-4047
停止	-4048
可怕	-4049
毫无	-4050
iding	-4051
▁birth	-4052
▁named	-4053
▁上	-4054
太空	-4055
职业	-4056
itten	-4057
▁John	-4058
▁marr	-4059
▁print	-4060
外的	-4061
家伙	-4062
花了	-4063
限制	-4064
▁pu	-4065
他们在	-4066
▁link	-4067
licated	-4068
▁allowed	-4069
▁eventually	-4070
!"	-4071
▁两	-4072
操作	-4073
nal	-4074
变成了	-4075
把这些	-4076
美国人	-4077
▁crazy	-4078
▁immedi	-4079
▁African	-4080
▁favorite	-4081
▁总	-4082
不在	-4083
enn	-4084
icle	-4085
▁Any	-4086
▁这样的	-4087
▁Most	-4088
▁games	-4089
警察	-4090
有趣的	-4091
erve	-4092
▁我们已经	-4093
▁stick	-4094
▁models	-4095
▁colleag	-4096
▁connected	-4097
广告	-4098
程度上	-4099
▁separ	-4100
▁improve	-4101
▁chemical	-4102
▁supposed	-4103
▁fundamental	-4104
杂志	-4105
阿拉	-4106
▁尤其	-4107
什么是	-4108
▁Cal	-4109
▁dro	-4110
iation	-4111
ughter	-4112
pective	-4113
▁consider	-4114
设施	-4115
证据	-4116
eth	-4117
▁11	-4118
▁我很	-4119
▁而这	-4120
oming	-4121
▁Brit	-4122
▁meth	-4123
▁carry	-4124
▁waste	-4125
▁discover	-4126
▁hospital	-4127
We	-4128
la	-4129
他说	-4130
信仰	-4131
▁trees	-4132
▁notice	-4133
▁introdu	-4134
▁continue	-4135
.,	-4136
ze	-4137
下降	-4138
集中	-4139
分之一	-4140
itter	-4141
▁Even	-4142
▁grew	-4143
▁jobs	-4144
▁transl	-4145
▁objects	-4146
▁strateg	-4147
▁conflict	-4148
发表	-4149
失去	-4150
度的	-4151
逐渐	-4152
the	-4153
▁gal	-4154
cient	-4155
▁adult	-4156
儿子	-4157
哪些	-4158
负责	-4159
造成	-4160
那是	-4161
anc	-4162
你们的	-4163
而不是	-4164
▁War	-4165
erson	-4166
▁bank	-4167
ission	-4168
▁check	-4169
▁多	-4170
巨大	-4171
引起	-4172
火星	-4173
的主	-4174
过了	-4175
邀请	-4176
阻止	-4177
神经元	-4178
▁capt	-4179
▁trial	-4180
▁choose	-4181
珊瑚	-4182
的结果	-4183
apan	-4184
ffic	-4185
▁Tod	-4186
▁goal	-4187
▁tells	-4188
ruction	-4189
▁essentially	-4190
时刻	-4191
行业	-4192
▁有人	-4193
▁第一	-4194
也没有	-4195
▁tar	-4196
▁我们还	-4197
▁tree	-4198
▁shown	-4199
acebook	-4200
▁robots	-4201
本质	-4202
看来	-4203
ids	-4204
▁mis	-4205
▁West	-4206
▁clin	-4207
▁passion	-4208
太多	-4209
模拟	-4210
武器	-4211
理由	-4212
破坏	-4213
背景	-4214
iger	-4215
▁earl	-4216
▁accept	-4217
▁depend	-4218
▁launch	-4219
▁signific	-4220
▁thousand	-4221
▁extraordinary	-4222
利益	-4223
很棒	-4224
▁我们将	-4225
▁conc	-4226
▁fill	-4227
▁现在我们	-4228
▁minds	-4229
▁terror	-4230
▁poverty	-4231
▁including	-4232
年龄	-4233
漂亮	-4234
▁如今	-4235
给他们	-4236
▁Who	-4237
urban	-4238
▁bunch	-4239
▁graph	-4240
▁families	-4241
成长	-4242
教授	-4243
课程	-4244
▁17	-4245
▁每个	-4246
都可以	-4247
iers	-4248
ulate	-4249
▁village	-4250
▁positive	-4251
呼吸	-4252
用了	-4253
的确	-4254
ims	-4255
办公室	-4256
生活中	-4257
▁Japan	-4258
▁cases	-4259
▁memory	-4260
▁wealth	-4261
你就	-4262
是由	-4263
▁特别	-4264
▁那里	-4265
akes	-4266
▁deb	-4267
conds	-4268
ounds	-4269
▁wife	-4270
▁assum	-4271
▁movie	-4272
▁taught	-4273
▁discuss	-4274
生长	-4275
财富	-4276
▁16	-4277
mend	-4278
▁fra	-4279
▁接下来	-4280
▁farm	-4281
▁late	-4282
ossible	-4283
▁allows	-4284
▁democracy	-4285
14	-4286
▁此	-4287
同情	-4288
接近	-4289
带来的	-4290
注意到	-4291
▁他们会	-4292
▁finan	-4293
▁influ	-4294
▁labor	-4295
▁concer	-4296
▁temper	-4297
▁buildings	-4298
mb	-4299
千万	-4300
垃圾	-4301
老鼠	-4302
▁above	-4303
▁faster	-4304
并非	-4305
情感	-4306
统计	-4307
听起来	-4308
都没有	-4309
▁Car	-4310
odies	-4311
▁fell	-4312
▁worse	-4313
▁somewhere	-4314
实在	-4315
ster	-4316
▁spir	-4317
▁college	-4318
▁mathemat	-4319
▁happiness	-4320
▁conditions	-4321
社交	-4322
men	-4323
我们会	-4324
edom	-4325
▁magn	-4326
▁ended	-4327
izations	-4328
▁excited	-4329
ortunately	-4330
一场	-4331
怎么样	-4332
的声音	-4333
▁Don	-4334
▁genes	-4335
▁killed	-4336
▁source	-4337
▁activity	-4338
▁suddenly	-4339
惊讶	-4340
放到	-4341
物体	-4342
ama	-4343
let	-4344
▁21	-4345
▁Le	-4346
▁wait	-4347
▁remark	-4348
▁decision	-4349
年里	-4350
拯救	-4351
rad	-4352
▁14	-4353
这样一个	-4354
▁repl	-4355
▁sequ	-4356
▁Christ	-4357
▁larger	-4358
▁police	-4359
▁finding	-4360
▁collabor	-4361
▁Q	-4362
▁几	-4363
习惯	-4364
结论	-4365
部门	-4366
▁从而	-4367
正确的	-4368
rage	-4369
ured	-4370
▁比如说	-4371
▁fant	-4372
▁fing	-4373
▁lose	-4374
▁webs	-4375
▁Those	-4376
▁brains	-4377
bol	-4378
有多少	-4379
atory	-4380
▁mine	-4381
▁Today	-4382
▁affect	-4383
▁appear	-4384
▁medicine	-4385
▁standing	-4386
之处	-4387
差异	-4388
成员	-4389
搜索	-4390
的新	-4391
ration	-4392
▁disapp	-4393
16	-4394
假设	-4395
恢复	-4396
比亚	-4397
面前	-4398
▁——	-4399
是不是	-4400
生活的	-4401
▁enj	-4402
▁这不是	-4403
▁crisis	-4404
▁minute	-4405
▁teacher	-4406
互动	-4407
疫苗	-4408
的事物	-4409
cape	-4410
▁bom	-4411
▁如果我	-4412
▁我们知道	-4413
others	-4414
▁blind	-4415
▁truly	-4416
▁doctor	-4417
▁increase	-4418
▁conversation	-4419
仔细	-4420
ipt	-4421
ror	-4422
ued	-4423
工程师	-4424
▁phil	-4425
▁indeed	-4426
卫生	-4427
所谓	-4428
智能	-4429
犯罪	-4430
马上	-4431
对我们	-4432
▁fine	-4433
▁products	-4434
常常	-4435
思议	-4436
文字	-4437
爆炸	-4438
鼓励	-4439
▁cold	-4440
▁star	-4441
estern	-4442
▁stars	-4443
▁impossible	-4444
.5	-4445
时期	-4446
▁90	-4447
亿美元	-4448
▁sky	-4449
▁card	-4450
▁sorts	-4451
▁publish	-4452
▁position	-4453
▁successful	-4454
平衡	-4455
才是	-4456
蚂蚁	-4457
rap	-4458
可以在	-4459
的例子	-4460
▁Mar	-4461
▁kil	-4462
▁我相信	-4463
▁luck	-4464
▁phen	-4465
▁older	-4466
▁complicated	-4467
▁而我	-4468
cise	-4469
我们现在	-4470
though	-4471
▁afford	-4472
▁univers	-4473
zz	-4474
▁X	-4475
放弃	-4476
ugh	-4477
▁大约	-4478
▁dam	-4479
▁port	-4480
ologists	-4481
▁perspective	-4482
一项	-4483
特的	-4484
▁是的	-4485
inct	-4486
nces	-4487
▁Ste	-4488
▁Look	-4489
▁kept	-4490
▁author	-4491
▁citizens	-4492
岁的	-4493
英语	-4494
身份	-4495
amm	-4496
urt	-4497
isms	-4498
▁bur	-4499
▁pen	-4500
inated	-4501
▁lands	-4502
▁achieve	-4503
▁traditional	-4504
公开	-4505
家人	-4506
报道	-4507
遇到	-4508
▁Ab	-4509
▁HIV	-4510
▁这也是	-4511
▁fram	-4512
▁site	-4513
▁manage	-4514
▁studies	-4515
▁military	-4516
▁international	-4517
即使	-4518
改善	-4519
日本	-4520
记住	-4521
可能性	-4522
rams	-4523
没有任何	-4524
▁galax	-4525
▁lower	-4526
ky	-4527
一代	-4528
是从	-4529
温度	-4530
▁cat	-4531
useum	-4532
▁earth	-4533
▁forms	-4534
▁policy	-4535
▁straight	-4536
家里	-4537
来了	-4538
氧化	-4539
那儿	-4540
▁70	-4541
▁TV	-4542
存在的	-4543
成功的	-4544
所做的	-4545
▁因为它	-4546
▁cart	-4547
旅行	-4548
来源	-4549
群体	-4550
太阳能	-4551
我来说	-4552
ring	-4553
soci	-4554
▁ign	-4555
▁pack	-4556
▁nuclear	-4557
▁workers	-4558
▁organization	-4559
依赖	-4560
卫星	-4561
循环	-4562
燃料	-4563
诊断	-4564
把这个	-4565
ining	-4566
▁fasc	-4567
▁wild	-4568
▁specific	-4569
摄影	-4570
文明	-4571
理念	-4572
▁Somet	-4573
▁points	-4574
▁reading	-4575
▁usually	-4576
▁加	-4577
不了	-4578
公园	-4579
想想	-4580
星系	-4581
针对	-4582
▁正在	-4583
fact	-4584
▁bal	-4585
▁Like	-4586
▁purp	-4587
▁pieces	-4588
▁region	-4589
▁series	-4590
!”	-4591
13	-4592
原始	-4593
好吧	-4594
建设	-4595
承认	-4596
排放	-4597
演奏	-4598
▁目前	-4599
rect	-4600
▁我开始	-4601
▁contrib	-4602
▁distrib	-4603
▁mention	-4604
必要	-4605
成果	-4606
打算	-4607
资本	-4608
▁Ag	-4609
艾滋病	-4610
▁alg	-4611
做的事情	-4612
我们已经	-4613
▁heav	-4614
▁mist	-4615
▁moral	-4616
▁square	-4617
▁training	-4618
No	-4619
了这	-4620
同意	-4621
多样	-4622
产生的	-4623
oint	-4624
▁Are	-4625
▁doc	-4626
发生了什么	-4627
▁address	-4628
▁massive	-4629
▁service	-4630
▁phenomen	-4631
免费	-4632
再次	-4633
女儿	-4634
学院	-4635
ays	-4636
imb	-4637
的环境	-4638
iven	-4639
▁hop	-4640
▁smaller	-4641
将要	-4642
熟悉	-4643
终于	-4644
谷歌	-4645
ica	-4646
在美国	-4647
sect	-4648
▁swe	-4649
▁另一个	-4650
▁sand	-4651
▁lines	-4652
▁throw	-4653
▁somehow	-4654
▁recognize	-4655
go	-4656
享受	-4657
网上	-4658
而是	-4659
贫困	-4660
驾驶	-4661
我们对	-4662
▁burn	-4663
▁我不知道	-4664
▁alive	-4665
▁anymore	-4666
▁electricity	-4667
人民	-4668
运行	-4669
▁同样	-4670
▁大概	-4671
▁oxy	-4672
▁upon	-4673
▁enorm	-4674
▁decisions	-4675
▁solutions	-4676
富汗	-4677
猩猩	-4678
认知	-4679
食品	-4680
▁Go	-4681
的力量	-4682
阿富汗	-4683
▁engage	-4684
体内	-4685
拉克	-4686
谈谈	-4687
长大	-4688
fer	-4689
▁好的	-4690
▁许多	-4691
成为了	-4692
eral	-4693
agine	-4694
▁beings	-4695
▁seconds	-4696
▁treatment	-4697
下面	-4698
包含	-4699
培养	-4700
说话	-4701
贫穷	-4702
都很	-4703
time	-4704
▁term	-4705
▁yeah	-4706
▁urban	-4707
▁effort	-4708
▁patterns	-4709
交易	-4710
像是	-4711
原则	-4712
发出	-4713
年后	-4714
报告	-4715
检测	-4716
见过	-4717
▁Sw	-4718
我知道	-4719
ping	-4720
epend	-4721
▁detect	-4722
%。	-4723
▁向	-4724
会在	-4725
信任	-4726
观念	-4727
▁13	-4728
也就是	-4729
人们的	-4730
▁weren	-4731
▁critical	-4732
▁小	-4733
上升	-4734
巴西	-4735
污染	-4736
重复	-4737
▁完全	-4738
▁整个	-4739
来自于	-4740
真实的	-4741
▁sou	-4742
thern	-4743
▁roll	-4744
▁zero	-4745
▁你可以看到	-4746
▁actual	-4747
▁employ	-4748
▁slight	-4749
▁private	-4750
▁machines	-4751
各个	-4752
式的	-4753
▁我还	-4754
▁Afgh	-4755
▁Mars	-4756
▁please	-4757
▁strugg	-4758
▁biology	-4759
▁freedom	-4760
▁respond	-4761
▁becoming	-4762
▁dangerous	-4763
之外	-4764
你是	-4765
博士	-4766
安德	-4767
确保	-4768
障碍	-4769
▁这张	-4770
▁Act	-4771
aging	-4772
ently	-4773
▁board	-4774
▁prote	-4775
▁skills	-4776
▁physics	-4777
▁provide	-4778
▁written	-4779
比赛	-4780
路上	-4781
采取	-4782
ops	-4783
rab	-4784
rel	-4785
▁Ad	-4786
▁thr	-4787
▁cook	-4788
▁这意味着	-4789
▁price	-4790
▁healthy	-4791
▁bacteria	-4792
▁Americans	-4793
DP	-4794
左右	-4795
节目	-4796
看上去	-4797
sequ	-4798
▁而我们	-4799
▁version	-4800
一家	-4801
创建	-4802
扫描	-4803
看待	-4804
看法	-4805
面包	-4806
▁Bl	-4807
▁就在	-4808
的社会	-4809
气候变化	-4810
▁loved	-4811
▁unique	-4812
▁increasing	-4813
找出	-4814
究竟	-4815
置信	-4816
▁town	-4817
▁anywhere	-4818
▁expensive	-4819
咖啡	-4820
坚持	-4821
对的	-4822
之所以	-4823
不可思议	-4824
这个世界	-4825
▁quant	-4826
imately	-4827
▁career	-4828
不管	-4829
位于	-4830
做得	-4831
好处	-4832
电池	-4833
帮助我们	-4834
erman	-4835
▁page	-4836
uments	-4837
▁costs	-4838
▁forth	-4839
▁spect	-4840
▁comfort	-4841
▁waiting	-4842
年来	-4843
dom	-4844
了这些	-4845
▁trou	-4846
ashing	-4847
▁cloud	-4848
itation	-4849
ustrial	-4850
▁neighborhood	-4851
一块	-4852
器官	-4853
消耗	-4854
理想	-4855
的过程	-4856
ried	-4857
▁molec	-4858
▁trick	-4859
▁bodies	-4860
▁famous	-4861
▁secret	-4862
▁doctors	-4863
na	-4864
核心	-4865
▁世界	-4866
▁500	-4867
▁sal	-4868
▁whe	-4869
作为一个	-4870
▁cover	-4871
▁mental	-4872
▁content	-4873
▁earlier	-4874
▁diseases	-4875
今年	-4876
元素	-4877
农业	-4878
肿瘤	-4879
▁进行	-4880
▁第一个	-4881
▁shot	-4882
inating	-4883
▁Afghan	-4884
▁remind	-4885
▁strange	-4886
▁willing	-4887
▁listening	-4888
▁institutions	-4889
yr	-4890
▁谁	-4891
工厂	-4892
oid	-4893
avid	-4894
iced	-4895
▁于是我	-4896
是这样的	-4897
acity	-4898
▁coun	-4899
▁occur	-4900
▁worry	-4901
▁painting	-4902
至于	-4903
走进	-4904
部的	-4905
▁但在	-4906
下一个	-4907
的技术	-4908
ceed	-4909
lebr	-4910
▁ann	-4911
▁dog	-4912
▁exh	-4913
▁jud	-4914
▁lad	-4915
▁web	-4916
▁他们在	-4917
▁East	-4918
▁drink	-4919
▁calcul	-4920
创意	-4921
复制	-4922
第三	-4923
出现在	-4924
发展中	-4925
oles	-4926
▁eth	-4927
▁desp	-4928
▁vacc	-4929
▁determ	-4930
▁clearly	-4931
▁direction	-4932
▁governments	-4933
▁immediately	-4934
ox	-4935
▁马	-4936
这儿	-4937
会发生	-4938
的感觉	-4939
ained	-4940
▁park	-4941
▁magic	-4942
▁explore	-4943
▁plastic	-4944
▁intelligence	-4945
无论	-4946
笑声	-4947
超级	-4948
iti	-4949
ulf	-4950
喜欢的	-4951
amic	-4952
cies	-4953
iest	-4954
▁cry	-4955
▁是一个	-4956
我们必须	-4957
▁glass	-4958
▁weight	-4959
▁greatest	-4960
▁transport	-4961
上万	-4962
妻子	-4963
满足	-4964
而已	-4965
rees	-4966
▁ran	-4967
不仅仅是	-4968
itude	-4969
▁cust	-4970
▁谢谢大家	-4971
▁Which	-4972
▁Another	-4973
▁throughout	-4974
▁architecture	-4975
▁三	-4976
往往	-4977
成就	-4978
援助	-4979
mic	-4980
udd	-4981
▁Ex	-4982
back	-4983
bert	-4984
▁rid	-4985
iling	-4986
▁catch	-4987
▁match	-4988
▁neurons	-4989
居住	-4990
漫画	-4991
细节	-4992
▁Cl	-4993
▁Cent	-4994
▁jump	-4995
▁greater	-4996
▁familiar	-4997
▁反	-4998
昆虫	-4999
比例	-5000
aly	-5001
存在于	-5002
▁atm	-5003
难以置信	-5004
▁City	-5005
▁laws	-5006
▁final	-5007
▁floor	-5008
▁store	-5009
▁Imagine	-5010
▁himself	-5011
克斯	-5012
变革	-5013
得以	-5014
性恋	-5015
打印	-5016
早上	-5017
附近	-5018
oty	-5019
▁也是	-5020
那样的	-5021
ball	-5022
▁veh	-5023
▁每个人	-5024
▁method	-5025
贡献	-5026
身边	-5027
met	-5028
▁几乎	-5029
▁我对	-5030
相同的	-5031
▁Har	-5032
orrow	-5033
▁我们发现	-5034
▁oppos	-5035
▁walked	-5036
层面	-5037
▁是因为	-5038
这些东西	-5039
atives	-5040
▁levels	-5041
▁saving	-5042
▁financial	-5043
17	-5044
成千	-5045
权力	-5046
沟通	-5047
英雄	-5048
rom	-5049
ndom	-5050
▁在我们	-5051
▁apply	-5052
▁driving	-5053
▁University	-5054
区别	-5055
罗斯	-5056
▁我和	-5057
了我的	-5058
使用的	-5059
uted	-5060
▁Isl	-5061
▁我现在	-5062
▁email	-5063
▁offic	-5064
▁celebr	-5065
▁income	-5066
▁multip	-5067
▁genetic	-5068
▁environmental	-5069
▁全	-5070
会被	-5071
皮肤	-5072
美好	-5073
另一种	-5074
进一步	-5075
阿拉伯	-5076
▁autom	-5077
▁website	-5078
▁challenges	-5079
也能	-5080
伦敦	-5081
原子	-5082
展现	-5083
德国	-5084
约翰	-5085
获取	-5086
微生物	-5087
eless	-5088
▁hous	-5089
▁legs	-5090
▁range	-5091
▁types	-5092
▁decade	-5093
▁pressure	-5094
▁teaching	-5095
自动	-5096
话题	-5097
资料	-5098
做的是	-5099
ables	-5100
attle	-5101
istics	-5102
▁enjoy	-5103
ologist	-5104
▁active	-5105
▁humanity	-5106
一半	-5107
对待	-5108
我很	-5109
有所	-5110
深入	-5111
追求	-5112
什么呢	-5113
cope	-5114
resh	-5115
aries	-5116
itted	-5117
▁rise	-5118
▁optim	-5119
▁mobile	-5120
▁random	-5121
rastruct	-5122
▁fantastic	-5123
▁therefore	-5124
也在	-5125
准确	-5126
自行	-5127
让它	-5128
iot	-5129
可持续	-5130
怎么做	-5131
接下来	-5132
联合国	-5133
▁Mus	-5134
▁crow	-5135
▁vict	-5136
▁laugh	-5137
▁shift	-5138
▁services	-5139
ID	-5140
af	-5141
▁嗯	-5142
人在	-5143
十亿	-5144
恐龙	-5145
的水	-5146
除了	-5147
▁24	-5148
iles	-5149
orry	-5150
▁Sch	-5151
▁ple	-5152
▁gradu	-5153
▁values	-5154
atically	-5155
▁meeting	-5156
依然	-5157
密码	-5158
平台	-5159
攻击	-5160
记者	-5161
邮件	-5162
ils	-5163
▁你就	-5164
▁研究	-5165
几个月	-5166
▁Per	-5167
▁fit	-5168
▁pan	-5169
看到的是	-5170
▁fuel	-5171
▁vari	-5172
vision	-5173
▁interview	-5174
▁production	-5175
伤害	-5176
在座	-5177
摄像	-5178
由于	-5179
美金	-5180
pro	-5181
▁不要	-5182
▁她说	-5183
▁我将	-5184
蛋白质	-5185
▁dyn	-5186
▁有一个	-5187
成为一个	-5188
▁societ	-5189
▁decades	-5190
▁terrible	-5191
制度	-5192
得多	-5193
提到	-5194
相反	-5195
的一些	-5196
范围内	-5197
▁所有的	-5198
ystem	-5199
▁broad	-5200
▁decide	-5201
▁practice	-5202
bb	-5203
慢慢	-5204
斯特	-5205
普遍	-5206
用户	-5207
秘密	-5208
▁有时	-5209
▁通常	-5210
airs	-5211
ches	-5212
▁Ken	-5213
▁prep	-5214
▁高	-5215
检查	-5216
迅速	-5217
足够的	-5218
itor	-5219
▁ord	-5220
▁Many	-5221
▁encou	-5222
▁politics	-5223
▁programs	-5224
妙的	-5225
完整	-5226
激励	-5227
现场	-5228
购买	-5229
zil	-5230
▁希望	-5231
一部分	-5232
强大的	-5233
▁demon	-5234
▁integ	-5235
▁beauty	-5236
▁useful	-5237
▁following	-5238
▁engineering	-5239
灭绝	-5240
二氧化	-5241
变得更	-5242
和其他	-5243
这个词	-5244
▁tiss	-5245
▁也就是说	-5246
▁ahead	-5247
▁Western	-5248
▁various	-5249
▁infrastruct	-5250
人生	-5251
彻底	-5252
很长	-5253
早期	-5254
的高	-5255
给予	-5256
这次	-5257
这类	-5258
途径	-5259
一个小	-5260
ondon	-5261
▁Brazil	-5262
▁Second	-5263
▁forget	-5264
▁nation	-5265
▁choices	-5266
▁respect	-5267
▁Facebook	-5268
▁atmosphere	-5269
▁随	-5270
不够	-5271
员工	-5272
态度	-5273
毕业	-5274
特征	-5275
基因组	-5276
我们是	-5277
说的是	-5278
aign	-5279
edia	-5280
ises	-5281
▁hair	-5282
▁honest	-5283
▁colleagues	-5284
▁connection	-5285
▁remarkable	-5286
▁performance	-5287
▁海	-5288
兄弟	-5289
如今	-5290
日常	-5291
法国	-5292
灾难	-5293
问我	-5294
key	-5295
怎样的	-5296
方面的	-5297
▁Two	-5298
所有这些	-5299
▁German	-5300
▁associ	-5301
▁babies	-5302
▁surger	-5303
▁consequ	-5304
▁journal	-5305
▁popular	-5306
▁enormous	-5307
收到	-5308
机制	-5309
翻译	-5310
蜜蜂	-5311
见到	-5312
释放	-5313
▁由于	-5314
出现了	-5315
我想要	-5316
的设计	-5317
▁我们都	-5318
ement	-5319
▁dram	-5320
▁race	-5321
▁这是我们	-5322
▁female	-5323
▁helped	-5324
▁physic	-5325
▁although	-5326
▁invented	-5327
▁surround	-5328
IT	-5329
▁举	-5330
原理	-5331
广泛	-5332
流行	-5333
爸爸	-5334
说法	-5335
▁你要	-5336
▁除了	-5337
▁mal	-5338
▁或者是	-5339
arter	-5340
▁uses	-5341
▁weap	-5342
▁London	-5343
▁shared	-5344
▁standard	-5345
▁organizations	-5346
RI	-5347
下了	-5348
后面	-5349
我对	-5350
aul	-5351
▁使用	-5352
▁创造	-5353
需要的	-5354
▁spirit	-5355
ervation	-5356
▁instance	-5357
▁新	-5358
旅程	-5359
趋势	-5360
进去	-5361
错了	-5362
ray	-5363
▁一旦	-5364
▁假如	-5365
used	-5366
▁destro	-5367
▁relative	-5368
ec	-5369
的地	-5370
▁我从	-5371
▁每天	-5372
▁并不是	-5373
antic	-5374
▁male	-5375
▁motiv	-5376
▁flying	-5377
▁effects	-5378
▁express	-5379
▁condition	-5380
个体	-5381
技能	-5382
金融	-5383
▁全球	-5384
▁它会	-5385
有意思	-5386
▁aid	-5387
▁基本上	-5388
成千上万	-5389
▁Austr	-5390
▁diagn	-5391
▁raise	-5392
▁worst	-5393
▁speech	-5394
▁understood	-5395
墨西	-5396
穿过	-5397
ios	-5398
墨西哥	-5399
这是个	-5400
orge	-5401
▁nut	-5402
▁streets	-5403
oe	-5404
中有	-5405
博客	-5406
图书	-5407
州的	-5408
提醒	-5409
蓝色	-5410
虚拟	-5411
不仅仅	-5412
很容易	-5413
▁pig	-5414
▁scr	-5415
ornia	-5416
▁Cong	-5417
▁drop	-5418
▁surve	-5419
▁supply	-5420
▁collective	-5421
▁temperature	-5422
丰富	-5423
公众	-5424
分布	-5425
利的	-5426
我有	-5427
pes	-5428
▁Dr	-5429
▁Mc	-5430
公司的	-5431
▁tax	-5432
二氧化碳	-5433
board	-5434
osing	-5435
ufact	-5436
▁base	-5437
▁instr	-5438
▁whose	-5439
▁demonstr	-5440
▁possibly	-5441
24	-5442
他在	-5443
内心	-5444
案例	-5445
看不	-5446
现在的	-5447
iate	-5448
wise	-5449
ricult	-5450
▁slightly	-5451
yl	-5452
为止	-5453
怀疑	-5454
掌握	-5455
浪费	-5456
组合	-5457
辩论	-5458
的发展	-5459
▁ban	-5460
▁gene	-5461
▁yell	-5462
▁Calif	-5463
▁commer	-5464
▁mostly	-5465
▁stopped	-5466
这条	-5467
equ	-5468
▁可是	-5469
历史上	-5470
▁300	-5471
▁sad	-5472
▁他们说	-5473
▁有时候	-5474
另外一个	-5475
▁Your	-5476
▁sick	-5477
▁anyway	-5478
ok	-5479
▁换	-5480
写的	-5481
刺激	-5482
机械	-5483
欢迎	-5484
now	-5485
真的是	-5486
▁198	-5487
▁gent	-5488
▁below	-5489
▁causes	-5490
▁survive	-5491
▁television	-5492
强烈	-5493
极端	-5494
▁什么	-5495
他们会	-5496
生物学	-5497
2000	-5498
iring	-5499
▁shark	-5500
▁smell	-5501
▁trade	-5502
▁custom	-5503
▁insect	-5504
▁purpose	-5505
一群	-5506
伊斯	-5507
启发	-5508
执行	-5509
相对	-5510
相机	-5511
缺乏	-5512
衣服	-5513
uct	-5514
▁他是	-5515
▁看到	-5516
▁至少	-5517
的人口	-5518
olve	-5519
anced	-5520
▁legal	-5521
▁stress	-5522
▁summer	-5523
PS	-5524
性别	-5525
能在	-5526
▁iP	-5527
▁另一	-5528
主义者	-5529
load	-5530
▁sus	-5531
▁tens	-5532
▁radio	-5533
▁belief	-5534
▁California	-5535
▁infrastructure	-5536
不太	-5537
优秀	-5538
取决	-5539
期间	-5540
等待	-5541
简直	-5542
重点	-5543
199	-5544
How	-5545
▁mut	-5546
世界各地	-5547
岁的时候	-5548
inate	-5549
prene	-5550
▁Think	-5551
▁slide	-5552
▁total	-5553
reprene	-5554
▁artist	-5555
▁invent	-5556
▁switch	-5557
▁directly	-5558
▁relationships	-5559
应对	-5560
开心	-5561
播放	-5562
给了	-5563
选举	-5564
难民	-5565
amb	-5566
nel	-5567
▁ir	-5568
▁中国	-5569
▁我有	-5570
个小时	-5571
孩子的	-5572
的人生	-5573
▁克里斯	-5574
▁From	-5575
▁heat	-5576
▁我的意思是	-5577
▁states	-5578
▁prevent	-5579
▁capacity	-5580
It	-5581
反对	-5582
拒绝	-5583
期待	-5584
激动	-5585
还能	-5586
mon	-5587
off	-5588
unk	-5589
▁Pl	-5590
来看看	-5591
iber	-5592
vest	-5593
解决方案	-5594
▁doub	-5595
▁altern	-5596
▁meters	-5597
▁cultural	-5598
▁Afghanistan	-5599
一旦	-5600
在你	-5601
热情	-5602
聚集	-5603
走了	-5604
适合	-5605
Why	-5606
▁不仅	-5607
▁不同	-5608
▁但它	-5609
▁His	-5610
▁在这里	-5611
从来没有	-5612
非常重要	-5613
arian	-5614
▁task	-5615
▁philos	-5616
▁communicate	-5617
ri	-5618
ya	-5619
名为	-5620
恒星	-5621
改革	-5622
来做	-5623
没人	-5624
舞台	-5625
输入	-5626
黑人	-5627
ley	-5628
伊拉克	-5629
的时刻	-5630
认识到	-5631
ancy	-5632
cles	-5633
▁hus	-5634
▁我们对	-5635
▁Mich	-5636
▁mamm	-5637
▁paid	-5638
▁Instead	-5639
▁electron	-5640
▁manufact	-5641
▁profound	-5642
▁experiments	-5643
发挥	-5644
玩具	-5645
者们	-5646
部落	-5647
黑暗	-5648
各种各	-5649
wood	-5650
▁dad	-5651
▁他们是	-5652
ander	-5653
anging	-5654
▁David	-5655
▁dimens	-5656
▁central	-5657
▁biological	-5658
军队	-5659
判断	-5660
我将	-5661
按照	-5662
最好	-5663
望远	-5664
血管	-5665
走到	-5666
做的事	-5667
系统的	-5668
▁Ira	-5669
▁mix	-5670
▁大多数	-5671
这个项目	-5672
▁rule	-5673
▁swim	-5674
cience	-5675
▁displ	-5676
▁easily	-5677
▁symbol	-5678
▁members	-5679
▁tremend	-5680
lications	-5681
▁campaign	-5682
▁controll	-5683
合理	-5684
团体	-5685
地说	-5686
道路	-5687
edd	-5688
▁et	-5689
▁他在	-5690
伊斯兰	-5691
出一个	-5692
大脑的	-5693
想知道	-5694
▁hyd	-5695
order	-5696
water	-5697
▁scan	-5698
▁visit	-5699
▁degrees	-5700
▁responsibility	-5701
从事	-5702
传递	-5703
红色	-5704
iam	-5705
▁Te	-5706
▁你看	-5707
我们都	-5708
是这样	-5709
望远镜	-5710
▁loss	-5711
▁bought	-5712
▁reflect	-5713
▁societies	-5714
fl	-5715
伊朗	-5716
很少	-5717
苹果	-5718
面积	-5719
cks	-5720
ira	-5721
取决于	-5722
我自己	-5723
的机会	-5724
第二个	-5725
▁我发现	-5726
▁answers	-5727
▁agricult	-5728
▁speaking	-5729
做过	-5730
去年	-5731
合适	-5732
学到	-5733
维持	-5734
进来	-5735
麻烦	-5736
yle	-5737
▁Ro	-5738
▁就会	-5739
一些人	-5740
同性恋	-5741
adem	-5742
raid	-5743
uing	-5744
cules	-5745
rench	-5746
▁feels	-5747
▁twice	-5748
▁histor	-5749
▁reduce	-5750
▁noticed	-5751
▁planets	-5752
▁National	-5753
▁creativity	-5754
▁significant	-5755
便宜	-5756
寿命	-5757
脆弱	-5758
走向	-5759
▁Sc	-5760
▁社会	-5761
相当于	-5762
band	-5763
▁ang	-5764
我们应该	-5765
ening	-5766
icles	-5767
▁vast	-5768
▁dying	-5769
▁gentle	-5770
▁microb	-5771
▁oxygen	-5772
▁markets	-5773
万人	-5774
手段	-5775
报纸	-5776
涉及	-5777
ste	-5778
▁好了	-5779
一系列	-5780
感觉到	-5781
所谓的	-5782
有一天	-5783
错误的	-5784
ened	-5785
▁San	-5786
▁Arab	-5787
▁boys	-5788
▁analy	-5789
▁funny	-5790
▁shock	-5791
▁afraid	-5792
▁played	-5793
▁daughter	-5794
▁emotional	-5795
▁surprising	-5796
▁sustainable	-5797
出版	-5798
把这	-5799
ett	-5800
izes	-5801
rupt	-5802
▁gun	-5803
house	-5804
▁closer	-5805
▁networks	-5806
▁original	-5807
▁published	-5808
▁differently	-5809
gy	-5810
版本	-5811
玻璃	-5812
粒子	-5813
采用	-5814
▁才能	-5815
▁第三	-5816
产生了	-5817
使我们	-5818
做一个	-5819
我开始	-5820
有些人	-5821
美国的	-5822
phone	-5823
▁Iraq	-5824
▁expand	-5825
▁highly	-5826
▁devices	-5827
21	-5828
?“	-5829
my	-5830
呈现	-5831
就有	-5832
画面	-5833
遗传	-5834
间的	-5835
也不会	-5836
这不是	-5837
anda	-5838
▁尤其是	-5839
世界上最	-5840
每个人都	-5841
aling	-5842
▁habit	-5843
▁broken	-5844
▁corner	-5845
▁window	-5846
▁evolved	-5847
▁mission	-5848
▁entreprene	-5849
▁communication	-5850
。"	-5851
从中	-5852
做法	-5853
大众	-5854
期望	-5855
每次	-5856
色列	-5857
win	-5858
在哪里	-5859
失去了	-5860
这么多	-5861
▁mid	-5862
▁我当时	-5863
▁beat	-5864
▁于是我们	-5865
▁这就是为什么	-5866
▁contact	-5867
▁天	-5868
供应	-5869
哪个	-5870
回事	-5871
大气	-5872
幻灯	-5873
旁边	-5874
极其	-5875
海岸	-5876
arm	-5877
▁她的	-5878
▁根据	-5879
发展的	-5880
我已经	-5881
没什么	-5882
empt	-5883
的情况下	-5884
othes	-5885
▁gold	-5886
▁lack	-5887
ashion	-5888
▁Great	-5889
▁dance	-5890
ception	-5891
▁forces	-5892
▁efficient	-5893
▁年	-5894
具体	-5895
到处	-5896
士兵	-5897
居民	-5898
渴望	-5899
相比	-5900
顺便	-5901
▁ut	-5902
orith	-5903
▁wood	-5904
▁independ	-5905
▁inspired	-5906
▁produced	-5907
45	-5908
9,	-5909
fr	-5910
慈善	-5911
沙漠	-5912
超越	-5913
cell	-5914
rate	-5915
atell	-5916
▁coff	-5917
▁rapid	-5918
▁Indian	-5919
▁addition	-5920
EO	-5921
一片	-5922
不好	-5923
将来	-5924
我和	-5925
斯林	-5926
潜水	-5927
物品	-5928
袭击	-5929
reg	-5930
val	-5931
他们是	-5932
hone	-5933
对我来说	-5934
▁Over	-5935
▁Will	-5936
▁reco	-5937
▁compon	-5938
▁helping	-5939
▁algorith	-5940
▁differences	-5941
曲线	-5942
气体	-5943
混合	-5944
300	-5945
ius	-5946
今天的	-5947
件事情	-5948
同一个	-5949
的时代	-5950
真的很	-5951
穆斯林	-5952
1000	-5953
▁Par	-5954
▁hom	-5955
▁resist	-5956
▁spaces	-5957
▁mountain	-5958
▁experiences	-5959
伟大	-5960
强大	-5961
接着	-5962
无线	-5963
有时	-5964
lim	-5965
▁oh	-5966
▁一直	-5967
只需要	-5968
可能的	-5969
那就是	-5970
icon	-5971
isco	-5972
▁molecules	-5973
▁scientist	-5974
丈夫	-5975
你想	-5976
探测	-5977
症状	-5978
隐藏	-5979
我们不	-5980
aced	-5981
rael	-5982
▁在一个	-5983
▁我喜欢	-5984
▁hall	-5985
▁conference	-5986
▁才	-5987
一份	-5988
了吗	-5989
长期	-5990
把他们	-5991
的学生	-5992
一个问题	-5993
这些问题	-5994
▁blog	-5995
▁hole	-5996
▁agree	-5997
▁knowing	-5998
▁missing	-5999
▁trouble	-6000
▁religion	-6001
▁classroom	-6002
▁designers	-6003
▁diversity	-6004
农民	-6005
则是	-6006
同一	-6007
标志	-6008
电力	-6009
评论	-6010
闭症	-6011
▁仅仅	-6012
的速度	-6013
▁ver	-6014
▁我们不	-6015
ooper	-6016
▁fort	-6017
▁join	-6018
▁rare	-6019
▁1,000	-6020
▁Again	-6021
▁basis	-6022
▁shoot	-6023
▁demand	-6024
▁dreams	-6025
▁gotten	-6026
▁nearly	-6027
▁passed	-6028
▁seemed	-6029
▁Austral	-6030
▁identity	-6031
▁$	-6032
主意	-6033
图表	-6034
着的	-6035
设想	-6036
远的	-6037
逻辑	-6038
▁Gu	-6039
发现的	-6040
惊人的	-6041
idden	-6042
▁Russ	-6043
▁crowd	-6044
▁satell	-6045
▁bringing	-6046
ef	-6047
mp	-6048
▁《	-6049
全国	-6050
古老	-6051
好奇	-6052
对象	-6053
个例子	-6054
应该是	-6055
有效的	-6056
的行为	-6057
term	-6058
ulner	-6059
▁wire	-6060
▁rough	-6061
▁flight	-6062
▁volunt	-6063
▁attract	-6064
▁surgery	-6065
8,	-6066
临床	-6067
乐观	-6068
后果	-6069
字母	-6070
我还	-6071
教学	-6072
用它	-6073
看了	-6074
调整	-6075
▁NA	-6076
▁随着	-6077
了不起	-6078
我们将	-6079
注意力	-6080
ears	-6081
exic	-6082
▁Con	-6083
▁Dan	-6084
▁cru	-6085
▁reb	-6086
▁host	-6087
▁poet	-6088
▁想象一下	-6089
▁climb	-6090
▁consid	-6091
▁target	-6092
▁deliver	-6093
7,	-6094
ae	-6095
hy	-6096
共享	-6097
前面	-6098
名叫	-6099
回去	-6100
带到	-6101
忘记	-6102
毒品	-6103
稳定	-6104
▁Ed	-6105
如果我	-6106
▁但他们	-6107
▁seas	-6108
▁我们应该	-6109
▁eating	-6110
▁forever	-6111
▁spending	-6112
▁background	-6113
▁开	-6114
▁爱	-6115
▁阿	-6116
估计	-6117
效率	-6118
角落	-6119
都要	-6120
▁最近	-6121
▁fat	-6122
▁inj	-6123
▁tun	-6124
istry	-6125
▁none	-6126
▁plat	-6127
▁trip	-6128
▁birds	-6129
▁aspect	-6130
▁lights	-6131
▁hearing	-6132
▁complexity	-6133
2,	-6134
感知	-6135
技巧	-6136
识别	-6137
说服	-6138
IDS	-6139
▁突然	-6140
▁过去	-6141
全新的	-6142
基本的	-6143
美丽的	-6144
黑猩猩	-6145
▁Thanks	-6146
▁studying	-6147
ha	-6148
不幸	-6149
在的	-6150
把我	-6151
生意	-6152
纳米	-6153
致力	-6154
▁成为	-6155
不一样	-6156
动物的	-6157
所说的	-6158
自行车	-6159
cript	-6160
▁Char	-6161
某种程度上	-6162
icking	-6163
▁opposite	-6164
▁industrial	-6165
公平	-6166
哪儿	-6167
客户	-6168
死了	-6169
演示	-6170
策略	-6171
行走	-6172
覆盖	-6173
我希望	-6174
段时间	-6175
让人们	-6176
care	-6177
reci	-6178
▁etc	-6179
▁在那里	-6180
这些数据	-6181
▁对我来说	-6182
ording	-6183
▁creates	-6184
▁commercial	-6185
ux	-6186
交谈	-6187
发布	-6188
就要	-6189
得了	-6190
照顾	-6191
矛盾	-6192
gth	-6193
▁下面	-6194
基金会	-6195
的项目	-6196
▁fol	-6197
▁hack	-6198
atures	-6199
orders	-6200
rength	-6201
▁Mexic	-6202
▁fully	-6203
▁raised	-6204
do	-6205
▁放	-6206
一边	-6207
指数	-6208
教堂	-6209
最初	-6210
的书	-6211
说是	-6212
起了	-6213
边缘	-6214
透明	-6215
atr	-6216
ees	-6217
▁PM	-6218
告诉他们	-6219
▁trib	-6220
▁wide	-6221
ifying	-6222
▁accom	-6223
▁airpl	-6224
▁weird	-6225
▁focused	-6226
▁traffic	-6227
▁investment	-6228
伙伴	-6229
依靠	-6230
实践	-6231
提升	-6232
更有	-6233
疑问	-6234
震惊	-6235
cop	-6236
▁CO	-6237
我们自己	-6238
pping	-6239
▁core	-6240
▁作为一个	-6241
▁easier	-6242
▁museum	-6243
▁sexual	-6244
▁Twitter	-6245
倾向	-6246
前进	-6247
我们也	-6248
hand	-6249
roud	-6250
▁ske	-6251
▁我们把	-6252
▁我是说	-6253
▁party	-6254
▁photo	-6255
osystem	-6256
▁Israel	-6257
合法	-6258
回应	-6259
外面	-6260
死去	-6261
送到	-6262
▁Ob	-6263
▁是否	-6264
▁观众	-6265
任何人	-6266
创造力	-6267
有没有	-6268
▁很多人	-6269
▁boat	-6270
▁rout	-6271
▁这是一种	-6272
▁dinos	-6273
▁coffee	-6274
▁vulner	-6275
▁partners	-6276
▁strength	-6277
▁opportunities	-6278
不停	-6279
两年	-6280
会儿	-6281
启动	-6282
富有	-6283
左边	-6284
深刻	-6285
综合	-6286
转移	-6287
▁ur	-6288
▁使得	-6289
不只是	-6290
在这些	-6291
的重要	-6292
▁Nor	-6293
▁ing	-6294
ratic	-6295
▁crim	-6296
▁teen	-6297
▁enter	-6298
▁lucky	-6299
artment	-6300
illiant	-6301
ography	-6302
▁genome	-6303
▁infect	-6304
▁correct	-6305
▁describe	-6306
▁tremendous	-6307
斗争	-6308
标记	-6309
这点	-6310
irt	-6311
▁这也	-6312
在我的	-6313
▁400	-6314
▁你需要	-6315
▁我们从	-6316
▁而这些	-6317
▁让他们	-6318
▁这些是	-6319
rated	-6320
▁Bill	-6321
▁Iran	-6322
▁fold	-6323
▁harm	-6324
▁10,000	-6325
▁kilomet	-6326
▁matters	-6327
▁数	-6328
一致	-6329
代码	-6330
投票	-6331
改进	-6332
瞬间	-6333
谈话	-6334
▁1,	-6335
▁一位	-6336
一件事	-6337
传统的	-6338
▁因为这	-6339
rical	-6340
▁giant	-6341
▁liber	-6342
▁parad	-6343
ulations	-6344
▁ecosystem	-6345
▁importantly	-6346
▁possibility	-6347
5%	-6348
一台	-6349
印象	-6350
特定	-6351
赋予	-6352
转化	-6353
▁En	-6354
的概念	-6355
Tube	-6356
▁Dar	-6357
▁cla	-6358
▁大部分	-6359
基础设施	-6360
▁Take	-6361
▁stem	-6362
▁metap	-6363
▁remain	-6364
▁failure	-6365
▁justice	-6366
▁structures	-6367
▁consciousness	-6368
▁,	-6369
一生	-6370
人和	-6371
决策	-6372
教师	-6373
穿着	-6374
紧张	-6375
艰难	-6376
街道	-6377
象征	-6378
son	-6379
▁其他	-6380
唯一的	-6381
很简单	-6382
aker	-6383
▁More	-6384
▁Rich	-6385
▁puzz	-6386
▁repe	-6387
▁mouth	-6388
▁proud	-6389
▁brings	-6390
▁notion	-6391
▁therap	-6392
▁However	-6393
▁despite	-6394
▁turning	-6395
▁「	-6396
受害	-6397
婚姻	-6398
强调	-6399
形态	-6400
领袖	-6401
▁发现	-6402
▁提供	-6403
向你们	-6404
幻灯片	-6405
每一个人	-6406
ively	-6407
▁cred	-6408
▁forg	-6409
▁held	-6410
▁advant	-6411
▁fairly	-6412
▁virtual	-6413
▁Actually	-6414
▁benefits	-6415
▁platform	-6416
▁ultimately	-6417
人工	-6418
商品	-6419
尊重	-6420
文件	-6421
样本	-6422
规划	-6423
重大	-6424
▁是在	-6425
▁每年	-6426
就开始	-6427
是关于	-6428
自然的	-6429
▁alt	-6430
ipped	-6431
▁shop	-6432
▁stuck	-6433
▁transm	-6434
▁sharing	-6435
▁entirely	-6436
▁landscape	-6437
不足	-6438
埃及	-6439
总结	-6440
活跃	-6441
真相	-6442
种植	-6443
高中	-6444
充满了	-6445
听说过	-6446
相关的	-6447
致力于	-6448
▁magaz	-6449
▁desert	-6450
▁yellow	-6451
▁distance	-6452
▁emotions	-6453
去看	-6454
右边	-6455
寻常	-6456
很久	-6457
成立	-6458
手指	-6459
措施	-6460
有机	-6461
玩耍	-6462
算法	-6463
这位	-6464
都被	-6465
你自己	-6466
的事实	-6467
的角度	-6468
知道的	-6469
▁bag	-6470
▁fro	-6471
▁tum	-6472
▁我们所	-6473
based	-6474
itely	-6475
▁Good	-6476
▁bomb	-6477
▁hell	-6478
▁accur	-6479
▁ancient	-6480
将其	-6481
少年	-6482
演员	-6483
着手	-6484
肌肉	-6485
重建	-6486
ada	-6487
创造了	-6488
完美的	-6489
小小的	-6490
非洲的	-6491
reet	-6492
▁fab	-6493
▁mos	-6494
发展中国家	-6495
▁epide	-6496
▁artists	-6497
▁accident	-6498
▁negative	-6499
ij	-6500
人群	-6501
传染	-6502
化石	-6503
南非	-6504
奖励	-6505
寻求	-6506
愤怒	-6507
推动	-6508
特性	-6509
移民	-6510
zen	-6511
必须要	-6512
的生物	-6513
研究的	-6514
进行了	-6515
ysis	-6516
▁mig	-6517
▁因为在	-6518
▁在美国	-6519
▁然后你	-6520
▁mort	-6521
▁adapt	-6522
▁tough	-6523
▁phones	-6524
▁concent	-6525
▁Sometimes	-6526
▁phenomenon	-6527
▁imagination	-6528
▁necessarily	-6529
主题	-6530
开车	-6531
效应	-6532
流感	-6533
视角	-6534
进展	-6535
邻居	-6536
他们说	-6537
感受到	-6538
是我的	-6539
类似的	-6540
aria	-6541
ford	-6542
mark	-6543
vere	-6544
▁150	-6545
celer	-6546
rogen	-6547
▁Asia	-6548
▁cand	-6549
icians	-6550
isible	-6551
ulated	-6552
▁calls	-6553
▁attempt	-6554
▁husband	-6555
▁regular	-6556
▁definition	-6557
一刻	-6558
上有	-6559
严肃	-6560
动机	-6561
围绕	-6562
▁Tr	-6563
一开始	-6564
到一个	-6565
的部分	-6566
cest	-6567
edic	-6568
▁fle	-6569
stein	-6570
▁flag	-6571
▁seed	-6572
▁这些都是	-6573
▁brand	-6574
▁breast	-6575
▁opened	-6576
▁tissue	-6577
▁figured	-6578
▁moments	-6579
▁require	-6580
▁European	-6581
▁religious	-6582
华盛	-6583
录像	-6584
是谁	-6585
没法	-6586
轨道	-6587
gra	-6588
▁Ne	-6589
▁Su	-6590
▁叫做	-6591
This	-6592
▁See	-6593
▁amb	-6594
▁nor	-6595
▁appl	-6596
▁Middle	-6597
▁bright	-6598
▁inform	-6599
▁argument	-6600
▁billions	-6601
▁leadership	-6602
Ch	-6603
事业	-6604
关联	-6605
存活	-6606
无人	-6607
金属	-6608
pan	-6609
▁在那	-6610
▁政府	-6611
华盛顿	-6612
打电话	-6613
朋友们	-6614
的第一	-6615
被称为	-6616
▁bud	-6617
没有什么	-6618
▁Once	-6619
▁bone	-6620
▁我们希望	-6621
▁bound	-6622
▁batter	-6623
ifically	-6624
▁brother	-6625
▁destroy	-6626
▁fashion	-6627
▁creatures	-6628
▁necessary	-6629
▁suffering	-6630
▁亚	-6631
人士	-6632
地上	-6633
意见	-6634
明确	-6635
睡眠	-6636
精确	-6637
舞蹈	-6638
血液	-6639
预防	-6640
安德森	-6641
ager	-6642
▁den	-6643
生态系统	-6644
这个故事	-6645
▁bees	-6646
▁cogn	-6647
▁exer	-6648
▁mill	-6649
▁reve	-6650
▁Niger	-6651
▁helps	-6652
connect	-6653
▁ancest	-6654
▁remote	-6655
▁elements	-6656
▁university	-6657
5,	-6658
专注	-6659
灵感	-6660
看过	-6661
美洲	-6662
ino	-6663
tle	-6664
▁帮助	-6665
▁我能	-6666
因斯坦	-6667
怎么办	-6668
还可以	-6669
urch	-6670
▁Aud	-6671
▁Web	-6672
▁但是在	-6673
▁sorry	-6674
▁corpor	-6675
▁events	-6676
▁pounds	-6677
▁sector	-6678
▁appreci	-6679
▁particles	-6680
单词	-6681
所需	-6682
杉矶	-6683
片段	-6684
环保	-6685
了解到	-6686
大规模	-6687
洛杉矶	-6688
的所有	-6689
自闭症	-6690
uman	-6691
▁tom	-6692
就是这样	-6693
最重要的	-6694
▁appe	-6695
▁pleas	-6696
▁river	-6697
▁charge	-6698
▁failed	-6699
▁signal	-6700
▁foreign	-6701
▁influence	-6702
作家	-6703
对方	-6704
抑郁	-6705
村庄	-6706
费用	-6707
时间的	-6708
非常有	-6709
▁egg	-6710
▁tor	-6711
▁这是一	-6712
我们能够	-6713
verse	-6714
▁disp	-6715
▁note	-6716
▁cheap	-6717
▁coast	-6718
▁faith	-6719
▁walls	-6720
▁Washing	-6721
▁emotion	-6722
▁studied	-6723
kn	-6724
专利	-6725
在了	-6726
尼日	-6727
德里	-6728
承诺	-6729
旋转	-6730
来讲	-6731
死于	-6732
直觉	-6733
谈到	-6734
转换	-6735
销售	-6736
aff	-6737
lin	-6738
▁Me	-6739
▁正是	-6740
一点点	-6741
以色列	-6742
和我们	-6743
的一点	-6744
组织的	-6745
肯尼亚	-6746
飞行器	-6747
ties	-6748
ulpt	-6749
▁这些人	-6750
▁我们认为	-6751
inally	-6752
▁sculpt	-6753
▁stream	-6754
▁counter	-6755
▁holding	-6756
▁leading	-6757
▁succeed	-6758
▁responsible	-6759
1.	-6760
便是	-6761
分裂	-6762
前的	-6763
地下	-6764
培训	-6765
成年	-6766
无所	-6767
清晰	-6768
猴子	-6769
至今	-6770
葡萄	-6771
▁Mr	-6772
▁拥有	-6773
对我说	-6774
干细胞	-6775
很有趣	-6776
iage	-6777
roll	-6778
▁我们是	-6779
▁agre	-6780
▁ship	-6781
dimens	-6782
▁bread	-6783
▁cycle	-6784
▁heads	-6785
▁mouse	-6786
▁north	-6787
▁French	-6788
▁convin	-6789
▁farmers	-6790
ification	-6791
▁competition	-6792
4,	-6793
两者	-6794
展开	-6795
布鲁	-6796
符合	-6797
还会	-6798
阳光	-6799
ibr	-6800
▁BG	-6801
▁而在	-6802
造成的	-6803
▁197	-6804
▁hyp	-6805
▁现在我	-6806
▁horr	-6807
itable	-6808
issions	-6809
▁restaur	-6810
▁previous	-6811
▁strategy	-6812
▁president	-6813
▁Washington	-6814
人体	-6815
仪器	-6816
地位	-6817
拿着	-6818
本来	-6819
流动	-6820
混乱	-6821
私人	-6822
衡量	-6823
跟我	-6824
陌生	-6825
oop	-6826
城市的	-6827
特别的	-6828
rict	-6829
vant	-6830
▁当他们	-6831
▁我已经	-6832
inist	-6833
▁2000	-6834
▁Paul	-6835
▁spot	-6836
ctions	-6837
idents	-6838
▁indic	-6839
▁offer	-6840
▁quote	-6841
lection	-6842
▁adults	-6843
▁cooper	-6844
▁gender	-6845
▁letter	-6846
▁compared	-6847
▁childhood	-6848
3,	-6849
处在	-6850
它会	-6851
律师	-6852
损失	-6853
放大	-6854
犹太	-6855
笔记	-6856
背后	-6857
采访	-6858
cra	-6859
inc	-6860
▁Ha	-6861
▁自己	-6862
做一些	-6863
像这样	-6864
的人类	-6865
▁Gra	-6866
▁und	-6867
▁特别是	-6868
alled	-6869
▁narr	-6870
▁tast	-6871
▁avoid	-6872
▁sport	-6873
▁deeply	-6874
▁shouldn	-6875
ibilities	-6876
▁discovery	-6877
St	-6878
优势	-6879
发射	-6880
差别	-6881
影片	-6882
志愿	-6883
忽略	-6884
抓住	-6885
祖先	-6886
▁1.	-6887
▁想想	-6888
▁改变	-6889
万美元	-6890
特定的	-6891
的位置	-6892
gypt	-6893
▁wis	-6894
接下来的	-6895
▁exch	-6896
▁我们正在	-6897
▁equal	-6898
▁newsp	-6899
▁subst	-6900
▁wheel	-6901
▁acceler	-6902
▁balance	-6903
▁document	-6904
▁brilliant	-6905
▁organisms	-6906
▁philosoph	-6907
一百	-6908
不对	-6909
为此	-6910
再生	-6911
大型	-6912
子上	-6913
打破	-6914
称作	-6915
观看	-6916
400	-6917
世纪的	-6918
年轻的	-6919
vity	-6920
▁Gen	-6921
▁joy	-6922
▁poem	-6923
▁maint	-6924
▁double	-6925
▁transp	-6926
▁leaving	-6927
▁Anderson	-6928
1,	-6929
▁该	-6930
之内	-6931
地点	-6932
宣传	-6933
展览	-6934
得更	-6935
才会	-6936
是你	-6937
模仿	-6938
营养	-6939
量子	-6940
▁Fl	-6941
地球的	-6942
那么多	-6943
非常的	-6944
▁这是在	-6945
什么时候	-6946
throp	-6947
▁argue	-6948
▁chick	-6949
▁prior	-6950
▁belong	-6951
▁colors	-6952
▁dollar	-6953
▁managed	-6954
▁typical	-6955
▁fighting	-6956
%,	-6957
为何	-6958
充分	-6959
听说	-6960
平方	-6961
愿望	-6962
结婚	-6963
进了	-6964
道理	-6965
金钱	-6966
陷入	-6967
难道	-6968
exp	-6969
ris	-6970
▁确实	-6971
图书馆	-6972
建筑师	-6973
提到的	-6974
▁App	-6975
▁due	-6976
▁世界上	-6977
▁你可能	-6978
▁因为你	-6979
做些什么	-6980
▁adop	-6981
▁shel	-6982
▁你会发现	-6983
▁Egypt	-6984
▁crime	-6985
▁frequ	-6986
▁fresh	-6987
▁degree	-6988
▁lesson	-6989
▁oceans	-6990
▁British	-6991
▁watched	-6992
▁majority	-6993
▁construct	-6994
dimensional	-6995
▁businesses	-6996
▁fascinating	-6997
▁unfortunately	-6998
▁哦	-6999
变的	-7000
情形	-7001
数的	-7002
正如	-7003
给他	-7004
高度	-7005
anz	-7006
ugg	-7007
企业家	-7008
技术的	-7009
是怎样	-7010
更大的	-7011
社会的	-7012
组成的	-7013
oses	-7014
thes	-7015
▁Big	-7016
▁ble	-7017
▁shr	-7018
▁unc	-7019
▁我们想	-7020
▁Bang	-7021
▁Park	-7022
▁hero	-7023
你可以看到	-7024
elling	-7025
▁embra	-7026
▁exhib	-7027
▁leads	-7028
▁prost	-7029
▁caught	-7030
▁limited	-7031
▁engineers	-7032
图案	-7033
地理	-7034
场景	-7035
好事	-7036
应当	-7037
指出	-7038
提取	-7039
摆脱	-7040
极了	-7041
现状	-7042
ses	-7043
▁印度	-7044
在这儿	-7045
我现在	-7046
拥有的	-7047
让你们	-7048
athy	-7049
▁Col	-7050
▁Did	-7051
▁看起来	-7052
ruption	-7053
▁bridge	-7054
▁photos	-7055
▁sister	-7056
▁unlike	-7057
▁believed	-7058
▁finished	-7059
▁professional	-7060
0.	-7061
专门	-7062
争论	-7063
倾听	-7064
制定	-7065
加州	-7066
奇迹	-7067
引发	-7068
改造	-7069
达尔	-7070
ara	-7071
是一名	-7072
pper	-7073
▁Her	-7074
▁它可以	-7075
▁我们用	-7076
▁我记得	-7077
大多数人	-7078
iable	-7079
▁pros	-7080
▁purs	-7081
▁lunch	-7082
▁closed	-7083
▁prototy	-7084
▁related	-7085
▁wearing	-7086
▁institution	-7087
▁艾	-7088
人物	-7089
保留	-7090
即将	-7091
尔的	-7092
老年	-7093
ked	-7094
健康的	-7095
多样性	-7096
完成的	-7097
的这个	-7098
hold	-7099
uild	-7100
▁GDP	-7101
▁cos	-7102
▁tit	-7103
agers	-7104
▁edge	-7105
▁foss	-7106
▁我们开始	-7107
▁faces	-7108
▁paint	-7109
ographic	-7110
▁benefit	-7111
▁creation	-7112
一遍	-7113
上学	-7114
修复	-7115
最大	-7116
澳大	-7117
贵的	-7118
---	-7119
car	-7120
▁Sm	-7121
▁去年	-7122
不喜欢	-7123
带来了	-7124
的变化	-7125
cked	-7126
▁rot	-7127
▁我不是	-7128
ength	-7129
▁tour	-7130
▁Franc	-7131
▁names	-7132
entally	-7133
▁astron	-7134
▁hidden	-7135
▁volunte	-7136
▁separate	-7137
▁concerned	-7138
▁invisible	-7139
产业	-7140
出发	-7141
将它	-7142
当作	-7143
得很	-7144
扮演	-7145
疟疾	-7146
神秘	-7147
mar	-7148
宇宙的	-7149
word	-7150
告诉大家	-7151
解决问题	-7152
▁Very	-7153
▁followed	-7154
▁intellect	-7155
▁otherwise	-7156
▁前	-7157
企鹅	-7158
冒险	-7159
加速	-7160
大陆	-7161
天的	-7162
拿到	-7163
整体	-7164
标签	-7165
短信	-7166
秒钟	-7167
联邦	-7168
ael	-7169
eff	-7170
▁大脑	-7171
▁就能	-7172
听到的	-7173
大学的	-7174
开始的	-7175
此同时	-7176
的城市	-7177
▁Des	-7178
▁你必须	-7179
▁有些人	-7180
我们如何	-7181
澳大利亚	-7182
right	-7183
▁anti	-7184
▁grad	-7185
▁hate	-7186
▁iron	-7187
▁opin	-7188
▁soil	-7189
▁grass	-7190
▁grown	-7191
▁motor	-7192
▁moves	-7193
▁refuge	-7194
▁slowly	-7195
▁capable	-7196
▁element	-7197
▁everyday	-7198
▁surprise	-7199
▁constantly	-7200
2.	-7201
If	-7202
au	-7203
制的	-7204
年了	-7205
引擎	-7206
稍微	-7207
精彩	-7208
练习	-7209
难题	-7210
黑客	-7211
价值观	-7212
十年代	-7213
wide	-7214
▁mir	-7215
▁pun	-7216
其中一个	-7217
尼日利亚	-7218
illed	-7219
known	-7220
terday	-7221
▁mosqu	-7222
▁noise	-7223
▁steps	-7224
▁insects	-7225
▁trained	-7226
▁kilometers	-7227
五个	-7228
像我	-7229
地面	-7230
场的	-7231
大小	-7232
成分	-7233
氧气	-7234
空中	-7235
突破	-7236
马拉	-7237
omy	-7238
▁顺便	-7239
严重的	-7240
也不是	-7241
的关系	-7242
uros	-7243
▁Sun	-7244
▁pet	-7245
▁因为他	-7246
我们知道	-7247
alley	-7248
apers	-7249
force	-7250
▁frag	-7251
▁moon	-7252
▁但是他们	-7253
▁simpl	-7254
▁breath	-7255
▁highest	-7256
▁married	-7257
▁normally	-7258
▁sequence	-7259
▁advantage	-7260
▁described	-7261
▁interaction	-7262
你有	-7263
公里	-7264
合成	-7265
头脑	-7266
对吗	-7267
层的	-7268
岁时	-7269
诞生	-7270
靠近	-7271
预算	-7272
irm	-7273
▁El	-7274
▁上面	-7275
▁但你	-7276
▁利用	-7277
▁应该	-7278
▁有着	-7279
为我们	-7280
这个人	-7281
enty	-7282
lands	-7283
▁whom	-7284
urally	-7285
▁novel	-7286
▁truck	-7287
▁master	-7288
▁safety	-7289
▁artific	-7290
▁launched	-7291
▁received	-7292
▁currently	-7293
▁principles	-7294
中央	-7295
作出	-7296
多了	-7297
天然	-7298
患有	-7299
惊奇	-7300
所能	-7301
研发	-7302
级的	-7303
致命	-7304
达成	-7305
▁事实	-7306
▁我把	-7307
做这个	-7308
句话说	-7309
的内容	-7310
▁ton	-7311
▁Amaz	-7312
▁Life	-7313
▁gain	-7314
▁king	-7315
▁wear	-7316
▁talks	-7317
▁begins	-7318
▁expert	-7319
▁mentioned	-7320
▁perfectly	-7321
In	-7322
▁水	-7323
争议	-7324
加上	-7325
意大	-7326
浏览	-7327
立刻	-7328
符号	-7329
腐败	-7330
这段	-7331
远远	-7332
ami	-7333
set	-7334
因为我	-7335
心脏病	-7336
美好的	-7337
aked	-7338
olly	-7339
▁dry	-7340
▁gar	-7341
▁sam	-7342
▁tox	-7343
ublic	-7344
▁Have	-7345
▁bear	-7346
▁在过去的	-7347
▁所以他们	-7348
▁click	-7349
▁folks	-7350
▁plane	-7351
iration	-7352
▁grandm	-7353
▁Richard	-7354
▁weapons	-7355
▁Audience	-7356
▁mathematics	-7357
6,	-7358
代价	-7359
如同	-7360
实施	-7361
层次	-7362
很小	-7363
留下	-7364
▁建立	-7365
▁显然	-7366
其实是	-7367
好消息	-7368
很多的	-7369
oman	-7370
▁odd	-7371
itute	-7372
ulous	-7373
▁Pres	-7374
▁gard	-7375
▁seat	-7376
forest	-7377
ipping	-7378
▁Green	-7379
▁inequ	-7380
oration	-7381
vention	-7382
▁attach	-7383
▁exists	-7384
▁invited	-7385
▁replace	-7386
▁identify	-7387
▁metaphor	-7388
▁surprised	-7389
▁先	-7390
上千	-7391
不知	-7392
分离	-7393
奴隶	-7394
平面	-7395
我去	-7396
热爱	-7397
的呢	-7398
禁止	-7399
说到	-7400
还没	-7401
遭受	-7402
ume	-7403
▁35	-7404
▁将会	-7405
死亡率	-7406
看不到	-7407
▁Bas	-7408
▁Res	-7409
asion	-7410
essed	-7411
▁bull	-7412
▁roof	-7413
各种各样的	-7414
▁eleph	-7415
▁pages	-7416
▁finger	-7417
▁reward	-7418
▁factory	-7419
▁insight	-7420
▁multiple	-7421
▁survival	-7422
中东	-7423
中最	-7424
反馈	-7425
发光	-7426
回报	-7427
少的	-7428
带有	-7429
火箭	-7430
穿越	-7431
追踪	-7432
雕塑	-7433
cil	-7434
sec	-7435
▁经济	-7436
oted	-7437
▁fed	-7438
▁gay	-7439
▁nan	-7440
▁每一个	-7441
这张照片	-7442
▁Each	-7443
▁NASA	-7444
▁tons	-7445
▁brief	-7446
▁homes	-7447
▁George	-7448
▁commit	-7449
▁precise	-7450
▁signals	-7451
▁theater	-7452
▁consequences	-7453
hi	-7454
发电	-7455
吃惊	-7456
屋顶	-7457
教室	-7458
最高	-7459
▁真的	-7460
发明了	-7461
学生们	-7462
完成了	-7463
已经被	-7464
是为了	-7465
的空间	-7466
的经济	-7467
许多人	-7468
▁era	-7469
在我们的	-7470
▁band	-7471
▁hasn	-7472
ushing	-7473
▁crash	-7474
▁equip	-7475
▁stock	-7476
▁leader	-7477
▁paying	-7478
▁article	-7479
▁Everybody	-7480
▁considered	-7481
保健	-7482
信念	-7483
商店	-7484
希腊	-7485
想的	-7486
手臂	-7487
支付	-7488
规律	-7489
随机	-7490
集体	-7491
饮食	-7492
urd	-7493
van	-7494
著名的	-7495
cket	-7496
odes	-7497
▁pow	-7498
▁问题是	-7499
的问题是	-7500
ortex	-7501
▁myth	-7502
▁nutr	-7503
▁所有这些	-7504
ildren	-7505
▁dinner	-7506
▁harder	-7507
▁compare	-7508
▁protein	-7509
▁Australia	-7510
▁cognitive	-7511
▁seriously	-7512
PA	-7513
保存	-7514
承担	-7515
掉了	-7516
敏感	-7517
移植	-7518
纤维	-7519
蚊子	-7520
都没	-7521
ads	-7522
你需要	-7523
是可以	-7524
▁ves	-7525
▁我想要	-7526
uries	-7527
▁empt	-7528
▁intu	-7529
▁shoes	-7530
▁extend	-7531
▁versus	-7532
▁investig	-7533
▁soldiers	-7534
▁operating	-7535
塑造	-7536
工人	-7537
开展	-7538
形象	-7539
得出	-7540
激发	-7541
点子	-7542
看出	-7543
着迷	-7544
Yes	-7545
▁设计	-7546
▁除非	-7547
别人的	-7548
原因是	-7549
展示了	-7550
是如此	-7551
这两个	-7552
anes	-7553
▁或者说	-7554
craft	-7555
▁arms	-7556
▁stim	-7557
▁limit	-7558
▁Mexico	-7559
▁debate	-7560
▁mothers	-7561
▁magazine	-7562
▁civilization	-7563
99	-7564
▁等	-7565
一小	-7566
不久	-7567
加拿	-7568
南极	-7569
夏天	-7570
构建	-7571
沮丧	-7572
激情	-7573
紧密	-7574
add	-7575
bel	-7576
俄罗斯	-7577
安全的	-7578
特殊的	-7579
的一种	-7580
▁Red	-7581
▁cro	-7582
▁孩子们	-7583
任何一个	-7584
给你们看	-7585
▁Does	-7586
▁nerv	-7587
ancing	-7588
▁forced	-7589
▁micros	-7590
lication	-7591
▁letters	-7592
▁testing	-7593
▁worried	-7594
▁feedback	-7595
▁galaxies	-7596
▁associated	-7597
▁depression	-7598
▁听	-7599
一辆	-7600
回收	-7601
回顾	-7602
奇妙	-7603
无限	-7604
显著	-7605
玩笑	-7606
的前	-7607
纪录	-7608
表情	-7609
这场	-7610
驱动	-7611
ago	-7612
▁两个	-7613
▁真正	-7614
消费者	-7615
的样子	-7616
的那些	-7617
获得了	-7618
部电影	-7619
▁Bar	-7620
▁smo	-7621
▁Would	-7622
▁south	-7623
▁finish	-7624
▁unless	-7625
▁curious	-7626
▁quantum	-7627
▁contract	-7628
▁existence	-7629
▁healthcare	-7630
▁comfortable	-7631
▁researchers	-7632
了个	-7633
五年	-7634
以下	-7635
传感	-7636
光线	-7637
哺乳	-7638
所未	-7639
着我	-7640
运输	-7641
重视	-7642
gar	-7643
▁99	-7644
▁必须	-7645
uous	-7646
▁Pal	-7647
非常非常	-7648
anted	-7649
▁scen	-7650
▁quiet	-7651
▁leaves	-7652
▁stupid	-7653
▁vessel	-7654
▁drawing	-7655
▁equival	-7656
▁treated	-7657
▁planning	-7658
免疫	-7659
分开	-7660
北极	-7661
娱乐	-7662
它在	-7663
对称	-7664
尔夫	-7665
影像	-7666
忽视	-7667
感情	-7668
潜力	-7669
班牙	-7670
生理	-7671
论文	-7672
首歌	-7673
麦克	-7674
pet	-7675
▁你在	-7676
很明显	-7677
西班牙	-7678
aled	-7679
▁MIT	-7680
一段时间	-7681
我不知道	-7682
▁King	-7683
▁init	-7684
thetic	-7685
▁Their	-7686
▁camer	-7687
▁chair	-7688
▁academ	-7689
▁incent	-7690
▁England	-7691
▁experts	-7692
▁equipment	-7693
▁alternative	-7694
▁generations	-7695
▁理	-7696
家的	-7697
小说	-7698
成绩	-7699
推广	-7700
擅长	-7701
数以	-7702
沿着	-7703
洞穴	-7704
起源	-7705
icy	-7706
rum	-7707
奇怪的	-7708
运动员	-7709
▁Ben	-7710
▁Rem	-7711
▁tal	-7712
▁2010	-7713
▁ants	-7714
▁wave	-7715
▁compl	-7716
▁coral	-7717
▁layer	-7718
▁surge	-7719
▁sympt	-7720
▁battle	-7721
▁desire	-7722
▁island	-7723
▁illustr	-7724
▁molecule	-7725
▁您	-7726
国会	-7727
土壤	-7728
意外	-7729
懂得	-7730
更为	-7731
格兰	-7732
毕竟	-7733
贸易	-7734
这只	-7735
uff	-7736
▁一切	-7737
不平等	-7738
意义的	-7739
有一种	-7740
这里的	-7741
sing	-7742
▁hun	-7743
▁org	-7744
他们可以	-7745
▁exec	-7746
▁gift	-7747
▁lies	-7748
encies	-7749
▁2,000	-7750
▁Three	-7751
▁categ	-7752
▁daily	-7753
▁lifet	-7754
▁scene	-7755
▁teles	-7756
▁wisdom	-7757
▁100,000	-7758
▁marriage	-7759
▁emissions	-7760
▁hopefully	-7761
▁principle	-7762
▁processes	-7763
之下	-7764
变暖	-7765
品牌	-7766
想像	-7767
构造	-7768
点击	-7769
繁殖	-7770
编辑	-7771
肥胖	-7772
ald	-7773
lph	-7774
▁但他	-7775
▁超过	-7776
▁问题	-7777
主义的	-7778
做到的	-7779
意义上	-7780
有两个	-7781
科医生	-7782
能看到	-7783
apse	-7784
roph	-7785
什么样的	-7786
做的就是	-7787
▁meat	-7788
▁tick	-7789
▁stood	-7790
▁fields	-7791
▁select	-7792
▁nervous	-7793
▁designer	-7794
▁resource	-7795
▁struggle	-7796
▁continent	-7797
▁economics	-7798
▁experienced	-7799
▁四	-7800
促进	-7801
动画	-7802
取代	-7803
形的	-7804
民族	-7805
穷人	-7806
评估	-7807
高速	-7808
黑洞	-7809
hab	-7810
osh	-7811
▁变成	-7812
▁每次	-7813
▁科学	-7814
▁经过	-7815
▁Min	-7816
▁gap	-7817
▁glo	-7818
▁lie	-7819
▁他们都	-7820
estic	-7821
▁Kore	-7822
▁lapt	-7823
▁libr	-7824
发生的事情	-7825
ensity	-7826
▁rural	-7827
▁saved	-7828
▁autism	-7829
▁circle	-7830
▁circum	-7831
▁frustr	-7832
▁gather	-7833
▁motion	-7834
▁picked	-7835
▁Germany	-7836
▁calling	-7837
▁release	-7838
▁warming	-7839
▁expected	-7840
▁sentence	-7841
▁statistics	-7842
▁consumption	-7843
几天	-7844
少数	-7845
巴基	-7846
扩大	-7847
指导	-7848
步骤	-7849
气球	-7850
脑海	-7851
贷款	-7852
鲨鱼	-7853
Hey	-7854
new	-7855
▁ax	-7856
▁主要	-7857
▁女性	-7858
▁用来	-7859
▁重新	-7860
的数量	-7861
iors	-7862
rete	-7863
▁spl	-7864
为什么要	-7865
了我们的	-7866
olves	-7867
place	-7868
▁coal	-7869
▁date	-7870
▁shut	-7871
▁warm	-7872
他们自己的	-7873
▁antib	-7874
▁inner	-7875
▁spoke	-7876
instein	-7877
▁videos	-7878
▁partner	-7879
▁weather	-7880
▁agriculture	-7881
使我	-7882
分配	-7883
发达	-7884
基督	-7885
安装	-7886
延伸	-7887
景象	-7888
每一	-7889
民众	-7890
注射	-7891
融合	-7892
街上	-7893
198	-7894
▁这项	-7895
受害者	-7896
的动物	-7897
的女性	-7898
的观点	-7899
ests	-7900
otic	-7901
▁196	-7902
▁Rep	-7903
▁但是这	-7904
▁所以你	-7905
最喜欢的	-7906
umber	-7907
▁isol	-7908
▁puts	-7909
▁soph	-7910
▁因此我们	-7911
▁Times	-7912
▁round	-7913
▁Darwin	-7914
▁filled	-7915
▁shapes	-7916
▁contain	-7917
▁organic	-7918
▁vehicle	-7919
▁clinical	-7920
▁according	-7921
▁languages	-7922
▁Everything	-7923
▁importance	-7924
▁increasingly	-7925
.'	-7926
gn	-7927
▁过	-7928
个性	-7929
五十	-7930
安排	-7931
小组	-7932
异常	-7933
引导	-7934
更高	-7935
海豚	-7936
礼物	-7937
节奏	-7938
▁想象	-7939
的演讲	-7940
▁poo	-7941
▁但是你	-7942
▁在这些	-7943
▁我只是	-7944
▁AIDS	-7945
▁bits	-7946
▁hadn	-7947
▁rein	-7948
▁weak	-7949
▁wond	-7950
lement	-7951
▁chain	-7952
▁facts	-7953
▁recon	-7954
▁fourth	-7955
▁galaxy	-7956
▁reform	-7957
▁toward	-7958
▁covered	-7959
▁selling	-7960
▁setting	-7961
▁analysis	-7962
▁President	-7963
▁technical	-7964
▁artificial	-7965
▁distribution	-7966
▁transformation	-7967
单一	-7968
吸收	-7969
尔斯	-7970
差距	-7971
当今	-7972
愚蠢	-7973
探讨	-7974
申请	-7975
药品	-7976
诊所	-7977
里有	-7978
克里斯	-7979
学到的	-7980
有能力	-7981
的工具	-7982
认为是	-7983
面临的	-7984
cast	-7985
uses	-7986
vard	-7987
▁Tom	-7988
▁agg	-7989
▁row	-7990
▁所以说	-7991
isher	-7992
print	-7993
▁flat	-7994
▁他们可以	-7995
itness	-7996
osition	-7997
▁symmet	-7998
▁dealing	-7999
▁dynamic	-8000
▁keeping	-8001
▁engineer	-8002
▁property	-8003
▁equivalent	-8004
也很	-8005
几百	-8006
原本	-8007
反映	-8008
国的	-8009
天文	-8010
崩溃	-8011
感官	-8012
昨天	-8013
杀死	-8014
腺癌	-8015
贝尔	-8016
连续	-8017
▁到了	-8018
不断地	-8019
可怕的	-8020
的公司	-8021
经历了	-8022
进行的	-8023
▁没有人	-8024
我的工作	-8025
生物学家	-8026
neath	-8027
▁lawy	-8028
▁vote	-8029
▁wake	-8030
▁其中一个	-8031
▁Kenya	-8032
▁users	-8033
▁movies	-8034
▁thinks	-8035
▁arrived	-8036
▁privile	-8037
▁airplane	-8038
▁reaction	-8039
▁convinced	-8040
▁organized	-8041
▁connections	-8042
三十	-8043
受伤	-8044
房屋	-8045
欣赏	-8046
石头	-8047
och	-8048
▁不能	-8049
个国家	-8050
已经在	-8051
当地的	-8052
有时候	-8053
疾病的	-8054
的话题	-8055
看一下	-8056
cale	-8057
semb	-8058
zing	-8059
因为我们	-8060
巴基斯坦	-8061
▁abst	-8062
▁dial	-8063
▁tall	-8064
▁caused	-8065
▁cameras	-8066
▁factors	-8067
▁universal	-8068
▁yesterday	-8069
▁写	-8070
不少	-8071
可是	-8072
快的	-8073
描绘	-8074
教会	-8075
特点	-8076
贫民	-8077
rim	-8078
▁怎么	-8079
或者是	-8080
达尔文	-8081
领导者	-8082
down	-8083
ogen	-8084
▁sla	-8085
▁第二个	-8086
esome	-8087
▁hide	-8088
▁qual	-8089
▁soul	-8090
ession	-8091
▁heavy	-8092
▁neuro	-8093
▁rates	-8094
▁voices	-8095
▁ordinary	-8096
▁movements	-8097
▁dimensions	-8098
单位	-8099
原来	-8100
替代	-8101
的外	-8102
种类	-8103
min	-8104
▁我问	-8105
▁答案	-8106
一定要	-8107
个人的	-8108
传感器	-8109
有机会	-8110
ocol	-8111
▁我需要	-8112
中的一个	-8113
物理学家	-8114
▁enem	-8115
▁dolph	-8116
▁illeg	-8117
▁prove	-8118
▁sites	-8119
ressive	-8120
▁medium	-8121
▁concern	-8122
▁station	-8123
▁Einstein	-8124
▁requires	-8125
▁collection	-8126
35	-8127
三维	-8128
与人	-8129
体会	-8130
密度	-8131
局限	-8132
微笑	-8133
抽象	-8134
游泳	-8135
解放	-8136
认同	-8137
镜头	-8138
防止	-8139
不是吗	-8140
在座的	-8141
大家都	-8142
意大利	-8143
提供了	-8144
运动的	-8145
That	-8146
sour	-8147
▁nar	-8148
▁是我们	-8149
▁arts	-8150
▁gall	-8151
▁tail	-8152
▁concl	-8153
▁risks	-8154
▁toile	-8155
▁damage	-8156
▁Japanese	-8157
▁feelings	-8158
▁satellite	-8159
▁wondering	-8160
住了	-8161
保险	-8162
处的	-8163
定位	-8164
温室	-8165
讲的	-8166
资助	-8167
那天	-8168
频率	-8169
魔术	-8170
ait	-8171
▁自然	-8172
在那儿	-8173
我们还	-8174
cend	-8175
fish	-8176
life	-8177
mber	-8178
▁god	-8179
▁你就会	-8180
▁就可以	-8181
▁我今天	-8182
▁然后他	-8183
只是一个	-8184
▁Mart	-8185
▁colon	-8186
▁infin	-8187
▁losing	-8188
▁conduct	-8189
▁illness	-8190
▁opening	-8191
▁players	-8192
▁criminal	-8193
▁released	-8194
ym	-8195
▁外	-8196
▁长	-8197
亚洲	-8198
农场	-8199
分之	-8200
却是	-8201
和你	-8202
头发	-8203
拉斯	-8204
探险	-8205
清洁	-8206
爆发	-8207
生素	-8208
白人	-8209
马斯	-8210
▁不论	-8211
病人的	-8212
的未来	-8213
icip	-8214
pret	-8215
▁cow	-8216
▁pil	-8217
▁uns	-8218
▁所以在	-8219
▁有很多	-8220
iency	-8221
itals	-8222
▁Swed	-8223
▁diet	-8224
▁ends	-8225
▁surf	-8226
▁solid	-8227
▁veget	-8228
▁driver	-8229
▁houses	-8230
▁muscle	-8231
▁cutting	-8232
▁killing	-8233
▁messages	-8234
▁intelligent	-8235
ov	-8236
不去	-8237
为你	-8238
学术	-8239
定律	-8240
恰恰	-8241
想过	-8242
战斗	-8243
护士	-8244
显微	-8245
灵魂	-8246
统治	-8247
芯片	-8248
跟踪	-8249
链接	-8250
骨骼	-8251
Don	-8252
▁45	-8253
▁非洲	-8254
也许会	-8255
我们从	-8256
是一位	-8257
离开了	-8258
ikip	-8259
onym	-8260
▁Atl	-8261
▁也可以	-8262
▁它们是	-8263
organ	-8264
▁copy	-8265
▁kick	-8266
ension	-8267
▁cards	-8268
▁estab	-8269
▁signs	-8270
akistan	-8271
▁Amazon	-8272
▁School	-8273
▁explan	-8274
▁neuros	-8275
▁sending	-8276
▁victims	-8277
▁tomorrow	-8278
▁essential	-8279
▁interface	-8280
▁represents	-8281
▁underneath	-8282
▁及	-8283
▁太	-8284
不安	-8285
勇气	-8286
去世	-8287
哈佛	-8288
携带	-8289
种子	-8290
美的	-8291
老人	-8292
讨厌	-8293
设置	-8294
进程	-8295
alt	-8296
▁它在	-8297
▁认为	-8298
▁这对	-8299
不应该	-8300
他们所	-8301
开始了	-8302
成一个	-8303
cipl	-8304
irty	-8305
▁Cam	-8306
▁Int	-8307
变得更加	-8308
的是什么	-8309
这个想法	-8310
erves	-8311
▁blow	-8312
▁然后他们	-8313
acters	-8314
▁perce	-8315
▁deeper	-8316
▁Harvard	-8317
▁appropr	-8318
▁rapidly	-8319
▁reprodu	-8320
▁epidemic	-8321
▁Francisco	-8322
▁characters	-8323
▁electrical	-8324
▁expression	-8325
▁properties	-8326
▁independent	-8327
先进	-8328
内的	-8329
固定	-8330
对比	-8331
性和	-8332
我从	-8333
棒了	-8334
观的	-8335
辐射	-8336
这幅	-8337
▁Qu	-8338
▁不会	-8339
▁假设	-8340
▁里面	-8341
停下来	-8342
的食物	-8343
笔记本	-8344
不是一个	-8345
▁Last	-8346
▁hang	-8347
▁resc	-8348
▁我们如何	-8349
▁我们能够	-8350
▁换句话说	-8351
▁waves	-8352
▁Center	-8353
▁height	-8354
▁malaria	-8355
▁nations	-8356
▁variety	-8357
▁advanced	-8358
▁exchange	-8359
▁whenever	-8360
▁designing	-8361
▁sophistic	-8362
▁inequality	-8363
▁construction	-8364
gl	-8365
uh	-8366
仪式	-8367
写作	-8368
大楼	-8369
姐妹	-8370
对抗	-8371
广场	-8372
得知	-8373
承受	-8374
推特	-8375
植入	-8376
治愈	-8377
火车	-8378
盒子	-8379
课堂	-8380
骨头	-8381
ita	-8382
▁II	-8383
▁我被	-8384
▁把它	-8385
地区的	-8386
摄像机	-8387
起来的	-8388
iend	-8389
▁rat	-8390
▁tow	-8391
▁我一直	-8392
akers	-8393
iques	-8394
▁Ange	-8395
▁auth	-8396
▁reef	-8397
▁valu	-8398
▁broke	-8399
▁chimp	-8400
▁empty	-8401
▁holes	-8402
▁liked	-8403
▁smile	-8404
ikipedia	-8405
▁Britain	-8406
▁battery	-8407
▁promise	-8408
▁Pakistan	-8409
▁trillion	-8410
▁management	-8411
▁intellectual	-8412
▁既	-8413
交换	-8414
停车	-8415
公正	-8416
军事	-8417
协调	-8418
在一	-8419
更大	-8420
oom	-8421
▁无法	-8422
▁笑声	-8423
我没有	-8424
政府的	-8425
更好地	-8426
消失了	-8427
▁Ant	-8428
▁tap	-8429
▁所以这	-8430
▁这一切	-8431
▁gang	-8432
▁snow	-8433
Google	-8434
▁Frank	-8435
▁James	-8436
▁budget	-8437
▁credit	-8438
▁facing	-8439
▁fossil	-8440
▁poetry	-8441
▁prefer	-8442
▁trials	-8443
▁display	-8444
▁emerging	-8445
▁thoughts	-8446
▁carefully	-8447
▁professor	-8448
▁possibilities	-8449
:"	-8450
世上	-8451
乔治	-8452
交互	-8453
体现	-8454
保守	-8455
信心	-8456
分散	-8457
坚信	-8458
小心	-8459
庆祝	-8460
无聊	-8461
棒的	-8462
瑞典	-8463
用在	-8464
罪犯	-8465
而来	-8466
跨越	-8467
运转	-8468
远离	-8469
zed	-8470
▁Mo	-8471
▁一起	-8472
之前的	-8473
几年前	-8474
同情心	-8475
这本书	-8476
aurs	-8477
bble	-8478
osis	-8479
▁Mil	-8480
▁lat	-8481
▁ten	-8482
▁Gree	-8483
▁pure	-8484
▁recy	-8485
▁我们没有	-8486
▁awful	-8487
▁chart	-8488
▁manip	-8489
▁negot	-8490
▁这就是我们	-8491
ulating	-8492
▁Street	-8493
▁sources	-8494
▁exercise	-8495
▁transition	-8496
mm	-8497
▁别	-8498
▁带	-8499
委员	-8500
家长	-8501
岩石	-8502
强的	-8503
整合	-8504
日子	-8505
查德	-8506
波士	-8507
满意	-8508
▁这位	-8509
当他们	-8510
engu	-8511
gets	-8512
▁同样的	-8513
这些事情	-8514
▁flex	-8515
▁hurt	-8516
▁我意识到	-8517
▁Could	-8518
▁advert	-8519
▁capture	-8520
▁microbes	-8521
▁required	-8522
▁gentlemen	-8523
▁specifically	-8524
bl	-8525
rs	-8526
举手	-8527
加哥	-8528
动态	-8529
天空	-8530
扩展	-8531
指挥	-8532
是被	-8533
疼痛	-8534
确信	-8535
编程	-8536
认真	-8537
走出	-8538
阿尔	-8539
uel	-8540
▁75	-8541
▁回到	-8542
▁我曾	-8543
▁相反	-8544
▁这次	-8545
做到了	-8546
存在着	-8547
珊瑚礁	-8548
用一个	-8549
芝加哥	-8550
▁Sim	-8551
▁fal	-8552
▁pip	-8553
▁dots	-8554
意味着什么	-8555
▁former	-8556
▁length	-8557
▁review	-8558
▁Congress	-8559
▁chemistry	-8560
▁effectively	-8561
▁entrepreneurs	-8562
AR	-8563
乐队	-8564
作业	-8565
厕所	-8566
各自	-8567
合物	-8568
她说	-8569
推进	-8570
无关	-8571
旧金	-8572
水中	-8573
法案	-8574
灵活	-8575
繁荣	-8576
脊髓	-8577
蜘蛛	-8578
600	-8579
org	-8580
▁DH	-8581
▁学习	-8582
▁并不	-8583
▁找到	-8584
▁进入	-8585
典型的	-8586
在你的	-8587
女性的	-8588
宇宙中	-8589
旧金山	-8590
是这个	-8591
波士顿	-8592
独特的	-8593
的名字	-8594
科学的	-8595
这么说	-8596
berg	-8597
▁Jew	-8598
▁mer	-8599
▁我看到	-8600
所有人都	-8601
▁maps	-8602
▁remo	-8603
▁Steve	-8604
▁minim	-8605
▁sight	-8606
▁fellow	-8607
▁member	-8608
▁player	-8609
▁Michael	-8610
▁YouTube	-8611
▁depends	-8612
▁details	-8613
▁generate	-8614
▁lifetime	-8615
▁disappear	-8616
▁vulnerable	-8617
▁grandmother	-8618
▁因	-8619
一句	-8620
一大	-8621
一座	-8622
众人	-8623
保罗	-8624
具备	-8625
树木	-8626
活着	-8627
舒服	-8628
越多	-8629
退休	-8630
lom	-8631
rig	-8632
▁医生	-8633
▁有趣	-8634
和一个	-8635
尽可能	-8636
的经历	-8637
cont	-8638
▁Sat	-8639
▁在我的	-8640
▁就好像	-8641
非常感谢	-8642
icago	-8643
▁Phil	-8644
▁evil	-8645
▁user	-8646
▁但事实上	-8647
▁如果他们	-8648
▁这就是我	-8649
▁claim	-8650
itarian	-8651
▁Nigeria	-8652
▁forests	-8653
▁lessons	-8654
▁radical	-8655
▁cultures	-8656
▁graduate	-8657
▁introduce	-8658
▁mountains	-8659
▁producing	-8660
▁profession	-8661
▁relatively	-8662
付出	-8663
冰川	-8664
单独	-8665
史蒂	-8666
哲学	-8667
就被	-8668
接收	-8669
方便	-8670
法则	-8671
牺牲	-8672
疗法	-8673
粮食	-8674
诗歌	-8675
黄金	-8676
150	-8677
▁Gh	-8678
▁它能	-8679
▁有关	-8680
▁都在	-8681
创造出	-8682
太阳系	-8683
将这些	-8684
就像是	-8685
志愿者	-8686
想要的	-8687
olds	-8688
resp	-8689
▁lady	-8690
▁peak	-8691
▁ride	-8692
▁unit	-8693
enture	-8694
stream	-8695
▁honor	-8696
▁ideal	-8697
▁define	-8698
▁consist	-8699
▁circumst	-8700
▁convince	-8701
▁location	-8702
▁chemicals	-8703
▁entertain	-8704
▁foundation	-8705
▁mathematical	-8706
▁发	-8707
两倍	-8708
听过	-8709
命运	-8710
团结	-8711
宣布	-8712
家族	-8713
祖母	-8714
马逊	-8715
bre	-8716
rog	-8717
▁令人	-8718
▁曾经	-8719
▁解决	-8720
之类的	-8721
你必须	-8722
大自然	-8723
形成的	-8724
漂亮的	-8725
的系统	-8726
青少年	-8727
uary	-8728
▁有一天	-8729
一些东西	-8730
oting	-8731
▁1990	-8732
▁chap	-8733
▁pray	-8734
▁我们看到	-8735
▁serve	-8736
▁Canada	-8737
▁fortun	-8738
▁Chicago	-8739
▁engaged	-8740
▁extract	-8741
▁funding	-8742
▁official	-8743
▁techniques	-8744
▁participate	-8745
▁politicians	-8746
▁斯	-8747
利润	-8748
墙上	-8749
帮我	-8750
忘了	-8751
戏剧	-8752
捕捉	-8753
方的	-8754
是用	-8755
栖息	-8756
没错	-8757
监控	-8758
精力	-8759
航空	-8760
hes	-8761
▁地球	-8762
▁都会	-8763
有点像	-8764
有许多	-8765
的朋友	-8766
的目标	-8767
身体的	-8768
abet	-8769
▁phr	-8770
▁我没有	-8771
usive	-8772
▁Alex	-8773
▁cave	-8774
▁unus	-8775
▁Since	-8776
▁buying	-8777
▁formed	-8778
▁centers	-8779
▁corruption	-8780
久的	-8781
他是	-8782
偏见	-8783
厨房	-8784
而易	-8785
自主	-8786
让他	-8787
赢得	-8788
过滤	-8789
采集	-8790
鱼类	-8791
bur	-8792
igm	-8793
▁这么	-8794
古老的	-8795
就这样	-8796
我相信	-8797
站起来	-8798
atin	-8799
hyth	-8800
over	-8801
▁Gal	-8802
▁bul	-8803
▁pal	-8804
▁ped	-8805
▁以至于	-8806
▁它们的	-8807
经济学家	-8808
▁Bank	-8809
▁bare	-8810
▁bill	-8811
▁cure	-8812
▁jail	-8813
▁sees	-8814
▁fewer	-8815
▁goals	-8816
▁grade	-8817
▁grain	-8818
▁teeth	-8819
chnology	-8820
▁accompl	-8821
▁install	-8822
▁mosquit	-8823
▁roughly	-8824
▁encourage	-8825
ss	-8826
▁已	-8827
亿人	-8828
听众	-8829
噪音	-8830
斯的	-8831
焦虑	-8832
视为	-8833
餐厅	-8834
饥饿	-8835
高效	-8836
iat	-8837
iel	-8838
itz	-8839
▁KB	-8840
▁我只	-8841
▁都有	-8842
学到了	-8843
工作者	-8844
幸的是	-8845
建筑物	-8846
我们想	-8847
星球上	-8848
显微镜	-8849
itan	-8850
▁rub	-8851
▁但如果	-8852
三分之一	-8853
就是一个	-8854
lying	-8855
▁bran	-8856
▁liqu	-8857
变得越来越	-8858
▁kitch	-8859
▁metal	-8860
▁occup	-8861
▁pengu	-8862
▁pregn	-8863
▁reven	-8864
▁sweet	-8865
▁assist	-8866
▁thanks	-8867
▁spectrum	-8868
▁valuable	-8869
▁dinosaurs	-8870
▁combination	-8871
65	-8872
▁二	-8873
▁同	-8874
▁打	-8875
▁罗	-8876
三角	-8877
人性	-8878
传达	-8879
后代	-8880
对你	-8881
干净	-8882
扩张	-8883
胜利	-8884
隐私	-8885
fit	-8886
mit	-8887
▁想要	-8888
▁感谢	-8889
从一个	-8890
刚开始	-8891
女士们	-8892
展示的	-8893
本质上	-8894
着我们	-8895
bors	-8896
▁Lad	-8897
▁Los	-8898
▁Yet	-8899
▁dat	-8900
▁lic	-8901
做了一个	-8902
oston	-8903
▁但如果你	-8904
▁我们不能	-8905
ternal	-8906
urance	-8907
▁beach	-8908
▁staff	-8909
▁status	-8910
▁actions	-8911
▁cartoon	-8912
▁courage	-8913
▁encoura	-8914
▁include	-8915
▁primary	-8916
▁invention	-8917
▁protection	-8918
▁真	-8919
不像	-8920
不止	-8921
书籍	-8922
分辨	-8923
午餐	-8924
掌控	-8925
框架	-8926
正义	-8927
热带	-8928
现今	-8929
生涯	-8930
自豪	-8931
至关	-8932
试试	-8933
起的	-8934
转向	-8935
风格	-8936
▁知道	-8937
▁这儿	-8938
不会有	-8939
创造的	-8940
因为它	-8941
我需要	-8942
找到的	-8943
正常的	-8944
类型的	-8945
▁Rob	-8946
还有一个	-8947
▁desk	-8948
▁inev	-8949
▁nose	-8950
▁obser	-8951
▁pitch	-8952
▁refer	-8953
mission	-8954
▁bottle	-8955
▁forgot	-8956
▁however	-8957
▁outcome	-8958
▁consumer	-8959
▁disaster	-8960
▁establish	-8961
▁hospitals	-8962
▁molecular	-8963
▁convention	-8964
▁discussion	-8965
▁situations	-8966
▁evolutionary	-8967
▁manufacturing	-8968
:”	-8969
▁仅	-8970
三种	-8971
作者	-8972
保障	-8973
北部	-8974
印刷	-8975
屠杀	-8976
强迫	-8977
战略	-8978
椅子	-8979
法官	-8980
目睹	-8981
经营	-8982
赚钱	-8983
非凡	-8984
bed	-8985
▁导致	-8986
▁生命	-8987
环境中	-8988
的基础	-8989
▁Ber	-8990
▁这里是	-8991
创造一个	-8992
我们发现	-8993
我们的生活	-8994
▁hyper	-8995
▁shall	-8996
▁sides	-8997
▁season	-8998
▁sharks	-8999
▁vaccine	-9000
abilities	-9001
▁increased	-9002
▁instrument	-9003
3.	-9004
CA	-9005
Do	-9006
▁问	-9007
一部	-9008
上来	-9009
以外	-9010
伯特	-9011
关闭	-9012
协议	-9013
燃烧	-9014
百科	-9015
蝙蝠	-9016
身处	-9017
部件	-9018
鸟类	-9019
log	-9020
▁要么	-9021
▁试图	-9022
加拿大	-9023
完整的	-9024
遇到了	-9025
▁Bro	-9026
▁Dep	-9027
▁san	-9028
▁我曾经	-9029
▁而这个	-9030
最后一个	-9031
越来越多	-9032
▁grid	-9033
▁myst	-9034
▁它是一个	-9035
porary	-9036
▁flies	-9037
▁sugar	-9038
▁analog	-9039
▁assign	-9040
▁blocks	-9041
▁compar	-9042
▁drives	-9043
▁affected	-9044
▁carrying	-9045
▁symptoms	-9046
▁Institute	-9047
▁interests	-9048
▁worldwide	-9049
▁definitely	-9050
▁potentially	-9051
▁environments	-9052
一本	-9053
三年	-9054
你不	-9055
劳动	-9056
含义	-9057
巴马	-9058
拿出	-9059
深深	-9060
睡觉	-9061
美妙	-9062
脑袋	-9063
花粉	-9064
野生	-9065
钢琴	-9066
ham	-9067
oca	-9068
▁那种	-9069
中的一	-9070
人们在	-9071
你就会	-9072
准备好	-9073
普通的	-9074
进化的	-9075
pher	-9076
▁CEO	-9077
▁Dem	-9078
▁ens	-9079
不可能的	-9080
我们开始	-9081
etics	-9082
▁Coll	-9083
▁shad	-9084
▁你可能会	-9085
▁Women	-9086
▁added	-9087
▁Anyway	-9088
▁Boston	-9089
▁iPhone	-9090
▁winter	-9091
▁applied	-9092
▁opinion	-9093
▁regions	-9094
▁behaviors	-9095
▁generally	-9096
▁interpret	-9097
▁neighbors	-9098
▁components	-9099
▁introduced	-9100
▁restaurant	-9101
众多	-9102
做好	-9103
共和	-9104
分类	-9105
回忆	-9106
大会	-9107
孤独	-9108
敌人	-9109
查看	-9110
歧视	-9111
河流	-9112
理工	-9113
网页	-9114
讲话	-9115
边界	-9116
部位	-9117
部队	-9118
▁音乐	-9119
出现的	-9120
委员会	-9121
我一直	-9122
的就是	-9123
美元的	-9124
what	-9125
anish	-9126
ended	-9127
icing	-9128
▁decl	-9129
▁runs	-9130
▁spin	-9131
▁tank	-9132
▁thin	-9133
▁不仅仅是	-9134
▁这是我的	-9135
olving	-9136
▁Islam	-9137
▁horse	-9138
▁input	-9139
▁arrest	-9140
▁mirror	-9141
▁pulled	-9142
▁mistake	-9143
▁reached	-9144
▁viruses	-9145
▁maintain	-9146
▁password	-9147
▁prepared	-9148
▁awareness	-9149
▁radiation	-9150
▁typically	-9151
ta	-9152
▁光	-9153
一想	-9154
安静	-9155
将是	-9156
心灵	-9157
悲剧	-9158
掌声	-9159
有限	-9160
本地	-9161
模糊	-9162
水的	-9163
液体	-9164
炸弹	-9165
爱情	-9166
的光	-9167
规定	-9168
证实	-9169
说了	-9170
质疑	-9171
跟你	-9172
这两	-9173
飞船	-9174
can	-9175
oly	-9176
rat	-9177
spe	-9178
▁似乎	-9179
▁我来	-9180
▁相信	-9181
▁这时	-9182
可以用	-9183
和他们	-9184
和他的	-9185
困难的	-9186
大脑中	-9187
太棒了	-9188
把自己	-9189
时代的	-9190
的一面	-9191
第三个	-9192
iano	-9193
▁Tur	-9194
▁bee	-9195
▁rom	-9196
▁我非常	-9197
现在我们	-9198
的过程中	-9199
vable	-9200
▁1980	-9201
▁lect	-9202
▁ment	-9203
▁你们知道	-9204
▁atoms	-9205
▁goods	-9206
▁keeps	-9207
▁steel	-9208
▁trend	-9209
▁Muslim	-9210
▁factor	-9211
▁option	-9212
▁worlds	-9213
▁attacks	-9214
▁illegal	-9215
▁unusual	-9216
▁existing	-9217
▁recorded	-9218
▁employees	-9219
▁traveling	-9220
▁conversations	-9221
▁sophisticated	-9222
了的	-9223
事故	-9224
写了	-9225
周期	-9226
圣经	-9227
多久	-9228
界面	-9229
皮层	-9230
降落	-9231
▁ju	-9232
▁我所	-9233
▁此外	-9234
不错的	-9235
优秀的	-9236
其它的	-9237
想象的	-9238
的历史	-9239
着一个	-9240
uits	-9241
▁Mic	-9242
▁nav	-9243
▁几年前	-9244
▁有一些	-9245
科学家们	-9246
point	-9247
▁Part	-9248
▁dogs	-9249
▁fert	-9250
friend	-9251
▁cyber	-9252
▁estim	-9253
▁bubble	-9254
▁regard	-9255
▁sample	-9256
▁kitchen	-9257
▁rational	-9258
▁newspaper	-9259
▁meaningful	-9260
▁conservation	-9261
▁fundamentally	-9262
Sh	-9263
ih	-9264
▁五	-9265
▁埃	-9266
。。	-9267
万个	-9268
以上	-9269
会是	-9270
做些	-9271
否则	-9272
圣诞	-9273
学者	-9274
尺寸	-9275
放进	-9276
毁灭	-9277
生成	-9278
编码	-9279
花园	-9280
车的	-9281
雨林	-9282
非法	-9283
顺利	-9284
▁US	-9285
▁了解	-9286
▁得到	-9287
对这个	-9288
房间里	-9289
现有的	-9290
给我的	-9291
这是我	-9292
omas	-9293
▁bow	-9294
实际上是	-9295
建立一个	-9296
aters	-9297
eline	-9298
ework	-9299
▁lift	-9300
▁每个人都	-9301
▁notes	-9302
▁shame	-9303
▁France	-9304
▁conver	-9305
▁ingred	-9306
▁organs	-9307
▁severe	-9308
▁spring	-9309
▁feature	-9310
▁operate	-9311
▁protected	-9312
▁innovative	-9313
▁personally	-9314
▁physically	-9315
▁中	-9316
▁出	-9317
▁重	-9318
加拉	-9319
告知	-9320
多种	-9321
惩罚	-9322
抗议	-9323
拉丁	-9324
有两	-9325
板上	-9326
渐渐	-9327
见了	-9328
通讯	-9329
顾客	-9330
▁在座	-9331
▁那就	-9332
信息的	-9333
先生们	-9334
前所未	-9335
实现的	-9336
的运动	-9337
的那个	-9338
cred	-9339
whel	-9340
▁GPS	-9341
▁Mon	-9342
▁dip	-9343
因为他们	-9344
大家分享	-9345
联系起来	-9346
abled	-9347
▁Four	-9348
▁acqu	-9349
▁impl	-9350
▁reci	-9351
▁ring	-9352
▁vert	-9353
▁我是一个	-9354
▁所以我想	-9355
▁那么我们	-9356
angers	-9357
father	-9358
▁false	-9359
▁renew	-9360
▁topic	-9361
▁liquid	-9362
▁perman	-9363
▁senses	-9364
▁empathy	-9365
▁fishing	-9366
▁harvest	-9367
▁quarter	-9368
▁hydrogen	-9369
▁stronger	-9370
▁framework	-9371
▁providing	-9372
▁activities	-9373
▁卡	-9374
做成	-9375
反复	-9376
在想	-9377
大象	-9378
字典	-9379
序列	-9380
惊人	-9381
消除	-9382
深处	-9383
激素	-9384
玩家	-9385
的开	-9386
英文	-9387
要去	-9388
词汇	-9389
负担	-9390
跟着	-9391
重的	-9392
/11	-9393
ola	-9394
▁有点	-9395
事物的	-9396
危险的	-9397
和你们	-9398
我喜欢	-9399
把我们	-9400
aren	-9401
elly	-9402
ifth	-9403
mers	-9404
▁adj	-9405
▁que	-9406
只有一个	-9407
毫无疑问	-9408
▁biom	-9409
▁如果你想	-9410
▁dedic	-9411
▁horiz	-9412
▁desper	-9413
▁scared	-9414
▁sphere	-9415
▁Charles	-9416
▁Perhaps	-9417
▁awesome	-9418
▁gravity	-9419
▁abstract	-9420
▁ultimate	-9421
▁mechanism	-9422
▁mortality	-9423
▁naturally	-9424
▁practical	-9425
▁destruction	-9426
26	-9427
GO	-9428
▁受	-9429
▁奥	-9430
体制	-9431
区的	-9432
向前	-9433
场所	-9434
多年	-9435
天堂	-9436
天气	-9437
广播	-9438
心里	-9439
我被	-9440
沉默	-9441
理性	-9442
的几	-9443
竟然	-9444
雇佣	-9445
cal	-9446
▁一般	-9447
▁城市	-9448
▁尝试	-9449
▁看着	-9450
下一代	-9451
不断的	-9452
世界里	-9453
你不能	-9454
倾向于	-9455
屏幕上	-9456
找不到	-9457
指的是	-9458
的作品	-9459
gged	-9460
hips	-9461
ront	-9462
▁Art	-9463
▁这只是	-9464
▁Mont	-9465
▁pair	-9466
▁plus	-9467
▁aging	-9468
▁coord	-9469
▁doubt	-9470
▁tumor	-9471
▁Russia	-9472
▁Valley	-9473
▁clever	-9474
▁joined	-9475
▁empower	-9476
▁remains	-9477
▁equality	-9478
▁features	-9479
▁pleasure	-9480
▁transfer	-9481
▁vehicles	-9482
▁pollution	-9483
▁democratic	-9484
8.	-9485
BM	-9486
▁。	-9487
▁据	-9488
一千	-9489
为人	-9490
们的	-9491
体育	-9492
作物	-9493
利福	-9494
国内	-9495
在他	-9496
始终	-9497
威尔	-9498
学科	-9499
宝宝	-9500
就不	-9501
开了	-9502
明天	-9503
概率	-9504
海底	-9505
源于	-9506
眼镜	-9507
组装	-9508
缺陷	-9509
膨胀	-9510
莱坞	-9511
融入	-9512
街头	-9513
观测	-9514
讽刺	-9515
遵循	-9516
魅力	-9517
鲸鱼	-9518
uls	-9519
▁随后	-9520
创新的	-9521
自身的	-9522
让大家	-9523
领域的	-9524
Look	-9525
opia	-9526
umps	-9527
▁cha	-9528
▁eld	-9529
▁wel	-9530
心理学家	-9531
改变世界	-9532
gment	-9533
retch	-9534
▁clip	-9535
▁eggs	-9536
▁hits	-9537
▁hung	-9538
▁mira	-9539
▁suit	-9540
▁Other	-9541
▁auton	-9542
▁curve	-9543
▁satis	-9544
▁storm	-9545
▁toxic	-9546
▁replic	-9547
▁solved	-9548
▁figures	-9549
▁antibiot	-9550
▁apparent	-9551
▁overwhel	-9552
▁algorithms	-9553
▁processing	-9554
▁productive	-9555
▁inspiration	-9556
▁collaboration	-9557
▁technological	-9558
▁十	-9559
▁哪	-9560
令我	-9561
克服	-9562
克林	-9563
姆斯	-9564
干预	-9565
形容	-9566
成熟	-9567
染色	-9568
欺骗	-9569
的路	-9570
祈祷	-9571
立即	-9572
线上	-9573
追溯	-9574
umn	-9575
ums	-9576
▁在此	-9577
形成了	-9578
的反应	-9579
领导人	-9580
▁Jer	-9581
▁asp	-9582
▁mak	-9583
▁你不能	-9584
▁我必须	-9585
恐怖分子	-9586
还有很多	-9587
▁1960	-9588
▁Also	-9589
▁drag	-9590
▁mile	-9591
▁举个例子	-9592
▁这是因为	-9593
▁Paris	-9594
▁While	-9595
▁ought	-9596
▁Nobody	-9597
▁aftern	-9598
▁hoping	-9599
▁amounts	-9600
▁privacy	-9601
▁dramatic	-9602
▁internal	-9603
▁policies	-9604
▁relevant	-9605
▁ancestors	-9606
▁computing	-9607
▁efficiency	-9608
My	-9609
▁起	-9610
两次	-9611
前往	-9612
双手	-9613
完善	-9614
成像	-9615
整整	-9616
生日	-9617
相连	-9618
美分	-9619
脂肪	-9620
自信	-9621
走路	-9622
页面	-9623
鼓舞	-9624
ete	-9625
que	-9626
xim	-9627
▁Ac	-9628
▁BF	-9629
▁即便	-9630
▁如此	-9631
▁有个	-9632
中心的	-9633
他们就	-9634
参与到	-9635
我发现	-9636
类似于	-9637
聪明的	-9638
陌生人	-9639
非常好	-9640
高尔夫	-9641
gent	-9642
ingu	-9643
▁anx	-9644
▁mel	-9645
▁rig	-9646
▁sen	-9647
▁他们有	-9648
▁是关于	-9649
他们自己	-9650
经济增长	-9651
enced	-9652
orous	-9653
▁Port	-9654
▁Talk	-9655
▁hunt	-9656
▁wars	-9657
▁不幸的是	-9658
▁这张照片	-9659
isters	-9660
▁clock	-9661
▁lying	-9662
▁songs	-9663
eration	-9664
▁cortex	-9665
▁driven	-9666
▁garden	-9667
▁sports	-9668
▁clothes	-9669
▁dropped	-9670
▁singing	-9671
▁concrete	-9672
▁election	-9673
▁printing	-9674
▁authority	-9675
▁collected	-9676
▁passionate	-9677
▁perception	-9678
▁underwater	-9679
▁photographs	-9680
)。	-9681
乐器	-9682
人心	-9683
外交	-9684
外星	-9685
所说	-9686
时报	-9687
点的	-9688
白色	-9689
绝望	-9690
耳朵	-9691
聊天	-9692
行了	-9693
设立	-9694
货币	-9695
过于	-9696
▁在你	-9697
世界中	-9698
他人的	-9699
是多么	-9700
糟糕的	-9701
说什么	-9702
asks	-9703
olic	-9704
oons	-9705
▁600	-9706
▁Jim	-9707
▁Pac	-9708
▁toy	-9709
任何地方	-9710
night	-9711
▁Mark	-9712
▁diam	-9713
▁joke	-9714
会发生什么	-9715
▁3,000	-9716
▁frame	-9717
▁polar	-9718
▁church	-9719
▁fisher	-9720
▁puzzle	-9721
▁studio	-9722
▁survey	-9723
▁housing	-9724
▁visible	-9725
▁witness	-9726
▁confront	-9727
▁functions	-9728
BI	-9729
▁若	-9730
你看	-9731
剩下	-9732
发送	-9733
变为	-9734
司机	-9735
康复	-9736
感应	-9737
瑞士	-9738
统一	-9739
自杀	-9740
见证	-9741
遗憾	-9742
阻碍	-9743
随时	-9744
首次	-9745
den	-9746
▁政治	-9747
▁网络	-9748
▁这在	-9749
不确定	-9750
个孩子	-9751
制作的	-9752
剩下的	-9753
它们是	-9754
物理学	-9755
用这个	-9756
的主题	-9757
自然界	-9758
well	-9759
▁Air	-9760
▁Day	-9761
▁Jan	-9762
▁spo	-9763
▁他们也	-9764
▁因此我	-9765
▁而且我	-9766
▁而现在	-9767
▁要知道	-9768
我们没有	-9769
资本主义	-9770
▁cast	-9771
▁cere	-9772
▁lens	-9773
▁nurs	-9774
▁subs	-9775
▁tape	-9776
是什么样的	-9777
难以置信的	-9778
▁skill	-9779
▁tests	-9780
▁acting	-9781
▁fabric	-9782
ollywood	-9783
▁equally	-9784
▁musical	-9785
▁tonight	-9786
▁afternoon	-9787
▁narrative	-9788
▁operation	-9789
▁literature	-9790
▁surrounded	-9791
▁transportation	-9792
27	-9793
▁且	-9794
▁主	-9795
▁叫	-9796
乐趣	-9797
使你	-9798
哈拉	-9799
困境	-9800
增强	-9801
幽默	-9802
度过	-9803
引用	-9804
挣扎	-9805
月份	-9806
权威	-9807
构成	-9808
正好	-9809
福利	-9810
算是	-9811
计的	-9812
遭遇	-9813
重量	-9814
集团	-9815
▁23	-9816
▁数据	-9817
▁生物	-9818
在印度	-9819
干什么	-9820
意识的	-9821
明白了	-9822
有意义	-9823
的区域	-9824
绿色的	-9825
讲故事	-9826
ault	-9827
▁Pol	-9828
▁在过去	-9829
▁就这样	-9830
任何东西	-9831
▁Adam	-9832
▁Mary	-9833
▁mere	-9834
▁scar	-9835
世界各地的	-9836
▁domin	-9837
▁score	-9838
▁thick	-9839
inction	-9840
itution	-9841
▁Project	-9842
▁breathe	-9843
▁fingers	-9844
▁intense	-9845
▁largely	-9846
▁unknown	-9847
▁swimming	-9848
▁explained	-9849
▁terrorism	-9850
▁challenging	-9851
▁分	-9852
上下	-9853
为我	-9854
共有	-9855
台上	-9856
在此	-9857
玩意	-9858
窗户	-9859
荧光	-9860
box	-9861
isl	-9862
回到了	-9863
已经有	-9864
张照片	-9865
想象力	-9866
的一天	-9867
的事件	-9868
的人的	-9869
的方向	-9870
科技的	-9871
篇文章	-9872
蓝色的	-9873
跟你们	-9874
anta	-9875
▁Five	-9876
▁Stan	-9877
▁club	-9878
▁diss	-9879
▁load	-9880
▁milk	-9881
arrass	-9882
▁State	-9883
▁initi	-9884
▁navig	-9885
▁ridic	-9886
▁advice	-9887
▁agreed	-9888
▁critic	-9889
▁parall	-9890
▁remove	-9891
▁tested	-9892
▁younger	-9893
▁infected	-9894
▁memories	-9895
▁mistakes	-9896
▁organism	-9897
▁psychology	-9898
▁applications	-9899
》,	-9900
传输	-9901
偶然	-9902
公寓	-9903
刚果	-9904
南部	-9905
去过	-9906
反射	-9907
变异	-9908
在线	-9909
巴黎	-9910
悲伤	-9911
意料	-9912
抱怨	-9913
收获	-9914
是对	-9915
环绕	-9916
病的	-9917
眼前	-9918
管道	-9919
And	-9920
sem	-9921
▁Ma	-9922
▁也有	-9923
又一次	-9924
我们把	-9925
最重要	-9926
根本上	-9927
的不同	-9928
选择的	-9929
▁Jul	-9930
▁Spe	-9931
▁Unf	-9932
▁不仅仅	-9933
并不知道	-9934
我们认为	-9935
永远不会	-9936
scale	-9937
▁bath	-9938
▁horm	-9939
▁chose	-9940
▁dress	-9941
解决这个问题	-9942
▁Health	-9943
▁Thomas	-9944
▁handle	-9945
▁worker	-9946
▁chicken	-9947
▁combine	-9948
▁command	-9949
▁discipl	-9950
▁falling	-9951
▁nowhere	-9952
▁silence	-9953
▁accurate	-9954
▁contrast	-9955
▁occurred	-9956
▁sunlight	-9957
▁wireless	-9958
▁circumstances	-9959
ET	-9960
上一	-9961
仿佛	-9962
假如	-9963
储存	-9964
公路	-9965
农村	-9966
参观	-9967
四处	-9968
地震	-9969
媒介	-9970
家乡	-9971
底部	-9972
折叠	-9973
抱歉	-9974
有过	-9975
海报	-9976
灯泡	-9977
留在	-9978
监视	-9979
类型	-9980
结尾	-9981
航天	-9982
荷兰	-9983
遍布	-9984
错的	-9985
ias	-9986
mas	-9987
▁关键	-9988
▁故事	-9989
▁新的	-9990
专注于	-9991
到一起	-9992
它可以	-9993
微小的	-9994
比如说	-9995
的形式	-9996
谢谢你	-9997
那时候	-9998
foot	-9999
roso	-10000
▁Eth	-10001
▁Med	-10002
▁也不是	-10003
▁然后再	-10004
一个非常	-10005
其他地方	-10006
▁obst	-10007
▁orch	-10008
▁outc	-10009
▁与此同时	-10010
Americ	-10011
▁taste	-10012
▁boring	-10013
▁deaths	-10014
▁rocket	-10015
▁stayed	-10016
cription	-10017
▁borders	-10018
▁defined	-10019
▁fiction	-10020
▁options	-10021
▁records	-10022
▁sensors	-10023
▁violent	-10024
▁horrible	-10025
▁proteins	-10026
▁embarrass	-10027
▁confidence	-10028
▁Unfortunately	-10029
75	-10030
BC	-10031
MA	-10032
▁男	-10033
产物	-10034
区分	-10035
即兴	-10036
可行	-10037
喜剧	-10038
好好	-10039
我得	-10040
气味	-10041
确认	-10042
老板	-10043
舒适	-10044
访问	-10045
足以	-10046
面部	-10047
万年前	-10048
可行的	-10049
影响力	-10050
心理学	-10051
想一下	-10052
成功了	-10053
抗生素	-10054
的作用	-10055
系统中	-10056
这也是	-10057
▁250	-10058
▁Mal	-10059
伊斯兰教	-10060
我们正在	-10061
是我们的	-10062
being	-10063
icide	-10064
itual	-10065
nding	-10066
▁June	-10067
▁bicy	-10068
▁busy	-10069
▁wine	-10070
illing	-10071
ounced	-10072
▁plate	-10073
▁uncom	-10074
▁upper	-10075
▁border	-10076
▁deploy	-10077
▁reject	-10078
▁comment	-10079
▁cooking	-10080
▁combined	-10081
▁download	-10082
▁implement	-10083
▁sensitive	-10084
▁appreciate	-10085
▁conclusion	-10086
▁percentage	-10087
22	-10088
za	-10089
▁布	-10090
▁本	-10091
一幅	-10092
也没	-10093
乡村	-10094
借助	-10095
公布	-10096
几千	-10097
土耳	-10098
大了	-10099
天花	-10100
太平	-10101
实时	-10102
平常	-10103
按钮	-10104
收益	-10105
月球	-10106
独特	-10107
纪念	-10108
绘画	-10109
调节	-10110
酒店	-10111
革新	-10112
mal	-10113
nam	-10114
ula	-10115
▁Em	-10116
▁La	-10117
▁["	-10118
▁原因	-10119
▁宇宙	-10120
▁时间	-10121
▁用于	-10122
▁这会	-10123
使用了	-10124
土耳其	-10125
多少人	-10126
摄影师	-10127
数学家	-10128
精神病	-10129
良好的	-10130
▁195	-10131
▁Bab	-10132
▁Law	-10133
▁Rev	-10134
▁然后在	-10135
哺乳动物	-10136
幸运的是	-10137
这样的人	-10138
itors	-10139
▁Come	-10140
▁Only	-10141
▁Sept	-10142
▁cord	-10143
▁fake	-10144
▁flew	-10145
▁trig	-10146
▁zone	-10147
iosity	-10148
▁Obama	-10149
▁angry	-10150
▁depth	-10151
▁hotel	-10152
▁prime	-10153
▁roads	-10154
▁split	-10155
▁theme	-10156
▁Robert	-10157
▁button	-10158
▁contem	-10159
aneously	-10160
▁evening	-10161
▁constant	-10162
▁somewhat	-10163
▁tracking	-10164
▁Something	-10165
▁constrain	-10166
▁selection	-10167
▁greenhouse	-10168
▁presentation	-10169
23	-10170
了它	-10171
体重	-10172
占据	-10173
可爱	-10174
失望	-10175
批评	-10176
捐赠	-10177
排列	-10178
摧毁	-10179
最佳	-10180
服用	-10181
机遇	-10182
独自	-10183
玉米	-10184
的手	-10185
的说	-10186
联盟	-10187
评价	-10188
详细	-10189
车祸	-10190
迈克	-10191
agn	-10192
▁他会	-10193
▁继续	-10194
出来了	-10195
就没有	-10196
很可能	-10197
神奇的	-10198
适用于	-10199
adic	-10200
▁dot	-10201
▁gut	-10202
▁并没有	-10203
▁第一次	-10204
一个新的	-10205
世界上的	-10206
lines	-10207
stand	-10208
▁item	-10209
▁pool	-10210
source	-10211
▁House	-10212
▁cents	-10213
▁dynam	-10214
▁resil	-10215
▁rooms	-10216
▁assume	-10217
▁volume	-10218
▁closely	-10219
▁electro	-10220
▁parking	-10221
▁reverse	-10222
▁suppose	-10223
▁presence	-10224
▁September	-10225
▁statement	-10226
▁resistance	-10227
▁sustainability	-10228
▁简	-10229
一套	-10230
下午	-10231
之类	-10232
使命	-10233
创伤	-10234
势力	-10235
勇敢	-10236
囚犯	-10237
图形	-10238
巧克	-10239
年中	-10240
年间	-10241
很不	-10242
怀孕	-10243
我来	-10244
无比	-10245
机场	-10246
某人	-10247
种种	-10248
队伍	-10249
fin	-10250
▁一天	-10251
▁你是	-10252
▁决定	-10253
▁怎样	-10254
▁生活	-10255
▁的确	-10256
▁英国	-10257
与我们	-10258
亚马逊	-10259
会怎样	-10260
全球化	-10261
减少了	-10262
同时也	-10263
庞大的	-10264
拍摄的	-10265
的大小	-10266
的存在	-10267
的结构	-10268
让自己	-10269
heim	-10270
onds	-10271
▁但现在	-10272
▁很明显	-10273
发生什么	-10274
爱因斯坦	-10275
▁glam	-10276
▁loud	-10277
▁mice	-10278
▁zoom	-10279
▁有趣的是	-10280
是什么样子	-10281
herent	-10282
making	-10283
▁absor	-10284
▁fixed	-10285
▁recom	-10286
▁rocks	-10287
▁Number	-10288
▁flower	-10289
▁laptop	-10290
▁suffer	-10291
onscious	-10292
▁Angeles	-10293
▁advance	-10294
▁overall	-10295
▁allowing	-10296
▁birthday	-10297
▁Wikipedia	-10298
▁determine	-10299
▁marketing	-10300
▁capitalism	-10301
▁controlled	-10302
▁explanation	-10303
▁psychological	-10304
SP	-10305
dr	-10306
uk	-10307
▁六	-10308
▁特	-10309
下载	-10310
与众	-10311
人数	-10312
何时	-10313
例外	-10314
做个	-10315
写着	-10316
原型	-10317
啤酒	-10318
好玩	-10319
抵抗	-10320
欲望	-10321
的钱	-10322
神话	-10323
隔离	-10324
风暴	-10325
GDP	-10326
ari	-10327
▁不再	-10328
▁带着	-10329
▁未来	-10330
中国的	-10331
代表着	-10332
但是我	-10333
做这些	-10334
红色的	-10335
英里的	-10336
遇到的	-10337
Yeah	-10338
ille	-10339
xide	-10340
▁Sam	-10341
▁bes	-10342
▁这里有	-10343
▁这里的	-10344
▁顺便说	-10345
一个例子	-10346
一种新的	-10347
利福尼亚	-10348
的可能性	-10349
ingly	-10350
▁barr	-10351
▁clus	-10352
▁sets	-10353
▁但是如果	-10354
越来越多的	-10355
owered	-10356
▁bones	-10357
▁datab	-10358
▁faced	-10359
▁films	-10360
▁flood	-10361
▁label	-10362
▁multi	-10363
▁Global	-10364
▁attend	-10365
▁inject	-10366
▁patent	-10367
▁signed	-10368
▁string	-10369
▁administ	-10370
▁provided	-10371
▁laboratory	-10372
▁appropriate	-10373
MS	-10374
▁则	-10375
▁噢	-10376
▁拿	-10377
一同	-10378
争取	-10379
又是	-10380
困扰	-10381
天才	-10382
对了	-10383
应的	-10384
我都	-10385
振奋	-10386
放入	-10387
数千	-10388
水下	-10389
法庭	-10390
电路	-10391
碰到	-10392
糖尿	-10393
聚会	-10394
nda	-10395
vey	-10396
vis	-10397
▁Fe	-10398
▁以便	-10399
▁基于	-10400
▁并在	-10401
▁当他	-10402
▁没人	-10403
▁科技	-10404
的生命	-10405
结束了	-10406
长时间	-10407
aser	-10408
ctic	-10409
look	-10410
▁但是它	-10411
▁我真的	-10412
▁所以他	-10413
▁那时候	-10414
什么东西	-10415
很有意思	-10416
恐怖主义	-10417
找到一个	-10418
来到这里	-10419
的人来说	-10420
这些信息	-10421
entic	-10422
iture	-10423
sters	-10424
▁1970	-10425
▁bell	-10426
▁cock	-10427
▁pump	-10428
非常重要的	-10429
asters	-10430
▁5,000	-10431
▁Apple	-10432
▁abuse	-10433
▁frank	-10434
▁unexp	-10435
▁Before	-10436
▁divide	-10437
▁Science	-10438
▁burning	-10439
▁receive	-10440
▁therapy	-10441
▁hypothes	-10442
▁subjects	-10443
▁centuries	-10444
▁exploration	-10445
Is	-10446
▁女	-10447
▁手	-10448
▁时	-10449
代谢	-10450
众笑	-10451
你也	-10452
创立	-10453
到来	-10454
帮忙	-10455
开启	-10456
打击	-10457
提议	-10458
无数	-10459
满了	-10460
演出	-10461
爱好	-10462
笑话	-10463
经典	-10464
荣幸	-10465
走上	-10466
800	-10467
But	-10468
ani	-10469
omo	-10470
▁Gl	-10471
▁Sa	-10472
▁今年	-10473
▁你得	-10474
▁其次	-10475
▁国家	-10476
▁平均	-10477
▁是我	-10478
▁是由	-10479
了下来	-10480
可以被	-10481
合适的	-10482
向大家	-10483
我还是	-10484
给了我	-10485
rows	-10486
▁ack	-10487
▁bat	-10488
▁meg	-10489
▁就像是	-10490
▁甚至是	-10491
实验室里	-10492
的重要性	-10493
给我们的	-10494
belie	-10495
▁1950	-10496
▁cosm	-10497
▁elev	-10498
▁furn	-10499
▁grab	-10500
▁pill	-10501
▁silk	-10502
▁wash	-10503
▁Count	-10504
▁Found	-10505
▁Mount	-10506
▁boxes	-10507
▁guide	-10508
▁march	-10509
▁teams	-10510
▁ladies	-10511
▁marine	-10512
▁Pacific	-10513
▁causing	-10514
▁channel	-10515
▁circuit	-10516
▁solving	-10517
▁vessels	-10518
▁measured	-10519
▁outcomes	-10520
▁villages	-10521
▁emergency	-10522
),	-10523
7.	-10524
。(	-10525
》。	-10526
一把	-10527
一来	-10528
亲密	-10529
今晚	-10530
休息	-10531
口袋	-10532
句子	-10533
只会	-10534
可见	-10535
向我	-10536
含有	-10537
尽量	-10538
我又	-10539
折磨	-10540
碎片	-10541
群岛	-10542
跳舞	-10543
轻松	-10544
鼻子	-10545
nic	-10546
ups	-10547
▁Ke	-10548
▁到底	-10549
▁在他	-10550
▁相比	-10551
一定会	-10552
就不会	-10553
教育的	-10554
显而易	-10555
的地区	-10556
的能量	-10557
研究中	-10558
贫民窟	-10559
erge	-10560
▁Pan	-10561
▁Sil	-10562
▁hur	-10563
▁pin	-10564
▁我不会	-10565
年的时间	-10566
我们不能	-10567
arant	-10568
uting	-10569
▁Jeff	-10570
▁disg	-10571
▁ears	-10572
▁hook	-10573
▁在我们的	-10574
完全不同的	-10575
amples	-10576
▁plans	-10577
▁stone	-10578
▁weigh	-10579
▁ritual	-10580
▁struck	-10581
▁balloon	-10582
▁diction	-10583
▁existed	-10584
▁pushing	-10585
▁transpl	-10586
▁collapse	-10587
▁creature	-10588
▁suggests	-10589
▁wondered	-10590
ologically	-10591
▁customers	-10592
▁spiritual	-10593
▁mathematic	-10594
▁unexpected	-10595
Be	-10596
ka	-10597
▁于	-10598
决心	-10599
凌晨	-10600
匹配	-10601
喜爱	-10602
夜晚	-10603
存储	-10604
它能	-10605
工资	-10606
意的	-10607
感激	-10608
拥抱	-10609
有用	-10610
残疾	-10611
猜测	-10612
用到	-10613
的不	-10614
童年	-10615
约会	-10616
缓慢	-10617
缩小	-10618
许可	-10619
过度	-10620
道的	-10621
部长	-10622
黄色	-10623
不是很	-10624
主要的	-10625
太平洋	-10626
年之后	-10627
想到的	-10628
更容易	-10629
的实验	-10630
的建筑	-10631
的科学	-10632
跟我说	-10633
运作的	-10634
2010	-10635
omic	-10636
▁10,	-10637
▁Cap	-10638
▁Che	-10639
▁Haw	-10640
▁mad	-10641
▁所以当	-10642
▁这个是	-10643
你知道吗	-10644
可以通过	-10645
eness	-10646
▁infl	-10647
▁我们甚至	-10648
rosoft	-10649
▁About	-10650
▁expon	-10651
▁logic	-10652
▁piano	-10653
onymous	-10654
▁Museum	-10655
▁enable	-10656
▁extent	-10657
▁lifest	-10658
▁papers	-10659
▁classes	-10660
▁conclud	-10661
▁extinct	-10662
▁flowers	-10663
▁offered	-10664
connected	-10665
▁director	-10666
▁floating	-10667
▁breathing	-10668
▁destroyed	-10669
▁technique	-10670
▁electronic	-10671
▁application	-10672
▁transformed	-10673
4.	-10674
EC	-10675
以往	-10676
依旧	-10677
多个	-10678
字体	-10679
学位	-10680
年级	-10681
情景	-10682
成人	-10683
搭建	-10684
数码	-10685
显得	-10686
格斯	-10687
桌子	-10688
演化	-10689
点是	-10690
用水	-10691
着陆	-10692
营销	-10693
alu	-10694
ora	-10695
ota	-10696
rem	-10697
tes	-10698
▁Ah	-10699
▁好像	-10700
▁工作	-10701
▁根本	-10702
免费的	-10703
和我的	-10704
哲学家	-10705
巧克力	-10706
极大的	-10707
比我们	-10708
的基因	-10709
的意义	-10710
的病人	-10711
证明了	-10712
Okay	-10713
keys	-10714
▁tab	-10715
你们知道	-10716
有多少人	-10717
earch	-10718
icted	-10719
▁firm	-10720
▁stri	-10721
▁因为它们	-10722
▁如果你们	-10723
▁那是一个	-10724
athers	-10725
▁admit	-10726
▁crack	-10727
▁falls	-10728
▁youth	-10729
▁encoun	-10730
▁owners	-10731
▁scenar	-10732
ographer	-10733
▁aspects	-10734
▁decline	-10735
▁embrace	-10736
▁library	-10737
▁proport	-10738
▁Everyone	-10739
▁distinct	-10740
▁drinking	-10741
▁instruct	-10742
▁Basically	-10743
▁economies	-10744
▁standards	-10745
▁economists	-10746
▁educational	-10747
▁implications	-10748
▁直	-10749
一根	-10750
一看	-10751
代替	-10752
博拉	-10753
外界	-10754
幻想	-10755
幻觉	-10756
指标	-10757
操纵	-10758
新鲜	-10759
是吧	-10760
激进	-10761
视力	-10762
解答	-10763
认可	-10764
运营	-10765
醒来	-10766
集合	-10767
验证	-10768
nes	-10769
uce	-10770
uum	-10771
▁制造	-10772
▁各种	-10773
▁技术	-10774
以一种	-10775
受欢迎	-10776
常见的	-10777
形式的	-10778
必要的	-10779
接受了	-10780
是一件	-10781
最喜欢	-10782
的人群	-10783
的另一	-10784
的同时	-10785
的组织	-10786
的角色	-10787
aint	-10788
aret	-10789
iled	-10790
illy	-10791
▁是一种	-10792
▁army	-10793
▁icon	-10794
▁tack	-10795
▁因为这些	-10796
called	-10797
▁Black	-10798
▁Never	-10799
▁Union	-10800
▁males	-10801
▁title	-10802
▁但是如果你	-10803
▁explos	-10804
▁genius	-10805
▁legisl	-10806
▁limits	-10807
▁whales	-10808
▁corresp	-10809
▁samples	-10810
▁savings	-10811
▁Remember	-10812
▁Republic	-10813
▁wherever	-10814
▁department	-10815
ls	-10816
▁老	-10817
不行	-10818
优雅	-10819
公交	-10820
厉害	-10821
去找	-10822
基地	-10823
多元	-10824
山脉	-10825
干扰	-10826
文学	-10827
是要	-10828
看作	-10829
确切	-10830
等于	-10831
罗马	-10832
聆听	-10833
视野	-10834
论者	-10835
诚实	-10836
通信	-10837
顶端	-10838
预期	-10839
额外	-10840
ura	-10841
▁不用	-10842
▁对吧	-10843
亲爱的	-10844
保护区	-10845
几分钟	-10846
到这里	-10847
可不是	-10848
的土地	-10849
的活动	-10850
经历过	-10851
hour	-10852
iety	-10853
tail	-10854
tech	-10855
▁Cop	-10856
▁Lab	-10857
▁当时我	-10858
▁我们得	-10859
一起工作	-10860
有趣的是	-10861
iters	-10862
opher	-10863
▁chip	-10864
▁elim	-10865
▁limb	-10866
▁neut	-10867
▁root	-10868
struct	-10869
▁Human	-10870
▁accum	-10871
▁breed	-10872
▁error	-10873
▁globe	-10874
▁memor	-10875
▁Please	-10876
▁acknow	-10877
▁diplom	-10878
▁relate	-10879
▁secure	-10880
inations	-10881
▁Finally	-10882
▁anticip	-10883
▁carried	-10884
▁engaging	-10885
▁paradigm	-10886
▁continued	-10887
▁identical	-10888
▁measuring	-10889
▁translate	-10890
▁grandfather	-10891
▁instruments	-10892
▁populations	-10893
上班	-10894
卡车	-10895
可靠	-10896
司法	-10897
和他	-10898
地表	-10899
大卫	-10900
实体	-10901
尴尬	-10902
微软	-10903
成百	-10904
注入	-10905
消灭	-10906
看的	-10907
祖父	-10908
精英	-10909
维基	-10910
维护	-10911
财政	-10912
这座	-10913
随之	-10914
han	-10915
▁27	-10916
▁一次	-10917
▁之前	-10918
▁你将	-10919
▁它也	-10920
▁寻找	-10921
▁总是	-10922
▁直接	-10923
▁而你	-10924
▁自从	-10925
参与者	-10926
只是在	-10927
学会了	-10928
小时候	-10929
就是在	-10930
数据库	-10931
数百万	-10932
生命中	-10933
稳定的	-10934
考虑到	-10935
造成了	-10936
3000	-10937
nded	-10938
▁我不想	-10939
▁无论是	-10940
的是一个	-10941
acing	-10942
aming	-10943
ounce	-10944
▁biod	-10945
▁dign	-10946
▁gras	-10947
▁nest	-10948
▁stro	-10949
▁因为这是	-10950
▁这个问题	-10951
笔记本电脑	-10952
▁Antar	-10953
▁Korea	-10954
▁Latin	-10955
▁White	-10956
▁decre	-10957
▁explo	-10958
▁grows	-10959
▁phase	-10960
▁clinic	-10961
▁monkey	-10962
▁profit	-10963
etically	-10964
▁feeding	-10965
▁finance	-10966
▁domestic	-10967
▁instinct	-10968
▁shoulder	-10969
▁Christmas	-10970
▁arguments	-10971
▁recording	-10972
▁mechanical	-10973
▁represented	-10974
▁dramatically	-10975
DA	-10976
wr	-10977
。」	-10978
于此	-10979
人权	-10980
你将	-10981
做点	-10982
困惑	-10983
国王	-10984
坏了	-10985
宇航	-10986
完了	-10987
实质	-10988
审视	-10989
帝国	-10990
德拉	-10991
扩散	-10992
挖掘	-10993
撞击	-10994
无知	-10995
极度	-10996
灯光	-10997
牙齿	-10998
生气	-10999
的心	-11000
监管	-11001
能否	-11002
能让	-11003
说说	-11004
这份	-11005
▁2.	-11006
▁你也	-11007
▁十分	-11008
▁它将	-11009
▁就算	-11010
▁很快	-11011
▁毕竟	-11012
为他们	-11013
几十年	-11014
化合物	-11015
增加了	-11016
她们的	-11017
实在是	-11018
对他们	-11019
对自己	-11020
小时的	-11021
改变的	-11022
文化的	-11023
明显的	-11024
的中心	-11025
研究所	-11026
那里的	-11027
rors	-11028
▁cup	-11029
▁raw	-11030
▁什么是	-11031
▁我决定	-11032
▁这一点	-11033
看到这个	-11034
这种方式	-11035
▁2011	-11036
▁bike	-11037
▁poly	-11038
profit	-11039
▁Democ	-11040
▁humor	-11041
▁pharm	-11042
▁Island	-11043
▁clouds	-11044
▁linked	-11045
▁narrow	-11046
▁portra	-11047
▁stands	-11048
▁careful	-11049
▁frankly	-11050
▁neither	-11051
▁stretch	-11052
▁occasion	-11053
▁celebrate	-11054
▁increases	-11055
▁precisely	-11056
▁presented	-11057
▁privilege	-11058
▁prototype	-11059
▁spreading	-11060
▁microscope	-11061
▁automatically	-11062
▁·	-11063
从而	-11064
协作	-11065
去到	-11066
失明	-11067
实话	-11068
尼斯	-11069
引入	-11070
录音	-11071
惊叹	-11072
惊喜	-11073
我才	-11074
挪威	-11075
支撑	-11076
数目	-11077
档案	-11078
深海	-11079
清理	-11080
游行	-11081
特质	-11082
绘制	-11083
脱离	-11084
苏联	-11085
要在	-11086
透过	-11087
ato	-11088
eal	-11089
emb	-11090
▁不断	-11091
▁是个	-11092
会这样	-11093
印度的	-11094
学校的	-11095
早期的	-11096
的状态	-11097
这些小	-11098
选择了	-11099
5000	-11100
cers	-11101
lymp	-11102
▁Bon	-11103
▁Cor	-11104
▁ath	-11105
▁pul	-11106
▁他们把	-11107
▁这两个	-11108
帮助他们	-11109
athan	-11110
clear	-11111
pring	-11112
▁Comm	-11113
▁acts	-11114
▁lets	-11115
▁ours	-11116
某种意义上	-11117
ateful	-11118
ifting	-11119
▁Peter	-11120
▁court	-11121
▁dense	-11122
▁dozen	-11123
▁flash	-11124
▁honey	-11125
▁ignor	-11126
▁judge	-11127
▁recyc	-11128
▁whist	-11129
▁embedd	-11130
▁evolve	-11131
▁fright	-11132
▁phrase	-11133
▁scream	-11134
▁toilet	-11135
▁January	-11136
▁William	-11137
▁equation	-11138
▁footprint	-11139
▁architects	-11140
▁distributed	-11141
ua	-11142
▁花	-11143
▁非	-11144
一万	-11145
之上	-11146
依据	-11147
准则	-11148
几周	-11149
出售	-11150
化了	-11151
单纯	-11152
尔兰	-11153
年内	-11154
意图	-11155
教训	-11156
方块	-11157
昂贵	-11158
更快	-11159
枪鱼	-11160
标题	-11161
活力	-11162
清单	-11163
激活	-11164
版权	-11165
男子	-11166
第四	-11167
色彩	-11168
萨斯	-11169
还不	-11170
阶级	-11171
雄性	-11172
青春	-11173
hen	-11174
hol	-11175
rey	-11176
▁ru	-11177
▁更加	-11178
▁没错	-11179
▁男人	-11180
我们用	-11181
用这些	-11182
的使用	-11183
确实是	-11184
那个人	-11185
音乐家	-11186
east	-11187
etch	-11188
▁你现在	-11189
像这样的	-11190
绝大多数	-11191
inals	-11192
itory	-11193
otion	-11194
▁Jack	-11195
▁Next	-11196
▁glob	-11197
▁而且他们	-11198
imeter	-11199
licity	-11200
▁anger	-11201
▁aston	-11202
▁prize	-11203
▁tired	-11204
▁Sweden	-11205
▁script	-11206
▁storyt	-11207
▁Central	-11208
▁mammals	-11209
▁spectac	-11210
▁windows	-11211
▁infinite	-11212
▁traveled	-11213
▁component	-11214
▁recognition	-11215
29	-11216
一周	-11217
不通	-11218
九十	-11219
全身	-11220
剧院	-11221
哥伦	-11222
性质	-11223
手里	-11224
拜访	-11225
捕食	-11226
推测	-11227
教徒	-11228
旅游	-11229
此刻	-11230
温暖	-11231
的海	-11232
直升	-11233
积累	-11234
螺旋	-11235
被人	-11236
谈判	-11237
资产	-11238
身为	-11239
黑色	-11240
bal	-11241
pen	-11242
vas	-11243
▁65	-11244
▁py	-11245
▁也会	-11246
▁但却	-11247
▁唯一	-11248
▁感觉	-11249
▁这条	-11250
了所有	-11251
叙利亚	-11252
强烈的	-11253
我应该	-11254
最后的	-11255
的大脑	-11256
的资源	-11257
看不见	-11258
该如何	-11259
起作用	-11260
金枪鱼	-11261
bage	-11262
ogue	-11263
rade	-11264
rary	-11265
rets	-11266
▁Bob	-11267
▁hem	-11268
▁lun	-11269
▁但这些	-11270
▁当我在	-11271
▁这个人	-11272
你们可以	-11273
看到这些	-11274
这种情况	-11275
andon	-11276
▁mush	-11277
▁tent	-11278
不可思议的	-11279
▁Olymp	-11280
▁Smith	-11281
▁fruit	-11282
▁knock	-11283
▁stere	-11284
▁Martin	-11285
▁hearts	-11286
▁interf	-11287
▁myster	-11288
▁conserv	-11289
▁designs	-11290
▁guarant	-11291
▁poorest	-11292
▁surgeon	-11293
▁Africans	-11294
▁disorder	-11295
▁obsessed	-11296
▁committed	-11297
▁Foundation	-11298
▁performing	-11299
▁conventional	-11300
严格	-11301
向你	-11302
好吗	-11303
岁了	-11304
开源	-11305
我爱	-11306
把你	-11307
撒谎	-11308
整理	-11309
最有	-11310
歌曲	-11311
比喻	-11312
永恒	-11313
真理	-11314
考试	-11315
触摸	-11316
足球	-11317
首诗	-11318
▁22	-11319
▁产生	-11320
▁否则	-11321
▁由此	-11322
不再是	-11323
不到的	-11324
了一点	-11325
了他们	-11326
史以来	-11327
史蒂夫	-11328
在纽约	-11329
太多的	-11330
疯狂的	-11331
病毒的	-11332
的产品	-11333
的核心	-11334
的模式	-11335
而来的	-11336
能做到	-11337
进入了	-11338
amin	-11339
rant	-11340
wich	-11341
▁120	-11342
▁Nat	-11343
▁ben	-11344
▁sem	-11345
▁twe	-11346
▁一个是	-11347
▁对我们	-11348
▁百分之	-11349
你会发现	-11350
化学物质	-11351
所看到的	-11352
eters	-11353
iance	-11354
level	-11355
▁Gold	-11356
▁dust	-11357
▁gest	-11358
▁seek	-11359
▁ther	-11360
▁这并不是	-11361
▁bombs	-11362
▁enemy	-11363
▁persu	-11364
▁scary	-11365
▁shell	-11366
▁traum	-11367
▁walks	-11368
▁whale	-11369
illance	-11370
▁immune	-11371
▁placed	-11372
▁pocket	-11373
▁proced	-11374
▁repair	-11375
▁thrown	-11376
▁dancing	-11377
▁methods	-11378
▁academic	-11379
▁achieved	-11380
▁brothers	-11381
▁overcome	-11382
▁parallel	-11383
▁pregnant	-11384
▁produces	-11385
▁properly	-11386
▁Microsoft	-11387
▁colleague	-11388
▁corporate	-11389
▁insurance	-11390
▁reference	-11391
▁telescope	-11392
▁controlling	-11393
▁personality	-11394
BA	-11395
▁巴	-11396
可乐	-11397
彗星	-11398
微型	-11399
抛弃	-11400
拍照	-11401
早晨	-11402
极限	-11403
果蝇	-11404
流程	-11405
爵士	-11406
的头	-11407
街区	-11408
西洋	-11409
诗人	-11410
请求	-11411
这会	-11412
这边	-11413
那位	-11414
ali	-11415
▁你想	-11416
▁像是	-11417
乳腺癌	-11418
告诉他	-11419
大小的	-11420
我之前	-11421
的效果	-11422
esis	-11423
otes	-11424
uity	-11425
▁sne	-11426
▁vag	-11427
▁全世界	-11428
一些事情	-11429
是什么呢	-11430
这项技术	-11431
esign	-11432
using	-11433
▁9/11	-11434
▁Gulf	-11435
▁bias	-11436
▁pace	-11437
加利福尼亚	-11438
生活在一个	-11439
arters	-11440
▁Ghana	-11441
▁orbit	-11442
▁style	-11443
erences	-11444
▁column	-11445
▁crying	-11446
▁hunger	-11447
▁mainly	-11448
▁pollen	-11449
▁spinal	-11450
▁traged	-11451
▁diverse	-11452
▁earthqu	-11453
▁efforts	-11454
▁entered	-11455
▁robotic	-11456
▁appeared	-11457
▁vaccines	-11458
▁exploring	-11459
▁behavioral	-11460
▁exhibition	-11461
bi	-11462
ek	-11463
ye	-11464
▁:	-11465
▁帕	-11466
交配	-11467
典型	-11468
分解	-11469
和谐	-11470
哈顿	-11471
官员	-11472
尾巴	-11473
抑制	-11474
捕鱼	-11475
无处	-11476
极为	-11477
棒球	-11478
照明	-11479
特网	-11480
读者	-11481
镜子	-11482
青年	-11483
麻省	-11484
ida	-11485
▁Co	-11486
▁Jo	-11487
▁我得	-11488
▁更多	-11489
一百万	-11490
不停地	-11491
向我们	-11492
学校里	-11493
年前的	-11494
开玩笑	-11495
弄清楚	-11496
我不能	-11497
的一半	-11498
的态度	-11499
都不会	-11500
▁Boy	-11501
▁Hig	-11502
▁Sec	-11503
▁tea	-11504
▁van	-11505
▁同时也	-11506
很长时间	-11507
我自己的	-11508
生活方式	-11509
licit	-11510
▁Bush	-11511
▁还有一个	-11512
arency	-11513
▁Inter	-11514
▁metab	-11515
▁polio	-11516
▁tight	-11517
▁tries	-11518
▁units	-11519
▁vital	-11520
anthrop	-11521
iveness	-11522
raction	-11523
▁chocol	-11524
▁colony	-11525
▁ignore	-11526
▁missed	-11527
▁obstac	-11528
▁rising	-11529
▁classic	-11530
▁habitat	-11531
▁painful	-11532
▁wanting	-11533
▁grateful	-11534
▁imagined	-11535
▁organize	-11536
▁household	-11537
▁Revolution	-11538
▁collecting	-11539
▁directions	-11540
▁journalist	-11541
▁interacting	-11542
▁x	-11543
一无	-11544
一颗	-11545
上网	-11546
下一	-11547
不必	-11548
举办	-11549
乐意	-11550
任意	-11551
像个	-11552
六个	-11553
出于	-11554
创业	-11555
咨询	-11556
它就	-11557
室内	-11558
将近	-11559
常规	-11560
打交	-11561
最多	-11562
浪漫	-11563
热的	-11564
的长	-11565
神圣	-11566
英寸	-11567
购物	-11568
轮椅	-11569
面上	-11570
韩国	-11571
20%	-11572
aks	-11573
azz	-11574
cel	-11575
gic	-11576
▁Hy	-11577
▁你有	-11578
▁她在	-11579
▁简单	-11580
▁这将	-11581
决定了	-11582
合理的	-11583
对这些	-11584
我必须	-11585
探测器	-11586
曼哈顿	-11587
栖息地	-11588
独立的	-11589
的人民	-11590
知道了	-11591
研究了	-11592
网络上	-11593
背后的	-11594
问自己	-11595
ello	-11596
ener	-11597
▁Get	-11598
▁Net	-11599
▁sed	-11600
▁我不能	-11601
▁我甚至	-11602
▁而他们	-11603
▁让我来	-11604
是一样的	-11605
觉得自己	-11606
非常简单	-11607
hythm	-11608
leton	-11609
mates	-11610
think	-11611
▁boss	-11612
▁golf	-11613
▁你们可以	-11614
▁Grand	-11615
▁Super	-11616
▁aside	-11617
▁drove	-11618
▁smoke	-11619
▁stack	-11620
▁tasks	-11621
▁toler	-11622
▁assemb	-11623
▁candid	-11624
▁repeat	-11625
▁Nations	-11626
▁appears	-11627
▁mystery	-11628
▁raising	-11629
▁removed	-11630
▁whereas	-11631
▁elephant	-11632
▁consumers	-11633
▁disorders	-11634
▁permanent	-11635
▁telephone	-11636
▁connecting	-11637
▁philosophy	-11638
▁strategies	-11639
"。	-11640
Al	-11641
hh	-11642
不出	-11643
人造	-11644
伴侣	-11645
你去	-11646
协会	-11647
味道	-11648
在做	-11649
富裕	-11650
布朗	-11651
很酷	-11652
想着	-11653
愉快	-11654
救援	-11655
案件	-11656
独裁	-11657
硬件	-11658
脑中	-11659
著名	-11660
超市	-11661
轨迹	-11662
邪恶	-11663
麻痹	-11664
197	-11665
hib	-11666
▁以此	-11667
为自己	-11668
全球的	-11669
发生过	-11670
听到了	-11671
潜在的	-11672
环境的	-11673
的最后	-11674
的语言	-11675
社区的	-11676
美妙的	-11677
詹姆斯	-11678
还记得	-11679
appy	-11680
cean	-11681
▁NGO	-11682
▁Pre	-11683
▁gon	-11684
岁的孩子	-11685
没有一个	-11686
attan	-11687
iform	-11688
power	-11689
▁Ethi	-11690
▁leap	-11691
▁lung	-11692
▁plot	-11693
▁rush	-11694
▁而且我们	-11695
▁Higgs	-11696
▁seeds	-11697
▁这就意味着	-11698
through	-11699
▁astero	-11700
▁barely	-11701
▁plenty	-11702
▁cheaper	-11703
▁collaps	-11704
▁density	-11705
▁unbelie	-11706
▁accepted	-11707
▁darkness	-11708
▁embedded	-11709
▁illusion	-11710
▁vertical	-11711
▁authentic	-11712
▁depending	-11713
▁practices	-11714
▁commitment	-11715
▁controvers	-11716
▁recognized	-11717
▁universities	-11718
▁International	-11719
▁entertainment	-11720
ER	-11721
▁越	-11722
你得	-11723
共鸣	-11724
审查	-11725
开关	-11726
手的	-11727
根源	-11728
法院	-11729
激光	-11730
火山	-11731
生病	-11732
等着	-11733
肢体	-11734
蔬菜	-11735
蚊帐	-11736
表格	-11737
解读	-11738
这就	-11739
酒吧	-11740
顺序	-11741
骄傲	-11742
Let	-11743
cut	-11744
iac	-11745
sum	-11746
▁一定	-11747
▁我又	-11748
▁我用	-11749
▁终于	-11750
众人笑	-11751
你可能	-11752
到我们	-11753
在未来	-11754
我今天	-11755
打印机	-11756
收到了	-11757
政治家	-11758
有一点	-11759
目标是	-11760
诺贝尔	-11761
身上的	-11762
case	-11763
eron	-11764
▁Del	-11765
▁Mad	-11766
▁Pat	-11767
▁Ros	-11768
▁Syr	-11769
▁fan	-11770
▁我们正	-11771
变成一个	-11772
电子游戏	-11773
非常好的	-11774
aving	-11775
esity	-11776
orter	-11777
oster	-11778
under	-11779
▁Manh	-11780
▁cash	-11781
▁gray	-11782
▁prem	-11783
▁但实际上	-11784
▁这样我们	-11785
▁Space	-11786
▁blank	-11787
▁plays	-11788
▁recru	-11789
▁wound	-11790
▁corals	-11791
▁devast	-11792
▁filter	-11793
▁geomet	-11794
▁heroes	-11795
▁invite	-11796
▁pushed	-11797
▁citizen	-11798
▁license	-11799
▁monkeys	-11800
▁muscles	-11801
▁attached	-11802
▁hardware	-11803
▁isolated	-11804
▁reaching	-11805
▁recovery	-11806
▁treating	-11807
▁Manhattan	-11808
▁apartment	-11809
▁curiosity	-11810
▁recommend	-11811
▁contribute	-11812
▁engagement	-11813
▁fascinated	-11814
▁interactions	-11815
Tw	-11816
VD	-11817
▁安	-11818
▁离	-11819
▁讲	-11820
与之	-11821
包装	-11822
四十	-11823
国民	-11824
外部	-11825
家具	-11826
幸存	-11827
床上	-11828
心中	-11829
搜寻	-11830
时常	-11831
最为	-11832
来临	-11833
毫不	-11834
水里	-11835
沃尔	-11836
翅膀	-11837
般的	-11838
良好	-11839
蔓延	-11840
要做	-11841
设定	-11842
车辆	-11843
那边	-11844
餐馆	-11845
700	-11846
ais	-11847
esh	-11848
gly	-11849
▁Ok	-11850
▁对此	-11851
丰富的	-11852
了他的	-11853
你们能	-11854
俄比亚	-11855
发出的	-11856
周围的	-11857
围绕着	-11858
大概是	-11859
希格斯	-11860
建筑的	-11861
我正在	-11862
提供的	-11863
撒哈拉	-11864
是通过	-11865
染色体	-11866
死亡的	-11867
的理解	-11868
的网络	-11869
经济学	-11870
起来了	-11871
ardo	-11872
exas	-11873
▁Jes	-11874
▁Leg	-11875
▁gla	-11876
▁他们不	-11877
▁他们就	-11878
准备好了	-11879
纽约时报	-11880
聚在一起	-11881
需要一个	-11882
copes	-11883
iders	-11884
usted	-11885
▁till	-11886
▁tube	-11887
▁如果你在	-11888
之间的关系	-11889
apping	-11890
iPhone	-11891
phones	-11892
▁Voice	-11893
▁banks	-11894
▁champ	-11895
▁liver	-11896
▁suppl	-11897
century	-11898
ogether	-11899
▁eradic	-11900
▁escape	-11901
▁facial	-11902
▁fertil	-11903
▁hungry	-11904
▁oldest	-11905
▁prices	-11906
▁writer	-11907
children	-11908
▁Nothing	-11909
▁diagram	-11910
▁divided	-11911
▁inspire	-11912
▁prosper	-11913
▁synthes	-11914
▁captured	-11915
▁concepts	-11916
▁district	-11917
▁globally	-11918
▁involves	-11919
▁meetings	-11920
▁shooting	-11921
▁lifestyle	-11922
▁antibiotics	-11923
▁entrepreneur	-11924
▁productivity	-11925
▁surveillance	-11926
▁neighborhoods	-11927
1%	-11928
▁万	-11929
▁性	-11930
▁查	-11931
▁近	-11932
主流	-11933
亲眼	-11934
入侵	-11935
全力	-11936
写道	-11937
包围	-11938
发起	-11939
姿势	-11940
家园	-11941
对着	-11942
小型	-11943
就业	-11944
底下	-11945
想去	-11946
想说	-11947
想起	-11948
把他	-11949
暗示	-11950
激烈	-11951
烹饪	-11952
用途	-11953
短的	-11954
而不	-11955
血压	-11956
西亚	-11957
gun	-11958
lyn	-11959
oir	-11960
oma	-11961
▁只能	-11962
▁孩子	-11963
▁试着	-11964
不是在	-11965
了一场	-11966
他们有	-11967
加入了	-11968
坏消息	-11969
居住在	-11970
工作中	-11971
建立了	-11972
是否能	-11973
是没有	-11974
甚至是	-11975
的意思	-11976
的看法	-11977
给自己	-11978
诸如此	-11979
gers	-11980
keep	-11981
phas	-11982
rous	-11983
▁Bay	-11984
▁Eas	-11985
▁aim	-11986
▁dio	-11987
▁tip	-11988
几个小时	-11989
塞俄比亚	-11990
已经开始	-11991
agger	-11992
eared	-11993
while	-11994
▁dict	-11995
▁fulf	-11996
▁prev	-11997
▁sacr	-11998
▁你可以在	-11999
向你们展示	-12000
ptions	-12001
▁Texas	-12002
▁adopt	-12003
▁brown	-12004
▁crops	-12005
▁delic	-12006
▁dirty	-12007
▁fluid	-12008
▁sales	-12009
▁usual	-12010
related	-12011
▁borrow	-12012
▁latest	-12013
▁lovely	-12014
▁needle	-12015
▁powers	-12016
▁rescue	-12017
▁retire	-12018
▁spider	-12019
▁herself	-12020
▁scratch	-12021
▁suicide	-12022
▁Stanford	-12023
▁controls	-12024
▁romantic	-12025
▁stations	-12026
▁paintings	-12027
▁sculpture	-12028
▁searching	-12029
▁virtually	-12030
▁apparently	-12031
▁volunteers	-12032
▁interactive	-12033
▁manufacture	-12034
47	-12035
9.	-12036
──	-12037
▁左	-12038
▁转	-12039
一所	-12040
为之	-12041
主导	-12042
了他	-12043
伦理	-12044
医师	-12045
卢旺	-12046
同步	-12047
含量	-12048
地带	-12049
大多	-12050
尼克	-12051
屋子	-12052
强奸	-12053
当成	-12054
情报	-12055
打造	-12056
折纸	-12057
指令	-12058
收藏	-12059
武装	-12060
界限	-12061
紧急	-12062
纯粹	-12063
给出	-12064
说道	-12065
这片	-12066
▁Hi	-12067
▁Rw	-12068
▁海洋	-12069
▁视频	-12070
▁还要	-12071
▁难道	-12072
卢旺达	-12073
家公司	-12074
把你的	-12075
斯坦福	-12076
糖尿病	-12077
网站上	-12078
重大的	-12079
iday	-12080
nels	-12081
ubes	-12082
▁Tor	-12083
▁gig	-12084
▁tri	-12085
▁但我想	-12086
▁我父亲	-12087
为什么不	-12088
你就可以	-12089
做了什么	-12090
就是我们	-12091
温室气体	-12092
解释一下	-12093
ester	-12094
isons	-12095
▁Narr	-12096
▁Pole	-12097
▁corn	-12098
▁lock	-12099
▁pour	-12100
▁我们就能	-12101
▁这是一张	-12102
我们自己的	-12103
abetes	-12104
ivered	-12105
▁alien	-12106
▁utter	-12107
▁这是我们的	-12108
ishment	-12109
▁Indeed	-12110
▁behave	-12111
▁excell	-12112
▁slides	-12113
▁Islamic	-12114
▁abandon	-12115
▁airport	-12116
▁dignity	-12117
▁monitor	-12118
▁estimate	-12119
▁penguins	-12120
▁reported	-12121
▁textbook	-12122
▁algorithm	-12123
▁furniture	-12124
▁买	-12125
▁电	-12126
上百	-12127
似的	-12128
低的	-12129
刚好	-12130
大大	-12131
居然	-12132
想出	-12133
意愿	-12134
截然	-12135
手中	-12136
手工	-12137
操控	-12138
教导	-12139
树林	-12140
每周	-12141
消极	-12142
特里	-12143
的电	-12144
盯着	-12145
短期	-12146
群人	-12147
者和	-12148
脑部	-12149
读书	-12150
辈子	-12151
80%	-12152
GPS	-12153
aws	-12154
ras	-12155
▁Bu	-12156
▁LG	-12157
▁参与	-12158
▁艺术	-12159
▁获得	-12160
▁这很	-12161
三个月	-12162
不存在	-12163
了一下	-12164
他们能	-12165
副作用	-12166
劳动力	-12167
在过去	-12168
大约有	-12169
很棒的	-12170
德里克	-12171
成功地	-12172
我不会	-12173
提出了	-12174
的主要	-12175
的价值	-12176
的图片	-12177
的家庭	-12178
转化为	-12179
arry	-12180
▁Bur	-12181
▁Eve	-12182
▁Fre	-12183
▁Nob	-12184
▁Sar	-12185
▁enh	-12186
▁lin	-12187
▁tag	-12188
我们希望	-12189
种不同的	-12190
There	-12191
angle	-12192
flies	-12193
iated	-12194
▁Back	-12195
▁Cons	-12196
▁axis	-12197
▁cens	-12198
▁cute	-12199
▁flip	-12200
▁loop	-12201
▁你会看到	-12202
联系在一起	-12203
lessly	-12204
orking	-12205
▁Congo	-12206
▁Scott	-12207
▁helic	-12208
▁likes	-12209
▁purch	-12210
▁yield	-12211
▁我们就可以	-12212
section	-12213
▁weapon	-12214
▁dioxide	-12215
▁federal	-12216
▁impacts	-12217
▁lecture	-12218
▁parties	-12219
▁rebuild	-12220
▁section	-12221
▁breaking	-12222
▁laughing	-12223
▁mushroom	-12224
▁provides	-12225
▁Hollywood	-12226
▁elsewhere	-12227
▁functional	-12228
▁underground	-12229
▁expectations	-12230
6.	-12231
fe	-12232
上传	-12233
为例	-12234
他会	-12235
内在	-12236
内战	-12237
再来	-12238
北美	-12239
原料	-12240
受益	-12241
外线	-12242
大海	-12243
带领	-12244
引力	-12245
往下	-12246
损伤	-12247
放射	-12248
核能	-12249
比尔	-12250
添加	-12251
目光	-12252
蚁群	-12253
装备	-12254
询问	-12255
越大	-12256
那就	-12257
震撼	-12258
鼠标	-12259
rid	-12260
rit	-12261
uba	-12262
▁2,	-12263
▁不久	-12264
▁声音	-12265
▁它有	-12266
▁约翰	-12267
▁那天	-12268
一分钟	-12269
一无所	-12270
上百万	-12271
了什么	-12272
了起来	-12273
依赖于	-12274
勒斯坦	-12275
却没有	-12276
在上面	-12277
在他们	-12278
城市里	-12279
大问题	-12280
将他们	-12281
棒极了	-12282
没办法	-12283
的一位	-12284
的事业	-12285
的改变	-12286
的文化	-12287
的时期	-12288
都不是	-12289
面对的	-12290
2008	-12291
emic	-12292
lete	-12293
lims	-12294
walk	-12295
▁Dis	-12296
▁mim	-12297
▁当人们	-12298
目前为止	-12299
精神疾病	-12300
那个时候	-12301
ollar	-12302
osure	-12303
▁2005	-12304
▁High	-12305
▁Step	-12306
▁Wall	-12307
▁earn	-12308
▁rely	-12309
▁我们就会	-12310
▁fifth	-12311
▁minor	-12312
▁pyram	-12313
▁skull	-12314
attered	-12315
▁agenda	-12316
▁capita	-12317
▁conven	-12318
▁layers	-12319
▁scales	-12320
▁beliefs	-12321
▁concert	-12322
▁exposed	-12323
▁obesity	-12324
▁opposed	-12325
▁pretend	-12326
▁visited	-12327
▁Atlantic	-12328
▁magnetic	-12329
▁particle	-12330
▁sandwich	-12331
▁dedicated	-12332
▁delivered	-12333
▁generated	-12334
▁uncertain	-12335
▁Department	-12336
▁accessible	-12337
▁cooperation	-12338
OK	-12339
tw	-12340
▁曾	-12341
买到	-12342
分成	-12343
十二	-12344
厌恶	-12345
可怜	-12346
名声	-12347
土星	-12348
头上	-12349
奥斯	-12350
好比	-12351
子和	-12352
导师	-12353
市长	-12354
年纪	-12355
扭曲	-12356
拍的	-12357
挑选	-12358
挽救	-12359
星星	-12360
某一	-12361
棵树	-12362
永久	-12363
牛奶	-12364
瘫痪	-12365
维度	-12366
苍蝇	-12367
要么	-12368
警告	-12369
谎言	-12370
负面	-12371
运算	-12372
长达	-12373
随便	-12374
马克	-12375
50%	-12376
▁发展	-12377
▁告诉	-12378
▁比起	-12379
一会儿	-12380
做任何	-12381
医学院	-12382
原来的	-12383
大气层	-12384
并不能	-12385
当时的	-12386
很小的	-12387
所需的	-12388
打交道	-12389
无线电	-12390
的增长	-12391
艺术品	-12392
▁Ice	-12393
▁Nic	-12394
▁ate	-12395
▁wip	-12396
▁和我们	-12397
不一样的	-12398
相互作用	-12399
解决方法	-12400
这个国家	-12401
ckets	-12402
class	-12403
▁choo	-12404
▁rent	-12405
▁vibr	-12406
▁这个项目	-12407
▁Nobel	-12408
▁Woman	-12409
▁maxim	-12410
▁sheep	-12411
▁wings	-12412
▁defend	-12413
▁hardly	-12414
▁locked	-12415
▁surely	-12416
Facebook	-12417
▁crucial	-12418
▁disrupt	-12419
▁recover	-12420
▁Research	-12421
▁encounter	-12422
▁intention	-12423
▁uncomfort	-12424
▁historical	-12425
▁incentives	-12426
▁optimistic	-12427
▁protecting	-12428
▁resolution	-12429
▁spectacular	-12430
33	-12431
▁西	-12432
主动	-12433
乌干	-12434
今日	-12435
公斤	-12436
吃的	-12437
季节	-12438
室里	-12439
岗位	-12440
护理	-12441
担忧	-12442
数百	-12443
整天	-12444
火虫	-12445
画的	-12446
经理	-12447
缺少	-12448
讲讲	-12449
说出	-12450
这件	-12451
遥远	-12452
里约	-12453
马里	-12454
10%	-12455
90%	-12456
Can	-12457
ena	-12458
▁id	-12459
▁位于	-12460
▁总之	-12461
▁接受	-12462
▁显示	-12463
乌干达	-12464
了许多	-12465
六个月	-12466
把我的	-12467
的物种	-12468
类动物	-12469
萤火虫	-12470
2007	-12471
fall	-12472
ober	-12473
oust	-12474
tery	-12475
udes	-12476
zees	-12477
▁Mor	-12478
▁Oct	-12479
▁也没有	-12480
▁在这种	-12481
▁是不是	-12482
一个故事	-12483
全球变暖	-12484
成为一名	-12485
电子邮件	-12486
的事情是	-12487
职业生涯	-12488
inder	-12489
quare	-12490
▁Stud	-12491
▁Turn	-12492
▁cous	-12493
▁peer	-12494
▁我们只是	-12495
▁Haiti	-12496
▁chief	-12497
▁meter	-12498
▁schol	-12499
▁tears	-12500
▁upset	-12501
▁attrib	-12502
▁expans	-12503
▁frozen	-12504
▁legacy	-12505
▁你们可以看到	-12506
▁ceiling	-12507
▁charity	-12508
▁orchest	-12509
▁astronom	-12510
▁football	-12511
▁refugees	-12512
▁chocolate	-12513
▁intuitive	-12514
▁reduction	-12515
▁disappeared	-12516
▁transparent	-12517
8%	-12518
▁拉	-12519
▁远	-12520
不上	-12521
事的	-12522
信用	-12523
储蓄	-12524
共振	-12525
半球	-12526
品质	-12527
在乎	-12528
大战	-12529
天赋	-12530
字塔	-12531
尔德	-12532
巨型	-12533
布什	-12534
带上	-12535
常见	-12536
很高	-12537
新生	-12538
方说	-12539
晚餐	-12540
汽油	-12541
漂浮	-12542
的好	-12543
短片	-12544
碰撞	-12545
秩序	-12546
立法	-12547
米的	-12548
给它	-12549
耐心	-12550
脸书	-12551
衰老	-12552
言论	-12553
赞助	-12554
走过	-12555
跑步	-12556
银河	-12557
随意	-12558
bra	-12559
emp	-12560
▁仍然	-12561
▁具有	-12562
▁我去	-12563
▁所谓	-12564
▁放在	-12565
不过是	-12566
价值的	-12567
到这个	-12568
它们在	-12569
完全是	-12570
我决定	-12571
我是个	-12572
有力的	-12573
的目的	-12574
金字塔	-12575
非洲人	-12576
额外的	-12577
pass	-12578
zens	-12579
▁Mac	-12580
▁Ten	-12581
▁aqu	-12582
▁unp	-12583
▁不只是	-12584
全世界的	-12585
对我们的	-12586
很重要的	-12587
的一件事	-12588
这个数字	-12589
这个过程	-12590
这意味着	-12591
麻省理工	-12592
archy	-12593
cence	-12594
going	-12595
▁hire	-12596
▁爱因斯坦	-12597
anzees	-12598
▁chest	-12599
▁imper	-12600
▁sheet	-12601
▁我们都知道	-12602
▁更重要的是	-12603
forward	-12604
uration	-12605
▁50,000	-12606
▁Palest	-12607
▁silent	-12608
▁spoken	-12609
▁amongst	-12610
▁delight	-12611
▁distant	-12612
▁initial	-12613
▁printed	-12614
▁complain	-12615
▁contains	-12616
▁dolphins	-12617
▁focusing	-12618
▁backwards	-12619
▁confident	-12620
▁transplant	-12621
▁ingredients	-12622
▁transparency	-12623
Ar	-12624
业务	-12625
你好	-12626
列表	-12627
发育	-12628
只需	-12629
唱歌	-12630
她在	-12631
妹妹	-12632
当做	-12633
情境	-12634
战士	-12635
晶体	-12636
本能	-12637
杀害	-12638
格林	-12639
派对	-12640
海水	-12641
猜想	-12642
给她	-12643
要比	-12644
议题	-12645
谋杀	-12646
逃离	-12647
通道	-12648
零件	-12649
食用	-12650
edy	-12651
ini	-12652
rol	-12653
war	-12654
▁0.	-12655
▁Po	-12656
▁na	-12657
▁教育	-12658
也一样	-12659
伴随着	-12660
和社会	-12661
大西洋	-12662
失败了	-12663
小孩子	-12664
成年人	-12665
是完全	-12666
的发现	-12667
的小孩	-12668
的理论	-12669
看着我	-12670
解决了	-12671
born	-12672
ione	-12673
osen	-12674
▁Hel	-12675
▁Rio	-12676
▁cab	-12677
▁lob	-12678
▁ric	-12679
▁tro	-12680
▁看上去	-12681
▁第三个	-12682
不可避免	-12683
你自己的	-12684
几个星期	-12685
发达国家	-12686
哥伦比亚	-12687
正是我们	-12688
field	-12689
inger	-12690
obile	-12691
state	-12692
▁Brun	-12693
▁debt	-12694
▁fool	-12695
▁mold	-12696
▁pink	-12697
▁rail	-12698
▁ugly	-12699
▁我们想要	-12700
最重要的是	-12701
▁abund	-12702
▁digit	-12703
▁drawn	-12704
▁fuels	-12705
▁gonna	-12706
▁reput	-12707
▁views	-12708
▁Really	-12709
▁chosen	-12710
▁output	-12711
American	-12712
▁drivers	-12713
▁suspect	-12714
▁touched	-12715
▁Narrator	-12716
▁diabetes	-12717
▁external	-12718
▁Christian	-12719
▁announced	-12720
▁investing	-12721
▁affordable	-12722
▁governance	-12723
▁integrated	-12724
▁uncomfortable	-12725
▁communications	-12726
He	-12727
LA	-12728
aj	-12729
▁书	-12730
▁啊	-12731
▁试	-12732
三倍	-12733
上方	-12734
丧失	-12735
也就	-12736
亿个	-12737
众所	-12738
但我	-12739
使它	-12740
公式	-12741
匿名	-12742
反抗	-12743
发言	-12744
各地	-12745
坐着	-12746
坦白	-12747
声明	-12748
姐姐	-12749
封闭	-12750
尊严	-12751
开来	-12752
必然	-12753
所见	-12754
政客	-12755
更新	-12756
有益	-12757
物的	-12758
男女	-12759
终结	-12760
要素	-12761
见面	-12762
规范	-12763
讲座	-12764
轻易	-12765
遭到	-12766
196	-12767
erd	-12768
▁Ox	-12769
▁Ug	-12770
▁事情	-12771
▁从来	-12772
▁永远	-12773
▁电脑	-12774
▁让人	-12775
你怎么	-12776
决定的	-12777
学生的	-12778
小部分	-12779
并不会	-12780
我们去	-12781
我而言	-12782
我说的	-12783
排放量	-12784
摄像头	-12785
爱尔兰	-12786
现实中	-12787
质量的	-12788
这句话	-12789
▁Bel	-12790
▁Fin	-12791
▁Was	-12792
▁hat	-12793
▁obl	-12794
▁它们在	-12795
我的朋友	-12796
神经系统	-12797
omous	-12798
▁2012	-12799
▁Budd	-12800
▁Mand	-12801
▁ages	-12802
▁beer	-12803
▁trop	-12804
▁你也可以	-12805
▁你就可以	-12806
▁因为如果	-12807
对我们来说	-12808
dollar	-12809
heimer	-12810
usions	-12811
▁chaos	-12812
▁conce	-12813
▁doors	-12814
▁elder	-12815
▁paras	-12816
▁route	-12817
▁stops	-12818
▁veter	-12819
▁20,000	-12820
▁actors	-12821
▁satisf	-12822
▁talent	-12823
▁Muslims	-12824
▁anxiety	-12825
▁essence	-12826
▁granted	-12827
▁welcome	-12828
▁agencies	-12829
▁northern	-12830
▁theories	-12831
▁conflicts	-12832
▁continues	-12833
▁inspiring	-12834
▁motivation	-12835
▁rainforest	-12836
▁programming	-12837
▁characteristics	-12838
-3	-12839
OL	-12840
So	-12841
“。	-12842
上述	-12843
两天	-12844
之地	-12845
交叉	-12846
交给	-12847
假装	-12848
冲击	-12849
向上	-12850
听见	-12851
呼吁	-12852
地铁	-12853
处境	-12854
它为	-12855
废弃	-12856
座椅	-12857
弯曲	-12858
当下	-12859
恐怕	-12860
旧的	-12861
检验	-12862
水源	-12863
潜在	-12864
理所	-12865
监测	-12866
蘑菇	-12867
装饰	-12868
议会	-12869
财产	-12870
路线	-12871
车上	-12872
阐述	-12873
青蛙	-12874
预料	-12875
ams	-12876
ean	-12877
hop	-12878
top	-12879
▁TK	-12880
▁但那	-12881
▁保护	-12882
▁大卫	-12883
▁控制	-12884
▁选择	-12885
一个新	-12886
一个月	-12887
从这个	-12888
做出的	-12889
共同的	-12890
取得了	-12891
坐下来	-12892
导致了	-12893
我刚才	-12894
的人数	-12895
的人物	-12896
真正地	-12897
研究生	-12898
细胞的	-12899
让它们	-12900
语言的	-12901
ifts	-12902
oded	-12903
part	-12904
thal	-12905
▁10-	-12906
▁bon	-12907
▁der	-12908
▁pra	-12909
▁spr	-12910
▁他们将	-12911
▁但同时	-12912
▁发生在	-12913
的时间里	-12914
isted	-12915
▁bask	-12916
▁boom	-12917
▁pand	-12918
▁shar	-12919
▁tech	-12920
▁tied	-12921
▁他们认为	-12922
▁我们通过	-12923
不同的方式	-12924
▁angle	-12925
▁finds	-12926
▁legit	-12927
▁shake	-12928
▁spark	-12929
▁margin	-12930
▁paraly	-12931
▁shadow	-12932
▁surviv	-12933
▁trends	-12934
▁bicycle	-12935
▁defense	-12936
▁helicop	-12937
▁instant	-12938
▁letting	-12939
▁passing	-12940
▁refugee	-12941
▁database	-12942
▁dominant	-12943
▁laughter	-12944
▁diagnosed	-12945
▁boundaries	-12946
▁advertising	-12947
▁discoveries	-12948
▁breakthrough	-12949
],	-12950
va	-12951
▁便	-12952
与我	-12953
之心	-12954
促使	-12955
俱乐	-12956
入了	-12957
场合	-12958
坏事	-12959
安慰	-12960
对付	-12961
强度	-12962
指示	-12963
放松	-12964
旅途	-12965
明智	-12966
未知	-12967
构想	-12968
欧盟	-12969
死的	-12970
深度	-12971
肥皂	-12972
脸上	-12973
花在	-12974
虐待	-12975
误解	-12976
课题	-12977
阴影	-12978
bul	-12979
omb	-12980
▁做出	-12981
▁变得	-12982
▁影响	-12983
▁持续	-12984
▁面对	-12985
一切都	-12986
你已经	-12987
你现在	-12988
历史的	-12989
在非洲	-12990
复杂性	-12991
将它们	-12992
市场的	-12993
建立在	-12994
很喜欢	-12995
托马斯	-12996
无人机	-12997
涉及到	-12998
的一次	-12999
的细胞	-13000
社会中	-13001
ason	-13002
bits	-13003
irds	-13004
rons	-13005
▁gro	-13006
▁hip	-13007
▁hol	-13008
▁nit	-13009
▁wra	-13010
▁和其他	-13011
▁是什么	-13012
▁计算机	-13013
这些都是	-13014
Where	-13015
ctica	-13016
gging	-13017
▁Girl	-13018
▁bubb	-13019
▁melt	-13020
▁quit	-13021
ietnam	-13022
▁4,000	-13023
▁laser	-13024
▁lungs	-13025
▁manif	-13026
▁naked	-13027
▁opens	-13028
▁proof	-13029
unclear	-13030
▁Jewish	-13031
▁dozens	-13032
▁nurses	-13033
▁orange	-13034
▁richer	-13035
▁smooth	-13036
▁stable	-13037
▁subtle	-13038
▁clients	-13039
▁hanging	-13040
▁painted	-13041
▁picking	-13042
▁tragedy	-13043
▁traject	-13044
▁dynamics	-13045
▁surfaces	-13046
▁symmetry	-13047
▁animation	-13048
▁dimension	-13049
▁Antarctica	-13050
▁earthquake	-13051
▁simplicity	-13052
▁struggling	-13053
▁demonstrate	-13054
▁philanthrop	-13055
▁probability	-13056
48	-13057
li	-13058
▁单	-13059
▁杰	-13060
一组	-13061
中产	-13062
二的	-13063
出口	-13064
医药	-13065
对它	-13066
对手	-13067
▁	-13068
e	-13069
t	-13070
o	-13071
a	-13072
n	-13073
i	-13074
s	-13075
r	-13076
h	-13077
l	-13078
d	-13079
,	-13080
u	-13081
c	-13082
m	-13083
y	-13084
w	-13085
g	-13086
f	-13087
p	-13088
的	-13089
.	-13090
b	-13091
v	-13092
我	-13093
k	-13094
。	-13095
是	-13096
们	-13097
'	-13098
一	-13099
I	-13100
这	-13101
在	-13102
个	-13103
-	-13104
有	-13105
A	-13106
了	-13107
不	-13108
人	-13109
T	-13110
你	-13111
他	-13112
0	-13113
到	-13114
S	-13115
以	-13116
?	-13117
为	-13118
来	-13119
就	-13120
"	-13121
些	-13122
会	-13123
能	-13124
上	-13125
可	-13126
W	-13127
x	-13128
大	-13129
要	-13130
那	-13131
时	-13132
它	-13133
和	-13134
生	-13135
:	-13136
所	-13137
B	-13138
中	-13139
1	-13140
么	-13141
如	-13142
j	-13143
说	-13144
看	-13145
想	-13146
现	-13147
里	-13148
很	-13149
多	-13150
样	-13151
用	-13152
对	-13153
过	-13154
地	-13155
但	-13156
因	-13157
也	-13158
而	-13159
事	-13160
都	-13161
发	-13162
家	-13163
得	-13164
于	-13165
后	-13166
种	-13167
做	-13168
年	-13169
自	-13170
当	-13171
学	-13172
子	-13173
N	-13174
成	-13175
“	-13176
实	-13177
作	-13178
出	-13179
2	-13180
然	-13181
z	-13182
C	-13183
”	-13184
方	-13185
去	-13186
M	-13187
果	-13188
下	-13189
好	-13190
开	-13191
没	-13192
H	-13193
经	-13194
最	-13195
国	-13196
之	-13197
同	-13198
物	-13199
着	-13200
分	-13201
还	-13202
道	-13203
q	-13204
D	-13205
什	-13206
其	-13207
知	-13208
行	-13209
从	-13210
动	-13211
问	-13212
E	-13213
常	-13214
意	-13215
让	-13216
者	-13217
面	-13218
并	-13219
法	-13220
非	-13221
5	-13222
Y	-13223
起	-13224
更	-13225
变	-13226
—	-13227
O	-13228
P	-13229
性	-13230
力	-13231
机	-13232
只	-13233
把	-13234
正	-13235
被	-13236
间	-13237
题	-13238
天	-13239
前	-13240
关	-13241
世	-13242
情	-13243
小	-13244
工	-13245
体	-13246
数	-13247
理	-13248
点	-13249
或	-13250
将	-13251
像	-13252
进	-13253
她	-13254
G	-13255
重	-13256
感	-13257
界	-13258
比	-13259
9	-13260
美	-13261
全	-13262
L	-13263
化	-13264
相	-13265
解	-13266
此	-13267
给	-13268
何	-13269
新	-13270
3	-13271
定	-13272
信	-13273
需	-13274
部	-13275
真	-13276
西	-13277
R	-13278
、	-13279
心	-13280
本	-13281
每	-13282
始	-13283
候	-13284
使	-13285
己	-13286
F	-13287
与	-13288
度	-13289
无	-13290
电	-13291
系	-13292
认	-13293
且	-13294
应	-13295
计	-13296
活	-13297
已	-13298
通	-13299
类	-13300
明	-13301
量	-13302
制	-13303
特	-13304
4	-13305
公	-13306
造	-13307
第	-13308
式	-13309
加	-13310
斯	-13311
长	-13312
设	-13313
次	-13314
接	-13315
觉	-13316
东	-13317
手	-13318
结	-13319
高	-13320
孩	-13321
利	-13322
两	-13323
基	-13324
♫	-13325
8	-13326
建	-13327
回	-13328
身	-13329
入	-13330
合	-13331
程	-13332
术	-13333
表	-13334
谢	-13335
论	-13336
J	-13337
许	-13338
话	-13339
代	-13340
科	-13341
球	-13342
件	-13343
女	-13344
展	-13345
目	-13346
位	-13347
提	-13348
6	-13349
主	-13350
外	-13351
图	-13352
几	-13353
教	-13354
产	-13355
受	-13356
片	-13357
器	-13358
K	-13359
脑	-13360
放	-13361
任	-13362
病	-13363
业	-13364
完	-13365
决	-13366
直	-13367
水	-13368
统	-13369
7	-13370
仅	-13371
创	-13372
改	-13373
技	-13374
;	-13375
及	-13376
内	-13377
向	-13378
观	-13379
再	-13380
呢	-13381
研	-13382
儿	-13383
究	-13384
确	-13385
带	-13386
试	-13387
够	-13388
三	-13389
十	-13390
别	-13391
告	-13392
区	-13393
思	-13394
场	-13395
处	-13396
少	-13397
怎	-13398
车	-13399
原	-13400
望	-13401
找	-13402
U	-13403
运	-13404
社	-13405
太	-13406
象	-13407
名	-13408
保	-13409
影	-13410
识	-13411
网	-13412
今	-13413
该	-13414
平	-13415
克	-13416
尔	-13417
据	-13418
由	-13419
色	-13420
品	-13421
市	-13422
至	-13423
组	-13424
万	-13425
听	-13426
!	-13427
见	-13428
达	-13429
视	-13430
文	-13431
讲	-13432
海	-13433
难	-13434
头	-13435
吗	-13436
存	-13437
星	-13438
音	-13439
另	-13440
命	-13441
验	-13442
政	-13443
等	-13444
才	-13445
单	-13446
期	-13447
乐	-13448
气	-13449
形	-13450
示	-13451
息	-13452
诉	-13453
义	-13454
各	-13455
拉	-13456
民	-13457
管	-13458
记	-13459
模	-13460
神	-13461
例	-13462
空	-13463
走	-13464
传	-13465
打	-13466
必	-13467
演	-13468
整	-13469
越	-13470
交	-13471
反	-13472
际	-13473
持	-13474
故	-13475
二	-13476
项	-13477
助	-13478
先	-13479
边	-13480
资	-13481
复	-13482
医	-13483
照	-13484
选	-13485
安	-13486
字	-13487
细	-13488
光	-13489
立	-13490
又	-13491
吧	-13492
战	-13493
希	-13494
算	-13495
员	-13496
流	-13497
德	-13498
V	-13499
爱	-13500
百	-13501
声	-13502
质	-13503
标	-13504
约	-13505
联	-13506
亚	-13507
总	-13508
注	-13509
源	-13510
叫	-13511
快	-13512
测	-13513
线	-13514
·	-13515
英	-13516
跟	-13517
金	-13518
未	-13519
历	-13520
条	-13521
谈	-13522
收	-13523
型	-13524
老	-13525
喜	-13526
具	-13527
治	-13528
花	-13529
远	-13530
言	-13531
张	-13532
切	-13533
帮	-13534
简	-13535
马	-13536
死	-13537
环	-13538
取	-13539
失	-13540
师	-13541
语	-13542
路	-13543
须	-13544
极	-13545
转	-13546
某	-13547
书	-13548
显	-13549
欢	-13550
离	-13551
考	-13552
导	-13553
构	-13554
白	-13555
领	-13556
司	-13557
洲	-13558
案	-13559
月	-13560
奇	-13561
口	-13562
飞	-13563
近	-13564
食	-13565
响	-13566
众	-13567
共	-13568
消	-13569
段	-13570
住	-13571
强	-13572
元	-13573
况	-13574
趣	-13575
却	-13576
步	-13577
日	-13578
境	-13579
士	-13580
写	-13581
刚	-13582
料	-13583
城	-13584
%	-13585
根	-13586
指	-13587
错	-13588
服	-13589
哪	-13590
续	-13591
布	-13592
亲	-13593
四	-13594
效	-13595
集	-13596
男	-13597
画	-13598
甚	-13599
功	-13600
包	-13601
即	-13602
格	-13603
费	-13604
角	-13605
游	-13606
容	-13607
岁	-13608
周	-13609
议	-13610
)	-13611
室	-13612
尼	-13613
习	-13614
互	-13615
印	-13616
超	-13617
母	-13618
争	-13619
准	-13620
状	-13621
引	-13622
证	-13623
千	-13624
称	-13625
维	-13626
(	-13627
曾	-13628
权	-13629
首	-13630
深	-13631
济	-13632
求	-13633
备	-13634
兴	-13635
群	-13636
精	-13637
终	-13638
域	-13639
巴	-13640
速	-13641
便	-13642
值	-13643
供	-13644
友	-13645
育	-13646
疗	-13647
价	-13648
参	-13649
层	-13650
则	-13651
织	-13652
概	-13653
似	-13654
断	-13655
态	-13656
随	-13657
调	-13658
钱	-13659
乎	-13660
眼	-13661
拥	-13662
否	-13663
站	-13664
置	-13665
请	-13666
清	-13667
五	-13668
装	-13669
答	-13670
护	-13671
务	-13672
风	-13673
增	-13674
择	-13675
控	-13676
史	-13677
规	-13678
节	-13679
易	-13680
底	-13681
投	-13682
味	-13683
杂	-13684
预	-13685
念	-13686
微	-13687
激	-13688
症	-13689
报	-13690
房	-13691
足	-13692
林	-13693
干	-13694
台	-13695
满	-13696
尽	-13697
率	-13698
办	-13699
艺	-13700
黑	-13701
亿	-13702
致	-13703
获	-13704
阿	-13705
拿	-13706
专	-13707
胞	-13708
队	-13709
令	-13710
支	-13711
热	-13712
商	-13713
围	-13714
绝	-13715
罗	-13716
假	-13717
玩	-13718
查	-13719
止	-13720
门	-13721
刻	-13722
府	-13723
笑	-13724
往	-13725
校	-13726
药	-13727
轻	-13728
团	-13729
移	-13730
幸	-13731
素	-13732
富	-13733
纪	-13734
惊	-13735
待	-13736
密	-13737
连	-13738
险	-13739
除	-13740
号	-13741
低	-13742
石	-13743
早	-13744
愿	-13745
卡	-13746
推	-13747
录	-13748
半	-13749
朋	-13750
络	-13751
鱼	-13752
索	-13753
父	-13754
寻	-13755
米	-13756
察	-13757
读	-13758
害	-13759
享	-13760
巨	-13761
火	-13762
院	-13763
击	-13764
列	-13765
划	-13766
举	-13767
买	-13768
毒	-13769
差	-13770
筑	-13771
突	-13772
健	-13773
戏	-13774
停	-13775
探	-13776
坐	-13777
排	-13778
兰	-13779
释	-13780
吃	-13781
康	-13782
词	-13783
恐	-13784
谁	-13785
级	-13786
普	-13787
独	-13788
适	-13789
土	-13790
客	-13791
钟	-13792
广	-13793
博	-13794
拍	-13795
疾	-13796
落	-13797
座	-13798
份	-13799
充	-13800
讨	-13801
述	-13802
山	-13803
油	-13804
吸	-13805
困	-13806
景	-13807
较	-13808
歌	-13809
智	-13810
养	-13811
植	-13812
降	-13813
摄	-13814
宇	-13815
律	-13816
纳	-13817
♪	-13818
伊	-13819
[	-13820
]	-13821
块	-13822
危	-13823
州	-13824
尝	-13825
限	-13826
穿	-13827
频	-13828
久	-13829
妈	-13830
庭	-13831
伤	-13832
洋	-13833
福	-13834
杀	-13835
减	-13836
仍	-13837
继	-13838
阳	-13839
革	-13840
射	-13841
临	-13842
南	-13843
掉	-13844
夫	-13845
采	-13846
啊	-13847
留	-13848
依	-13849
宙	-13850
播	-13851
威	-13852
亡	-13853
晚	-13854
居	-13855
短	-13856
换	-13857
温	-13858
染	-13859
核	-13860
棒	-13861
压	-13862
破	-13863
暴	-13864
六	-13865
积	-13866
严	-13867
救	-13868
序	-13869
坏	-13870
挑	-13871
纸	-13872
掌	-13873
》	-13874
异	-13875
《	-13876
森	-13877
卫	-13878
哈	-13879
板	-13880
血	-13881
遇	-13882
树	-13883
犯	-13884
监	-13885
担	-13886
鼓	-13887
责	-13888
升	-13889
汽	-13890
’	-13891
军	-13892
努	-13893
善	-13894
背	-13895
课	-13896
官	-13897
益	-13898
肯	-13899
怕	-13900
虑	-13901
误	-13902
材	-13903
括	-13904
慢	-13905
势	-13906
策	-13907
癌	-13908
皮	-13909
触	-13910
波	-13911
免	-13912
左	-13913
承	-13914
描	-13915
靠	-13916
束	-13917
患	-13918
顿	-13919
镜	-13920
北	-13921
码	-13922
营	-13923
族	-13924
馆	-13925
送	-13926
农	-13927
抗	-13928
旅	-13929
古	-13930
局	-13931
红	-13932
哥	-13933
施	-13934
童	-13935
句	-13936
志	-13937
欧	-13938
剧	-13939
灵	-13940
顶	-13941
负	-13942
倍	-13943
永	-13944
虫	-13945
范	-13946
冰	-13947
右	-13948
紧	-13949
冲	-13950
怪	-13951
街	-13952
坦	-13953
园	-13954
优	-13955
舞	-13956
伦	-13957
菌	-13958
艾	-13959
纽	-13960
奥	-13961
唯	-13962
曲	-13963
丽	-13964
键	-13965
初	-13966
潜	-13967
户	-13968
痛	-13969
灯	-13970
媒	-13971
追	-13972
付	-13973
聚	-13974
修	-13975
双	-13976
防	-13977
船	-13978
虽	-13979
练	-13980
贫	-13981
版	-13982
端	-13983
含	-13984
塑	-13985
编	-13986
属	-13987
败	-13988
伯	-13989
软	-13990
疑	-13991
赛	-13992
梦	-13993
警	-13994
木	-13995
架	-13996
企	-13997
弹	-13998
职	-13999
输	-14000
配	-14001
八	-14002
评	-14003
按	-14004
沙	-14005
础	-14006
诺	-14007
训	-14008
般	-14009
圣	-14010
介	-14011
亮	-14012
楚	-14013
跳	-14014
卖	-14015
骨	-14016
罪	-14017
遍	-14018
励	-14019
华	-14020
盖	-14021
阶	-14022
闻	-14023
检	-14024
典	-14025
尺	-14026
贝	-14027
跑	-14028
缺	-14029
岛	-14030
恶	-14031
协	-14032
伟	-14033
迷	-14034
苦	-14035
略	-14036
暗	-14037
均	-14038
怀	-14039
妙	-14040
伙	-14041
河	-14042
洞	-14043
顾	-14044
塔	-14045
启	-14046
帝	-14047
翻	-14048
牛	-14049
穷	-14050
征	-14051
呼	-14052
坚	-14053
七	-14054
融	-14055
蓝	-14056
藏	-14057
酒	-14058
班	-14059
糟	-14060
捕	-14061
避	-14062
肉	-14063
奋	-14064
倒	-14065
Z	-14066
混	-14067
绿	-14068
埃	-14069
萨	-14070
幅	-14071
餐	-14072
X	-14073
笔	-14074
村	-14075
遗	-14076
店	-14077
章	-14078
脏	-14079
航	-14080
屋	-14081
堂	-14082
旧	-14083
托	-14084
析	-14085
碳	-14086
顺	-14087
派	-14088
私	-14089
距	-14090
渐	-14091
诗	-14092
幻	-14093
麻	-14094
姆	-14095
奖	-14096
谷	-14097
脚	-14098
蛋	-14099
冷	-14100
洛	-14101
妇	-14102
曼	-14103
财	-14104
折	-14105
隐	-14106
零	-14107
判	-14108
巧	-14109
熟	-14110
透	-14111
塞	-14112
弃	-14113
乱	-14114
拟	-14115
狂	-14116
睡	-14117
著	-14118
银	-14119
牙	-14120
套	-14121
迪	-14122
秘	-14123
培	-14124
楼	-14125
氧	-14126
竟	-14127
醒	-14128
脸	-14129
诊	-14130
奏	-14131
退	-14132
草	-14133
阻	-14134
蜂	-14135
款	-14136
麦	-14137
夜	-14138
灭	-14139
秒	-14140
衡	-14141
占	-14142
宗	-14143
迹	-14144
婚	-14145
莱	-14146
针	-14147
忆	-14148
操	-14149
猩	-14150
访	-14151
予	-14152
散	-14153
弄	-14154
毫	-14155
漫	-14156
途	-14157
弱	-14158
脱	-14159
伴	-14160
鼠	-14161
墙	-14162
祖	-14163
尤	-14164
轮	-14165
宝	-14166
授	-14167
「	-14168
鲁	-14169
」	-14170
炸	-14171
燃	-14172
狱	-14173
爸	-14174
票	-14175
衣	-14176
闭	-14177
青	-14178
龙	-14179
偏	-14180
唱	-14181
幕	-14182
浪	-14183
疫	-14184
丝	-14185
液	-14186
牌	-14187
竞	-14188
床	-14189
扩	-14190
猜	-14191
陆	-14192
震	-14193
页	-14194
惧	-14195
勒	-14196
刺	-14197
登	-14198
野	-14199
逐	-14200
狗	-14201
九	-14202
圈	-14203
估	-14204
固	-14205
斗	-14206
鸟	-14207
倾	-14208
宣	-14209
沉	-14210
搜	-14211
旦	-14212
爆	-14213
销	-14214
哦	-14215
忘	-14216
睛	-14217
粉	-14218
糕	-14219
雄	-14220
劳	-14221
恩	-14222
静	-14223
瑞	-14224
障	-14225
盘	-14226
缩	-14227
搞	-14228
仪	-14229
懂	-14230
聪	-14231
雨	-14232
良	-14233
蒂	-14234
彩	-14235
疯	-14236
/	-14237
径	-14238
毛	-14239
延	-14240
繁	-14241
蚁	-14242
旁	-14243
悲	-14244
毕	-14245
您	-14246
黄	-14247
Q	-14248
辆	-14249
损	-14250
朗	-14251
嗯	-14252
绕	-14253
迫	-14254
耗	-14255
额	-14256
堆	-14257
库	-14258
符	-14259
袋	-14260
赖	-14261
献	-14262
枪	-14263
滋	-14264
雷	-14265
默	-14266
彼	-14267
苏	-14268
漂	-14269
归	-14270
抱	-14271
耳	-14272
武	-14273
禁	-14274
乳	-14275
厂	-14276
杰	-14277
屏	-14278
烈	-14279
贵	-14280
佛	-14281
腿	-14282
执	-14283
虚	-14284
借	-14285
恰	-14286
礼	-14287
瓦	-14288
聊	-14289
封	-14290
附	-14291
露	-14292
挥	-14293
王	-14294
货	-14295
谓	-14296
辑	-14297
遭	-14298
毁	-14299
胜	-14300
载	-14301
铁	-14302
循	-14303
怖	-14304
急	-14305
松	-14306
泡	-14307
糖	-14308
储	-14309
握	-14310
碰	-14311
吉	-14312
绍	-14313
颜	-14314
龄	-14315
仿	-14316
绪	-14317
隔	-14318
跨	-14319
允	-14320
篇	-14321
购	-14322
箱	-14323
滑	-14324
洗	-14325
碍	-14326
绘	-14327
阅	-14328
审	-14329
弗	-14330
援	-14331
替	-14332
池	-14333
批	-14334
桌	-14335
污	-14336
乌	-14337
婴	-14338
邮	-14339
尾	-14340
灾	-14341
售	-14342
撞	-14343
颗	-14344
恋	-14345
粒	-14346
裂	-14347
驾	-14348
仰	-14349
残	-14350
稳	-14351
慧	-14352
稍	-14353
驶	-14354
抓	-14355
殊	-14356
蒙	-14357
尊	-14358
链	-14359
驱	-14360
促	-14361
贴	-14362
酷	-14363
弟	-14364
忽	-14365
摆	-14366
休	-14367
剂	-14368
赢	-14369
兵	-14370
摩	-14371
椅	-14372
省	-14373
守	-14374
恒	-14375
魔	-14376
惯	-14377
侵	-14378
肥	-14379
俄	-14380
奶	-14381
冒	-14382
签	-14383
荣	-14384
胁	-14385
踪	-14386
废	-14387
既	-14388
陷	-14389
•	-14390
仔	-14391
挺	-14392
丁	-14393
览	-14394
玛	-14395
诸	-14396
迎	-14397
旋	-14398
午	-14399
圆	-14400
扫	-14401
抽	-14402
殖	-14403
逃	-14404
汇	-14405
肢	-14406
副	-14407
岸	-14408
译	-14409
邀	-14410
汗	-14411
余	-14412
碎	-14413
厅	-14414
珊	-14415
雅	-14416
攻	-14417
股	-14418
喝	-14419
肤	-14420
香	-14421
宜	-14422
沟	-14423
烦	-14424
硬	-14425
穆	-14426
彻	-14427
慈	-14428
抑	-14429
妻	-14430
鲜	-14431
邦	-14432
赞	-14433
浮	-14434
秀	-14435
墨	-14436
菜	-14437
丹	-14438
偶	-14439
伸	-14440
朝	-14441
阴	-14442
乔	-14443
蜜	-14444
乡	-14445
帕	-14446
悉	-14447
剩	-14448
缘	-14449
烟	-14450
涉	-14451
烧	-14452
补	-14453
辩	-14454
呆	-14455
扎	-14456
磁	-14457
递	-14458
爬	-14459
苗	-14460
覆	-14461
夏	-14462
丰	-14463
瓶	-14464
忙	-14465
拜	-14466
沃	-14467
盛	-14468
峰	-14469
诞	-14470
乘	-14471
叶	-14472
轨	-14473
瑚	-14474
窗	-14475
邻	-14476
云	-14477
沿	-14478
党	-14479
姐	-14480
孤	-14481
抵	-14482
雪	-14483
猎	-14484
撒	-14485
末	-14486
焦	-14487
暖	-14488
戴	-14489
荷	-14490
鞋	-14491
讶	-14492
捐	-14493
泛	-14494
猫	-14495
若	-14496
菲	-14497
趋	-14498
圾	-14499
垃	-14500
缓	-14501
肿	-14502
凡	-14503
妹	-14504
饮	-14505
乏	-14506
诚	-14507
谱	-14508
扰	-14509
拯	-14510
呈	-14511
胡	-14512
恢	-14513
敢	-14514
跃	-14515
敦	-14516
杯	-14517
瘤	-14518
寿	-14519
桥	-14520
灰	-14521
纯	-14522
雇	-14523
勇	-14524
尖	-14525
徒	-14526
逊	-14527
岩	-14528
琴	-14529
搭	-14530
蚂	-14531
厌	-14532
啦	-14533
艰	-14534
腺	-14535
赋	-14536
饭	-14537
丧	-14538
兄	-14539
偷	-14540
忍	-14541
脉	-14542
噢	-14543
莫	-14544
盒	-14545
镇	-14546
昆	-14547
讯	-14548
振	-14549
洁	-14550
鸡	-14551
欲	-14552
潮	-14553
舒	-14554
钢	-14555
蚊	-14556
雕	-14557
漠	-14558
拒	-14559
羊	-14560
腐	-14561
赚	-14562
袭	-14563
啡	-14564
臂	-14565
迈	-14566
咖	-14567
喷	-14568
肌	-14569
敏	-14570
愈	-14571
翰	-14572
脊	-14573
敌	-14574
矿	-14575
佳	-14576
搬	-14577
酸	-14578
寄	-14579
兹	-14580
械	-14581
丢	-14582
鲨	-14583
季	-14584
怒	-14585
哲	-14586
谎	-14587
席	-14588
迅	-14589
泰	-14590
宽	-14591
荒	-14592
累	-14593
贡	-14594
堡	-14595
措	-14596
叠	-14597
渴	-14598
玻	-14599
耐	-14600
辨	-14601
鲸	-14602
摇	-14603
郁	-14604
霍	-14605
肺	-14606
卷	-14607
孕	-14608
赶	-14609
胶	-14610
映	-14611
甲	-14612
脆	-14613
磨	-14614
幼	-14615
招	-14616
盟	-14617
刷	-14618
杉	-14619
尚	-14620
币	-14621
娜	-14622
犹	-14623
眠	-14624
耍	-14625
昂	-14626
衰	-14627
旗	-14628
庄	-14629
鹅	-14630
猴	-14631
闪	-14632
骗	-14633
侧	-14634
芬	-14635
轴	-14636
摸	-14637
愤	-14638
箭	-14639
净	-14640
壁	-14641
横	-14642
惑	-14643
穴	-14644
刑	-14645
匹	-14646
暂	-14647
嘴	-14648
扔	-14649
截	-14650
珍	-14651
晨	-14652
框	-14653
瞬	-14654
莎	-14655
寸	-14656
孔	-14657
盲	-14658
袖	-14659
豪	-14660
‘	-14661
遥	-14662
汉	-14663
祝	-14664
填	-14665
湾	-14666
综	-14667
壮	-14668
敬	-14669
税	-14670
逻	-14671
隆	-14672
黎	-14673
卢	-14674
扮	-14675
欣	-14676
庞	-14677
插	-14678
&	-14679
莉	-14680
朵	-14681
谋	-14682
矛	-14683
梅	-14684
$	-14685
携	-14686
苹	-14687
践	-14688
委	-14689
丈	-14690
胎	-14691
赏	-14692
滚	-14693
督	-14694
耶	-14695
拼	-14696
澳	-14697
璃	-14698
割	-14699
熊	-14700
诱	-14701
春	-14702
盾	-14703
糊	-14704
涂	-14705
夺	-14706
抛	-14707
拖	-14708
挣	-14709
馈	-14710
哭	-14711
忧	-14712
泥	-14713
纵	-14714
凯	-14715
贷	-14716
桑	-14717
漏	-14718
奴	-14719
申	-14720
蛛	-14721
询	-14722
骑	-14723
纤	-14724
羞	-14725
庆	-14726
欺	-14727
绩	-14728
脂	-14729
裁	-14730
迁	-14731
哇	-14732
勃	-14733
叙	-14734
籍	-14735
薄	-14736
崩	-14737
蹈	-14738
刀	-14739
挂	-14740
淡	-14741
猪	-14742
胖	-14743
钻	-14744
嘛	-14745
梯	-14746
厨	-14747
档	-14748
遵	-14749
饥	-14750
饿	-14751
鼻	-14752
揭	-14753
磅	-14754
阵	-14755
─	-14756
戈	-14757
喻	-14758
渔	-14759
肃	-14760
髓	-14761
厚	-14762
牧	-14763
吓	-14764
罚	-14765
蠢	-14766
辛	-14767
陌	-14768
姻	-14769
帐	-14770
昨	-14771
疼	-14772
挖	-14773
肩	-14774
贸	-14775
陈	-14776
筹	-14777
晰	-14778
膜	-14779
悬	-14780
卵	-14781
叹	-14782
呀	-14783
扬	-14784
歧	-14785
疟	-14786
掘	-14787
泄	-14788
柱	-14789
滴	-14790
纹	-14791
罕	-14792
蝇	-14793
孙	-14794
田	-14795
违	-14796
逆	-14797
捉	-14798
杆	-14799
瑟	-14800
矶	-14801
返	-14802
尿	-14803
豚	-14804
饰	-14805
喂	-14806
恨	-14807
壳	-14808
萄	-14809
葡	-14810
宾	-14811
愚	-14812
吹	-14813
胸	-14814
伐	-14815
炎	-14816
辈	-14817
擅	-14818
湖	-14819
盗	-14820
粗	-14821
央	-14822
灌	-14823
膀	-14824
貌	-14825
锁	-14826
伍	-14827
礁	-14828
齿	-14829
桶	-14830
冠	-14831
踏	-14832
魂	-14833
剪	-14834
宫	-14835
弯	-14836
煤	-14837
租	-14838
赫	-14839
歉	-14840
齐	-14841
哺	-14842
惨	-14843
氢	-14844
泳	-14845
牢	-14846
鬼	-14847
氏	-14848
滤	-14849
芝	-14850
愉	-14851
擎	-14852
泽	-14853
滩	-14854
腊	-14855
催	-14856
册	-14857
渡	-14858
订	-14859
嘿	-14860
壤	-14861
廉	-14862
涌	-14863
粘	-14864
茨	-14865
隶	-14866
豆	-14867
冻	-14868
溃	-14869
牲	-14870
骤	-14871
浏	-14872
吨	-14873
囚	-14874
夸	-14875
娱	-14876
津	-14877
浓	-14878
稀	-14879
川	-14880
栖	-14881
详	-14882
凌	-14883
拆	-14884
账	-14885
醉	-14886
雌	-14887
兽	-14888
凝	-14889
叔	-14890
喊	-14891
琳	-14892
胆	-14893
虎	-14894
沮	-14895
祸	-14896
屠	-14897
翼	-14898
凭	-14899
弦	-14900
挤	-14901
晶	-14902
扭	-14903
薪	-14904
辱	-14905
溯	-14906
绳	-14907
饼	-14908
京	-14909
刊	-14910
召	-14911
坡	-14912
润	-14913
炼	-14914
睹	-14915
芯	-14916
茶	-14917
俱	-14918
悦	-14919
汤	-14920
港	-14921
署	-14922
肠	-14923
藻	-14924
魅	-14925
厕	-14926
噪	-14927
怨	-14928
粮	-14929
艘	-14930
闲	-14931
佩	-14932
兆	-14933
抢	-14934
栋	-14935
滥	-14936
甜	-14937
蓄	-14938
躺	-14939
鸦	-14940
埋	-14941
烤	-14942
詹	-14943
祷	-14944
辅	-14945
颠	-14946
畏	-14947
竭	-14948
幽	-14949
é	-14950
叉	-14951
妮	-14952
甘	-14953
痴	-14954
瘾	-14955
躲	-14956
辐	-14957
冬	-14958
宏	-14959
寒	-14960
挡	-14961
棵	-14962
盐	-14963
铺	-14964
尘	-14965
紫	-14966
肝	-14967
寓	-14968
狼	-14969
珠	-14970
缝	-14971
荡	-14972
螺	-14973
傻	-14974
劲	-14975
堵	-14976
拔	-14977
湿	-14978
猛	-14979
番	-14980
祈	-14981
骼	-14982
姿	-14983
惩	-14984
挪	-14985
俗	-14986
剥	-14987
堪	-14988
奔	-14989
廊	-14990
慰	-14991
栏	-14992
蒸	-14993
虐	-14994
撑	-14995
绑	-14996
罐	-14997
裔	-14998
鸣	-14999
伞	-15000
削	-15001
怜	-15002
讽	-15003
酱	-15004
荧	-15005
赌	-15006
逝	-15007
烂	-15008
胀	-15009
辞	-15010
郊	-15011
卓	-15012
吻	-15013
柏	-15014
蜘	-15015
誉	-15016
赠	-15017
孟	-15018
柔	-15019
耻	-15020
宁	-15021
涯	-15022
牺	-15023
迟	-15024
鉴	-15025
仁	-15026
佣	-15027
债	-15028
尸	-15029
斑	-15030
杜	-15031
粪	-15032
螂	-15033
伏	-15034
唤	-15035
垂	-15036
皇	-15037
衷	-15038
蝠	-15039
浸	-15040
贩	-15041
阐	-15042
饱	-15043
巢	-15044
钮	-15045
倡	-15046
傲	-15047
抬	-15048
歇	-15049
爷	-15050
玉	-15051
砍	-15052
惜	-15053
硅	-15054
雾	-15055
侣	-15056
厉	-15057
址	-15058
摧	-15059
旺	-15060
添	-15061
皆	-15062
篮	-15063
粹	-15064
蝙	-15065
豹	-15066
敲	-15067
纷	-15068
裤	-15069
囊	-15070
役	-15071
斥	-15072
瞧	-15073
膝	-15074
谜	-15075
韩	-15076
坞	-15077
泪	-15078
鲍	-15079
伽	-15080
俩	-15081
瓜	-15082
蛇	-15083
捷	-15084
旨	-15085
畅	-15086
舍	-15087
蛙	-15088
井	-15089
墓	-15090
崇	-15091
帽	-15092
膨	-15093
・	-15094
丛	-15095
擦	-15096
斜	-15097
腹	-15098
串	-15099
亦	-15100
匿	-15101
悟	-15102
憾	-15103
谐	-15104
攀	-15105
棉	-15106
闹	-15107
惠	-15108
兼	-15109
朱	-15110
炭	-15111
牵	-15112
狮	-15113
痕	-15114
肪	-15115
阔	-15116
丑	-15117
盈	-15118
赤	-15119
逼	-15120
忠	-15121
浴	-15122
窟	-15123
贯	-15124
劣	-15125
吞	-15126
拓	-15127
爵	-15128
耀	-15129
苍	-15130
丘	-15131
奉	-15132
扇	-15133
旱	-15134
虾	-15135
邪	-15136
黏	-15137
奸	-15138
橡	-15139
盯	-15140
稿	-15141
纠	-15142
衍	-15143
峡	-15144
拨	-15145
枝	-15146
谨	-15147
厘	-15148
榜	-15149
陪	-15150
岗	-15151
挽	-15152
摔	-15153
疲	-15154
砖	-15155
罩	-15156
剑	-15157
涵	-15158
翅	-15159
啤	-15160
涨	-15161
笨	-15162
腔	-15163
腾	-15164
瘫	-15165
艇	-15166
贾	-15167
募	-15168
宿	-15169
毯	-15170
肖	-15171
臭	-15172
契	-15173
妥	-15174
巾	-15175
浅	-15176
抚	-15177
棕	-15178
烹	-15179
韦	-15180
嗨	-15181
嘲	-15182
戒	-15183
掩	-15184
夹	-15185
姓	-15186
御	-15187
聆	-15188
卧	-15189
咨	-15190
姑	-15191
尬	-15192
尴	-15193
悔	-15194
淋	-15195
裕	-15196
【	-15197
】	-15198
勤	-15199
娃	-15200
廷	-15201
蔓	-15202
亨	-15203
伪	-15204
笼	-15205
剖	-15206
吐	-15207
柜	-15208
濒	-15209
葬	-15210
遮	-15211
~	-15212
汁	-15213
蕾	-15214
娘	-15215
婆	-15216
捞	-15217
斤	-15218
柯	-15219
泉	-15220
冥	-15221
哨	-15222
弊	-15223
彗	-15224
忌	-15225
耕	-15226
胃	-15227
蚀	-15228
跌	-15229
骄	-15230
垫	-15231
弥	-15232
晓	-15233
梁	-15234
蔬	-15235
霉	-15236
颂	-15237
啥	-15238
胰	-15239
舱	-15240
轰	-15241
鸽	-15242
恼	-15243
慌	-15244
押	-15245
燥	-15246
狭	-15247
痹	-15248
矩	-15249
呃	-15250
奈	-15251
宰	-15252
慨	-15253
撕	-15254
李	-15255
泊	-15256
罢	-15257
贪	-15258
卑	-15259
叛	-15260
扣	-15261
裸	-15262
劫	-15263
撼	-15264
渠	-15265
磷	-15266
饪	-15267
咬	-15268
屁	-15269
梭	-15270
烷	-15271
萤	-15272
鹰	-15273
嵌	-15274
慎	-15275
昏	-15276
篷	-15277
蜡	-15278
驼	-15279
仓	-15280
屈	-15281
棍	-15282
肾	-15283
裹	-15284
挨	-15285
痪	-15286
睁	-15287
胺	-15288
菇	-15289
钉	-15290
颈	-15291
匠	-15292
君	-15293
喔	-15294
奢	-15295
抖	-15296
沫	-15297
渗	-15298
猿	-15299
秩	-15300
谬	-15301
偿	-15302
塌	-15303
疏	-15304
硫	-15305
窃	-15306
翔	-15307
鹿	-15308
夷	-15309
碑	-15310
筒	-15311
肚	-15312
逮	-15313
–	-15314
凑	-15315
凶	-15316
株	-15317
氮	-15318
洪	-15319
皂	-15320
‧	-15321
厄	-15322
吁	-15323
姥	-15324
棘	-15325
漆	-15326
砸	-15327
蘑	-15328
踢	-15329
铜	-15330
+	-15331
啸	-15332
坑	-15333
宪	-15334
枯	-15335
锐	-15336
蕴	-15337
蛮	-15338
厦	-15339
掠	-15340
沼	-15341
笛	-15342
舌	-15343
芭	-15344
觅	-15345
诈	-15346
颇	-15347
飓	-15348
亏	-15349
唐	-15350
坠	-15351
宅	-15352
悄	-15353
扯	-15354
椎	-15355
醇	-15356
勾	-15357
晃	-15358
棋	-15359
琼	-15360
矮	-15361
竹	-15362
缆	-15363
酶	-15364
颤	-15365
骚	-15366
殿	-15367
窝	-15368
锋	-15369
韧	-15370
驻	-15371
仑	-15372
喘	-15373
巡	-15374
慷	-15375
拾	-15376
滞	-15377
筋	-15378
绵	-15379
钥	-15380
呐	-15381
摘	-15382
溶	-15383
爽	-15384
碗	-15385
缠	-15386
讼	-15387
陶	-15388
鳄	-15389
兔	-15390
坛	-15391
寺	-15392
披	-15393
抹	-15394
枚	-15395
秋	-15396
聘	-15397
酪	-15398
酬	-15399
铅	-15400
鸭	-15401
龟	-15402
券	-15403
匙	-15404
崭	-15405
愧	-15406
撤	-15407
糙	-15408
飘	-15409
妨	-15410
宠	-15411
寂	-15412
惹	-15413
涡	-15414
淫	-15415
炉	-15416
甸	-15417
荐	-15418
蜗	-15419
贿	-15420
#	-15421
倦	-15422
喀	-15423
拳	-15424
挫	-15425
淹	-15426
腕	-15427
趾	-15428
辉	-15429
饲	-15430
仇	-15431
崛	-15432
榄	-15433
橄	-15434
踩	-15435
乙	-15436
崖	-15437
氛	-15438
溜	-15439
稣	-15440
薯	-15441
躯	-15442
隙	-15443
僵	-15444
删	-15445
吵	-15446
喇	-15447
嫩	-15448
弓	-15449
柴	-15450
橙	-15451
茎	-15452
谦	-15453
镑	-15454
凉	-15455
壶	-15456
扶	-15457
撰	-15458
葛	-15459
鳍	-15460
侦	-15461
僚	-15462
卜	-15463
县	-15464
垮	-15465
屿	-15466
帆	-15467
悯	-15468
扑	-15469
拇	-15470
泣	-15471
溪	-15472
瓷	-15473
缚	-15474
翁	-15475
蟑	-15476
衫	-15477
谅	-15478
骂	-15479
鸿	-15480
哒	-15481
抉	-15482
汀	-15483
狄	-15484
畜	-15485
盆	-15486
眉	-15487
瞄	-15488
羽	-15489
腰	-15490
钩	-15491
骆	-15492
丸	-15493
诠	-15494
垒	-15495
宴	-15496
悠	-15497
敞	-15498
膊	-15499
蔽	-15500
诀	-15501
酵	-15502
锻	-15503
庇	-15504
庙	-15505
拐	-15506
桃	-15507
欠	-15508
砂	-15509
胳	-15510
咒	-15511
帜	-15512
泌	-15513
牠	-15514
硕	-15515
肆	-15516
芒	-15517
董	-15518
雀	-15519
俯	-15520
吊	-15521
坟	-15522
娅	-15523
搏	-15524
泵	-15525
浇	-15526
澡	-15527
皱	-15528
裙	-15529
辜	-15530
闷	-15531
呵	-15532
拘	-15533
捡	-15534
烛	-15535
窄	-15536
芽	-15537
茫	-15538
蕉	-15539
蝶	-15540
衬	-15541
颖	-15542
á	-15543
洒	-15544
禽	-15545
铃	-15546
陋	-15547
颁	-15548
仙	-15549
嫁	-15550
慕	-15551
淘	-15552
纱	-15553
蟹	-15554
隧	-15555
í	-15556
亩	-15557
侠	-15558
捏	-15559
桨	-15560
筛	-15561
誓	-15562
譬	-15563
趟	-15564
刹	-15565
夕	-15566
斐	-15567
杠	-15568
铸	-15569
锅	-15570
=	-15571
咱	-15572
庸	-15573
晕	-15574
爪	-15575
舟	-15576
萧	-15577
貘	-15578
躁	-15579
遣	-15580
铭	-15581
韵	-15582
嗅	-15583
戚	-15584
搅	-15585
炮	-15586
砰	-15587
碱	-15588
膏	-15589
蓬	-15590
藉	-15591
衔	-15592
～	-15593
哀	-15594
妓	-15595
晒	-15596
棚	-15597
氨	-15598
沾	-15599
涅	-15600
萎	-15601
冈	-15602
坎	-15603
峻	-15604
徙	-15605
枢	-15606
浩	-15607
淀	-15608
犬	-15609
狠	-15610
琐	-15611
迄	-15612
钞	-15613
霸	-15614
顽	-15615
_	-15616
―	-15617
咪	-15618
哮	-15619
噬	-15620
恤	-15621
瓣	-15622
畴	-15623
皿	-15624
盔	-15625
竖	-15626
蜣	-15627
乃	-15628
堕	-15629
墟	-15630
嫉	-15631
届	-15632
懒	-15633
扼	-15634
浑	-15635
纺	-15636
胚	-15637
萝	-15638
赐	-15639
驳	-15640
挠	-15641
眨	-15642
莓	-15643
谊	-15644
侈	-15645
函	-15646
匆	-15647
嘉	-15648
噩	-15649
姨	-15650
斧	-15651
煮	-15652
瘦	-15653
苯	-15654
贼	-15655
颅	-15656
饶	-15657
凸	-15658
刮	-15659
掷	-15660
撇	-15661
熵	-15662
稽	-15663
窍	-15664
筝	-15665
簧	-15666
绒	-15667
雏	-15668
骸	-15669
@	-15670
剔	-15671
哩	-15672
妆	-15673
嬉	-15674
悖	-15675
炒	-15676
疚	-15677
癫	-15678
赎	-15679
佐	-15680
侄	-15681
寨	-15682
弈	-15683
抄	-15684
狩	-15685
珀	-15686
稻	-15687
绞	-15688
缅	-15689
缸	-15690
茄	-15691
贺	-15692
佑	-15693
唇	-15694
巷	-15695
憎	-15696
椰	-15697
焰	-15698
熔	-15699
熬	-15700
痢	-15701
碟	-15702
蜓	-15703
蜻	-15704
诡	-15705
辍	-15706
酋	-15707
钓	-15708
锡	-15709
塘	-15710
履	-15711
廓	-15712
捆	-15713
栅	-15714
浆	-15715
渊	-15716
溉	-15717
溢	-15718
瀑	-15719
煌	-15720
琢	-15721
耸	-15722
螨	-15723
锯	-15724
卸	-15725
摊	-15726
朽	-15727
碌	-15728
脖	-15729
侮	-15730
匪	-15731
幢	-15732
柬	-15733
槽	-15734
甩	-15735
阁	-15736
陵	-15737
勉	-15738
喉	-15739
坪	-15740
妒	-15741
婪	-15742
栽	-15743
榈	-15744
渺	-15745
烯	-15746
痫	-15747
盼	-15748
虔	-15749
袜	-15750
靴	-15751
驰	-15752
咸	-15753
嘘	-15754
嚼	-15755
坊	-15756
娶	-15757
扁	-15758
挚	-15759
掏	-15760
棱	-15761
渣	-15762
滨	-15763
炫	-15764
痒	-15765
祭	-15766
藤	-15767
蠕	-15768
辣	-15769
铝	-15770
阱	-15771
顷	-15772
驯	-15773
奎	-15774
拦	-15775
沸	-15776
烁	-15777
焚	-15778
犸	-15779
秃	-15780
窥	-15781
豫	-15782
逗	-15783
«	-15784
»	-15785
仗	-15786
僧	-15787
勘	-15788
埔	-15789
巫	-15790
栓	-15791
氦	-15792
溺	-15793
烘	-15794
玫	-15795
碧	-15796
舅	-15797
舰	-15798
蛎	-15799
贬	-15800
酿	-15801
闯	-15802
嘈	-15803
坝	-15804
婷	-15805
懈	-15806
拽	-15807
於	-15808
橘	-15809
獾	-15810
疤	-15811
纬	-15812
肘	-15813
艳	-15814
虹	-15815
谴	-15816
逛	-15817
酯	-15818
劝	-15819
匈	-15820
恕	-15821
戮	-15822
殴	-15823
肮	-15824
贤	-15825
逸	-15826
锤	-15827
陡	-15828
黛	-15829
ç	-15830
僻	-15831
刘	-15832
叭	-15833
哎	-15834
掀	-15835
摒	-15836
桩	-15837
椒	-15838
泻	-15839
牡	-15840
狸	-15841
瞎	-15842
馅	-15843
髋	-15844
刃	-15845
叮	-15846
呜	-15847
拷	-15848
捣	-15849
槛	-15850
葱	-15851
跤	-15852
辟	-15853
骇	-15854
凿	-15855
妄	-15856
嫌	-15857
孢	-15858
巅	-15859
弧	-15860
旷	-15861
汰	-15862
泼	-15863
淆	-15864
潘	-15865
燕	-15866
疆	-15867
绎	-15868
蝴	-15869
诫	-15870
赂	-15871
趁	-15872
逾	-15873
钙	-15874
饵	-15875
驭	-15876
ã	-15877
垄	-15878
後	-15879
恻	-15880
毋	-15881
汲	-15882
澄	-15883
熄	-15884
瞰	-15885
绷	-15886
薇	-15887
螈	-15888
袍	-15889
诵	-15890
谣	-15891
鄂	-15892
陀	-15893
鞭	-15894
ó	-15895
咳	-15896
圭	-15897
寡	-15898
恭	-15899
恳	-15900
捍	-15901
搁	-15902
栩	-15903
沥	-15904
瑰	-15905
祥	-15906
稚	-15907
稠	-15908
芥	-15909
蹲	-15910
辖	-15911
铲	-15912
魁	-15913
°	-15914
丙	-15915
倚	-15916
匮	-15917
咯	-15918
昧	-15919
柄	-15920
梳	-15921
翠	-15922
臣	-15923
蹦	-15924
陨	-15925
麽	-15926
亭	-15927
厢	-15928
峭	-15929
帅	-15930
帘	-15931
惫	-15932
拙	-15933
橱	-15934
毅	-15935
沛	-15936
浦	-15937
淑	-15938
犀	-15939
疹	-15940
睾	-15941
矫	-15942
簿	-15943
缪	-15944
萌	-15945
蝾	-15946
亥	-15947
冯	-15948
吱	-15949
坍	-15950
惰	-15951
杏	-15952
汪	-15953
煎	-15954
禧	-15955
芳	-15956
苛	-15957
茅	-15958
螃	-15959
褶	-15960
迦	-15961
钦	-15962
è	-15963
侯	-15964
匀	-15965
吼	-15966
咀	-15967
咽	-15968
嘻	-15969
奠	-15970
屑	-15971
帧	-15972
扉	-15973
拱	-15974
昭	-15975
晋	-15976
曝	-15977
枕	-15978
殆	-15979
碾	-15980
紊	-15981
纲	-15982
绸	-15983
谚	-15984
郎	-15985
鄙	-15986
铀	-15987
颚	-15988
嘟	-15989
孵	-15990
徽	-15991
恍	-15992
暑	-15993
沦	-15994
涸	-15995
