{
  "version": "1.0",
  "truncation": null,
  "padding": null,
  "added_tokens": [
    {
      "id": 0,
      "content": "<pad>",
      "single_word": false,
      "lstrip": false,
      "rstrip": false,
      "normalized": false,
      "special": true
    },
    {
      "id": 1,
      "content": "<unk>",
      "single_word": false,
      "lstrip": false,
      "rstrip": false,
      "normalized": false,
      "special": true
    },
    {
      "id": 2,
      "content": "<sos>",
      "single_word": false,
      "lstrip": false,
      "rstrip": false,
      "normalized": false,
      "special": true
    },
    {
      "id": 3,
      "content": "<eos>",
      "single_word": false,
      "lstrip": false,
      "rstrip": false,
      "normalized": false,
      "special": true
    }
  ],
  "normalizer": null,
  "pre_tokenizer": {
    "type": "ByteLevel",
    "add_prefix_space": false,
    "trim_offsets": true,
    "use_regex": true
  },
  "post_processor": null,
  "decoder": {
    "type": "ByteLevel",
    "add_prefix_space": true,
    "trim_offsets": true,
    "use_regex": true
  },
  "model": {
    "type": "BPE",
    "dropout": null,
    "unk_token": "<unk>",
    "continuing_subword_prefix": null,
    "end_of_word_suffix": null,
    "fuse_unk": false,
    "byte_fallback": false,
    "ignore_merges": false,
    "vocab": {
      "<pad>": 0,
      "<unk>": 1,
      "<sos>": 2,
      "<eos>": 3,
      "!": 4,
      "\"": 5,
      "#": 6,
      "$": 7,
      "%": 8,
      "&": 9,
      "'": 10,
      "(": 11,
      ")": 12,
      "*": 13,
      "+": 14,
      ",": 15,
      "-": 16,
      ".": 17,
      "/": 18,
      "0": 19,
      "1": 20,
      "2": 21,
      "3": 22,
      "4": 23,
      "5": 24,
      "6": 25,
      "7": 26,
      "8": 27,
      "9": 28,
      ":": 29,
      ";": 30,
      "=": 31,
      "?": 32,
      "@": 33,
      "A": 34,
      "B": 35,
      "C": 36,
      "D": 37,
      "E": 38,
      "F": 39,
      "G": 40,
      "H": 41,
      "I": 42,
      "J": 43,
      "K": 44,
      "L": 45,
      "M": 46,
      "N": 47,
      "O": 48,
      "P": 49,
      "Q": 50,
      "R": 51,
      "S": 52,
      "T": 53,
      "U": 54,
      "V": 55,
      "W": 56,
      "X": 57,
      "Y": 58,
      "Z": 59,
      "[": 60,
      "]": 61,
      "^": 62,
      "_": 63,
      "`": 64,
      "a": 65,
      "b": 66,
      "c": 67,
      "d": 68,
      "e": 69,
      "f": 70,
      "g": 71,
      "h": 72,
      "i": 73,
      "j": 74,
      "k": 75,
      "l": 76,
      "m": 77,
      "n": 78,
      "o": 79,
      "p": 80,
      "q": 81,
      "r": 82,
      "s": 83,
      "t": 84,
      "u": 85,
      "v": 86,
      "w": 87,
      "x": 88,
      "y": 89,
      "z": 90,
      "{": 91,
      "~": 92,
      "¡": 93,
      "¢": 94,
      "£": 95,
      "¤": 96,
      "¥": 97,
      "¦": 98,
      "§": 99,
      "¨": 100,
      "©": 101,
      "ª": 102,
      "«": 103,
      "¬": 104,
      "®": 105,
      "¯": 106,
      "°": 107,
      "±": 108,
      "²": 109,
      "³": 110,
      "´": 111,
      "µ": 112,
      "¶": 113,
      "·": 114,
      "¸": 115,
      "¹": 116,
      "º": 117,
      "»": 118,
      "¼": 119,
      "½": 120,
      "¾": 121,
      "¿": 122,
      "Â": 123,
      "Ã": 124,
      "Ä": 125,
      "Å": 126,
      "Ë": 127,
      "Î": 128,
      "Ï": 129,
      "Ð": 130,
      "à": 131,
      "â": 132,
      "ã": 133,
      "ä": 134,
      "å": 135,
      "æ": 136,
      "ç": 137,
      "è": 138,
      "é": 139,
      "ï": 140,
      "Ġ": 141,
      "Ģ": 142,
      "ģ": 143,
      "Ĥ": 144,
      "ĥ": 145,
      "Ħ": 146,
      "ħ": 147,
      "Ĩ": 148,
      "ĩ": 149,
      "Ī": 150,
      "ī": 151,
      "Ĭ": 152,
      "ĭ": 153,
      "Į": 154,
      "į": 155,
      "İ": 156,
      "ı": 157,
      "Ĳ": 158,
      "ĳ": 159,
      "Ĵ": 160,
      "ĵ": 161,
      "Ķ": 162,
      "ķ": 163,
      "ĸ": 164,
      "Ĺ": 165,
      "ĺ": 166,
      "Ļ": 167,
      "ļ": 168,
      "Ľ": 169,
      "ľ": 170,
      "Ŀ": 171,
      "ŀ": 172,
      "Ł": 173,
      "ł": 174,
      "Ń": 175,
      "Ġt": 176,
      "ä¸": 177,
      "Ġth": 178,
      "Ġa": 179,
      "in": 180,
      "çļ": 181,
      "çļĦ": 182,
      "ä»": 183,
      "ï¼": 184,
      "Ġw": 185,
      "Ġthe": 186,
      "re": 187,
      "ï¼Į": 188,
      "Ġo": 189,
      "äº": 190,
      "Ġs": 191,
      "at": 192,
      "æĪ": 193,
      "er": 194,
      "nd": 195,
      "ou": 196,
      "æĪĳ": 197,
      "è¿": 198,
      "ãĢ": 199,
      "Ġc": 200,
      "is": 201,
      "ãĢĤ": 202,
      "æĺ": 203,
      "it": 204,
      "Ġb": 205,
      "ing": 206,
      "Ġm": 207,
      "en": 208,
      "æľ": 209,
      "Ġh": 210,
      "æĺ¯": 211,
      "on": 212,
      "ä»¬": 213,
      "Ġto": 214,
      "ä½": 215,
      "Ġp": 216,
      "åı": 217,
      "Ġf": 218,
      "an": 219,
      "es": 220,
      "åľ": 221,
      "ä¸Ģ": 222,
      "Ġd": 223,
      "or": 224,
      "Ġof": 225,
      "ll": 226,
      "Ġin": 227,
      "è¿Ļ": 228,
      "å®": 229,
      "å¤": 230,
      "åĪ": 231,
      "Ġand": 232,
      "ed": 233,
      "Ġl": 234,
      "ar": 235,
      "åľ¨": 236,
      "Ġthat": 237,
      "Ġy": 238,
      "ä¹": 239,
      "ä¸ª": 240,
      "om": 241,
      "åħ": 242,
      "Ġg": 243,
      "å°": 244,
      "as": 245,
      "æĪĳä»¬": 246,
      "ic": 247,
      "åĲ": 248,
      "æľī": 249,
      "le": 250,
      "çĶ": 251,
      "ve": 252,
      "Ġyou": 253,
      "al": 254,
      "Ġwe": 255,
      "ĠI": 256,
      "Ġn": 257,
      "è¯": 258,
      "Ġwh": 259,
      "äºĨ": 260,
      "ow": 261,
      "ç»": 262,
      "us": 263,
      "Ġe": 264,
      "Ġis": 265,
      "è®": 266,
      "Ġbe": 267,
      "ut": 268,
      "ä¸į": 269,
      "Ġit": 270,
      "äºº": 271,
      "ion": 272,
      "åĽ": 273,
      "ä¼": 274,
      "å¾": 275,
      "æĿ": 276,
      "ot": 277,
      "ĥ½": 278,
      "ä½ł": 279,
      "et": 280,
      "'s": 281,
      "æī": 282,
      "åŃ": 283,
      "ä»ĸ": 284,
      "âĢ": 285,
      "çļĦæ": 286,
      "Ġre": 287,
      "ent": 288,
      "Ġha": 289,
      "ct": 290,
      "Ġon": 291,
      "éĩ": 292,
      "ld": 293,
      "åĬ": 294,
      "åĪ°": 295,
      "ver": 296,
      "å¹": 297,
      "ay": 298,
      "ä»¥": 299,
      "Th": 300,
      "id": 301,
      "èĢ": 302,
      "And": 303,
      "ä¸º": 304,
      "se": 305,
      "all": 306,
      "å¥": 307,
      "æĹ": 308,
      "im": 309,
      "æĿ¥": 310,
      "Ġthis": 311,
      "st": 312,
      "æĸ": 313,
      "ro": 314,
      "ig": 315,
      "ä¸Ģä¸ª": 316,
      "å°±": 317,
      "å¸": 318,
      "ur": 319,
      "å¼": 320,
      "å·": 321,
      "è§": 322,
      "äºĽ": 323,
      "ch": 324,
      "ly": 325,
      "Ġst": 326,
      "ere": 327,
      "ä¼ļ": 328,
      "çľ": 329,
      "æĥ": 330,
      "åį": 331,
      "èĥ½": 332,
      "ä¸Ĭ": 333,
      "æł": 334,
      "ke": 335,
      "ç§": 336,
      "å¯": 337,
      "åı¯": 338,
      "ce": 339,
      "éĤ": 340,
      "å¤§": 341,
      "¦ģ": 342,
      "Ġfor": 343,
      "çİ": 344,
      "if": 345,
      "è¦ģ": 346,
      "çī": 347,
      "å½": 348,
      "Ġwas": 349,
      "åĩ": 350,
      "ra": 351,
      "æĢ": 352,
      "éĤ£": 353,
      "åĴ": 354,
      "å®ĥ": 355,
      "æŃ": 356,
      "ir": 357,
      "--": 358,
      "åĴĮ": 359,
      "åº": 360,
      "å¦": 361,
      "Ġan": 362,
      "çĶŁ": 363,
      "Ġdo": 364,
      "éĿ": 365,
      "åİ": 366,
      "Ġare": 367,
      "éĹ": 368,
      "ä»ĸä»¬": 369,
      "oo": 370,
      "éĢ": 371,
      "ith": 372,
      "åĨ": 373,
      "op": 374,
      "æīĢ": 375,
      "ally": 376,
      "th": 377,
      "çĽ": 378,
      "am": 379,
      "æĬ": 380,
      "ä¸Ń": 381,
      "æŀ": 382,
      "Ġhave": 383,
      "åģ": 384,
      "Ġwith": 385,
      "èĩ": 386,
      "æķ": 387,
      "Ġab": 388,
      "ä¹Ī": 389,
      "Ġu": 390,
      "Ġthey": 391,
      "Ġ--": 392,
      "Ġse": 393,
      "å¦Ĥ": 394,
      "åĳ": 395,
      "Ġk": 396,
      "è¡": 397,
      "Ġcan": 398,
      "èµ": 399,
      "è¯´": 400,
      "çľĭ": 401,
      "æ²": 402,
      "çİ°": 403,
      "Ġmo": 404,
      "æ¯": 405,
      "ation": 406,
      "Ġas": 407,
      "æĹ¶": 408,
      "out": 409,
      "éĩĮ": 410,
      "ht": 411,
      "å¾Ī": 412,
      "æĦ": 413,
      "å¤ļ": 414,
      "åĮ": 415,
      "Ġli": 416,
      "æĥ³": 417,
      "Ġso": 418,
      "çĶ¨": 419,
      "å¿": 420,
      "å¯¹": 421,
      "æł·": 422,
      "Ġgo": 423,
      "è¿ĩ": 424,
      "åľ°": 425,
      "ad": 426,
      "So": 427,
      "Ġwhat": 428,
      "ä½Ĩ": 429,
      "Ġwor": 430,
      "Ġcom": 431,
      "'t": 432,
      "Ġhe": 433,
      "åĽł": 434,
      "ä¹Ł": 435,
      "èĢĮ": 436,
      "very": 437,
      "ould": 438,
      "ill": 439,
      "äºĭ": 440,
      "éĥ½": 441,
      "Ġme": 442,
      "Ġat": 443,
      "è¿Ļä¸ª": 444,
      "Ġsh": 445,
      "åıĳ": 446,
      "çļĦç": 447,
      "Ġabout": 448,
      "Ġne": 449,
      "ter": 450,
      "ant": 451,
      "é¢": 452,
      "Ġnot": 453,
      "å®¶": 454,
      "ge": 455,
      "il": 456,
      "å¾Ĺ": 457,
      "äºİ": 458,
      "éģ": 459,
      "åı¯ä»¥": 460,
      "åĲİ": 461,
      "ç§į": 462,
      "ol": 463,
      "åģļ": 464,
      "æĶ": 465,
      "æ³": 466,
      "ï¼Ł": 467,
      "å¹´": 468,
      "ul": 469,
      "ust": 470,
      "The": 471,
      "èĩª": 472,
      "Ġall": 473,
      "ers": 474,
      "å½ĵ": 475,
      "Ġj": 476,
      "åŃ¦": 477,
      "åŃĲ": 478,
      "Ġex": 479,
      "Ġfr": 480,
      "æĪĲ": 481,
      "âĢľ": 482,
      "æĭ": 483,
      "use": 484,
      "å®ŀ": 485,
      "çĦ": 486,
      "ä½ľ": 487,
      "åĩº": 488,
      "Ġpro": 489,
      "ight": 490,
      "è¿ĻäºĽ": 491,
      "Ġch": 492,
      "Ġsom": 493,
      "Ġr": 494,
      "çĦ¶": 495,
      "æİ": 496,
      "Ġor": 497,
      "Ġde": 498,
      "Ġmy": 499,
      "çŁ": 500,
      "We": 501,
      "âĢĿ": 502,
      "åİ»": 503,
      "Ġthere": 504,
      "Ġpe": 505,
      "çĿ": 506,
      "art": 507,
      "è°": 508,
      "00": 509,
      "çĲ": 510,
      "æĽ": 511,
      "æŀľ": 512,
      "ear": 513,
      "um": 514,
      "ä¿": 515,
      "'re": 516,
      "ople": 517,
      "ä¸ĭ": 518,
      "å¥½": 519,
      "ck": 520,
      "pp": 521,
      "çº": 522,
      "è´": 523,
      "ate": 524,
      "Ġcon": 525,
      "Ġlike": 526,
      "ess": 527,
      "Ġ\"": 528,
      "ies": 529,
      "ure": 530,
      "Ġpeople": 531,
      "å¼Ģ": 532,
      "æ²¡": 533,
      "ity": 534,
      "Ġone": 535,
      "å±": 536,
      "ç»ı": 537,
      "æ´": 538,
      "ive": 539,
      "æľĢ": 540,
      "æ°": 541,
      "ca": 542,
      "nt": 543,
      "åĽ½": 544,
      "ä¹ĭ": 545,
      "est": 546,
      "æµ": 547,
      "åĲĮ": 548,
      "Ġma": 549,
      "éĻ": 550,
      "Ġfrom": 551,
      "ĠæĪĳ": 552,
      "çī©": 553,
      "çĿĢ": 554,
      "åĪĨ": 555,
      "è¿ĺ": 556,
      "åĵ": 557,
      "ect": 558,
      "ist": 559,
      "Ġkn": 560,
      "éģĵ": 561,
      "åī": 562,
      "åĢ": 563,
      "ble": 564,
      "ä»Ģ": 565,
      "qu": 566,
      "å°±æĺ¯": 567,
      "Ġbut": 568,
      "è¾": 569,
      "Ġour": 570,
      "ä»Ģä¹Ī": 571,
      "ind": 572,
      "ï¼ļ": 573,
      "åħ¶": 574,
      "ink": 575,
      "Ġus": 576,
      "Ġal": 577,
      "Ġout": 578,
      "è¡Į": 579,
      "ĠæĪĳä»¬": 580,
      "ä»İ": 581,
      "åĬ¨": 582,
      "éĹ®": 583,
      "Ġte": 584,
      "Ġjust": 585,
      "åŁ": 586,
      "It": 587,
      "un": 588,
      "rou": 589,
      "ook": 590,
      "Ġint": 591,
      "Ġknow": 592,
      "çŁ¥": 593,
      "æĸ¹": 594,
      "Ġv": 595,
      "è½": 596,
      "åĽłä¸º": 597,
      "å¸¸": 598,
      "è®©": 599,
      "èĢħ": 600,
      "éĿ¢": 601,
      "and": 602,
      "è¢": 603,
      "å¹¶": 604,
      "ĠA": 605,
      "Ġthing": 606,
      "è¿Ļæĺ¯": 607,
      "cause": 608,
      "çķ": 609,
      "éĿŀ": 610,
      "æ³ķ": 611,
      "Ġthem": 612,
      "ide": 613,
      "But": 614,
      "ie": 615,
      "Ġsp": 616,
      "os": 617,
      "æ¬": 618,
      "èµ·": 619,
      "Ġsee": 620,
      "her": 621,
      "åıĺ": 622,
      "å¦Ĥæŀľ": 623,
      "ort": 624,
      "Ġthese": 625,
      "ç¾": 626,
      "Ġtr": 627,
      "Ġup": 628,
      "Ġif": 629,
      "âĢĶ": 630,
      "Ġvery": 631,
      "è¶": 632,
      "Ġwho": 633,
      "Ġthink": 634,
      "æĽ´": 635,
      "åĬĽ": 636,
      "çĤ": 637,
      "æľº": 638,
      "åıª": 639,
      "ĠS": 640,
      "Ġget": 641,
      "ç©": 642,
      "Ġpl": 643,
      "é¡": 644,
      "Ġ1": 645,
      "æĢ§": 646,
      "æĬĬ": 647,
      "ä¾": 648,
      "è¢«": 649,
      "ich": 650,
      "æĦı": 651,
      "el": 652,
      "æ²¡æľī": 653,
      "ci": 654,
      "ç®": 655,
      "éĹ´": 656,
      "é¢ĺ": 657,
      "æŃ£": 658,
      "Ġby": 659,
      "Ġgoing": 660,
      "å¤©": 661,
      "æĮ": 662,
      "åīį": 663,
      "one": 664,
      "åħ³": 665,
      "ä¸ĸ": 666,
      "å§": 667,
      "æīĢä»¥": 668,
      "ain": 669,
      "å°ı": 670,
      "å·¥": 671,
      "iv": 672,
      "Ġsome": 673,
      "ä½ĵ": 674,
      "åĥ": 675,
      "Ġact": 676,
      "çİ°åľ¨": 677,
      "Ġwhen": 678,
      "éľ": 679,
      "Ġhad": 680,
      "ĠC": 681,
      "Ġmore": 682,
      "æĪĸ": 683,
      "Ġbecause": 684,
      "å°Ĩ": 685,
      "åĥı": 686,
      "è·": 687,
      "Wh": 688,
      "Ġyour": 689,
      "em": 690,
      "è¿Ľ": 691,
      "çĤ¹": 692,
      "Ġyear": 693,
      "å¥¹": 694,
      "Ġwere": 695,
      "ç½": 696,
      "og": 697,
      "ç«": 698,
      "Ġsa": 699,
      "our": 700,
      "Ġwould": 701,
      "Ġim": 702,
      "ç³": 703,
      "éĩį": 704,
      "Ġtim": 705,
      "ine": 706,
      "èĦ": 707,
      "çŃ": 708,
      "od": 709,
      "è¿Ļæł·": 710,
      "çķĮ": 711,
      "çŁ¥éģĵ": 712,
      "Ġåľ¨": 713,
      "Ġtheir": 714,
      "éĺ": 715,
      "çĲĨ": 716,
      "éĹ®é¢ĺ": 717,
      "åħ¨": 718,
      "Ġwhich": 719,
      "Ġlook": 720,
      "ment": 721,
      "ç±": 722,
      "ame": 723,
      "Ġwant": 724,
      "ast": 725,
      "Ġwork": 726,
      "æ¯Ķ": 727,
      "Ġhow": 728,
      "åĮĸ": 729,
      "éĥ": 730,
      "çĽ¸": 731,
      "ç¬": 732,
      "Ġta": 733,
      "Ġreally": 734,
      "Ġcomp": 735,
      "ĠM": 736,
      "iz": 737,
      "Ġsu": 738,
      "æĥħ": 739,
      ".\"": 740,
      "éļ": 741,
      "æģ": 742,
      "ä½Ĩæĺ¯": 743,
      "è§£": 744,
      "ard": 745,
      "ually": 746,
      "æŃ¤": 747,
      "ç»Ļ": 748,
      "ous": 749,
      "çļĦäºº": 750,
      "ood": 751,
      "ack": 752,
      "ä½ķ": 753,
      "ç¾İ": 754,
      "èī": 755,
      "act": 756,
      "gh": 757,
      "'ve": 758,
      "ä¸įæĺ¯": 759,
      "¥¿": 760,
      "æķ°": 761,
      "å®ļ": 762,
      "ä¿¡": 763,
      "ap": 764,
      "Ġen": 765,
      "éľĢ": 766,
      "reat": 767,
      "æĦŁ": 768,
      "éĥ¨": 769,
      "çļĦæĹ": 770,
      "ose": 771,
      "çľŁ": 772,
      "Ġway": 773,
      "hing": 774,
      "ä½łä»¬": 775,
      "è¥¿": 776,
      "ãĢģ": 777,
      "éķ": 778,
      "You": 779,
      "å¿ĥ": 780,
      "èĤ": 781,
      "ç¤": 782,
      "æľ¬": 783,
      "çĹ": 784,
      "å§ĭ": 785,
      "ore": 786,
      "'m": 787,
      "åĢĻ": 788,
      "Ġle": 789,
      "ä½¿": 790,
      "are": 791,
      "å·±": 792,
      "Ġworld": 793,
      "ä¸ĸçķĮ": 794,
      "ab": 795,
      "èĩªå·±": 796,
      "æı": 797,
      "ä¸İ": 798,
      "å®ĥä»¬": 799,
      "ans": 800,
      "æį": 801,
      "Ġhere": 802,
      "Ġhas": 803,
      "ag": 804,
      "Ġtime": 805,
      "åº¦": 806,
      "ther": 807,
      "åĿ": 808,
      "é£": 809,
      "çĶµ": 810,
      "Ġthen": 811,
      "This": 812,
      "è®¤": 813,
      "æĸ°": 814,
      "éĿŀå¸¸": 815,
      "Ġper": 816,
      "ong": 817,
      "çĻ": 818,
      "Ġevery": 819,
      "æĹł": 820,
      "ä¸Ķ": 821,
      "Ġqu": 822,
      "ĠB": 823,
      "åºĶ": 824,
      "è®¡": 825,
      "ace": 826,
      "ĠèĢĮ": 827,
      "âĻ": 828,
      "æ¯ı": 829,
      "Ġdon": 830,
      "Ġexp": 831,
      "å¼Ģå§ĭ": 832,
      "ç¨": 833,
      "Ġcould": 834,
      "ç³»": 835,
      "Ġinto": 836,
      "Ġman": 837,
      "ä¸ĢäºĽ": 838,
      "å·²": 839,
      "éĢļ": 840,
      "çļĦæĹ¶": 841,
      "Ġev": 842,
      "ions": 843,
      "Ġactually": 844,
      "res": 845,
      "ud": 846,
      "Ġwill": 847,
      "Ġfe": 848,
      "Ġsay": 849,
      "éľĢè¦ģ": 850,
      "ild": 851,
      "å»": 852,
      "ç±»": 853,
      "Ġco": 854,
      "æĺİ": 855,
      "ence": 856,
      "çľĭåĪ°": 857,
      "Ġwhere": 858,
      "æ´»": 859,
      "å£": 860,
      "itt": 861,
      "æ¸": 862,
      "åı¯èĥ½": 863,
      "age": 864,
      "Ġnow": 865,
      "éĩı": 866,
      "Ġyears": 867,
      "åĪ¶": 868,
      "çī¹": 869,
      "Ġthings": 870,
      "Ġè¿Ļ": 871,
      "Ġdid": 872,
      "Ġag": 873,
      "åħ¬": 874,
      "Ġother": 875,
      "éĽ": 876,
      "alk": 877,
      "éĢł": 878,
      "å¼ı": 879,
      "çł": 880,
      "Ġä½ł": 881,
      "åĬł": 882,
      "çĦ¶åĲİ": 883,
      "ff": 884,
      "Now": 885,
      "éķ¿": 886,
      "ach": 887,
      "æĸ¯": 888,
      "Ġsomet": 889,
      "æŁ": 890,
      "é«": 891,
      "nder": 892,
      "iff": 893,
      "èº": 894,
      "They": 895,
      "èģ": 896,
      "Ġ2": 897,
      "è®¾": 898,
      "çļĦæĺ¯": 899,
      "Ġbeen": 900,
      "ical": 901,
      "è§ī": 902,
      "ä¸ľ": 903,
      "ĠG": 904,
      "Ġany": 905,
      "æīĭ": 906,
      "æ¬¡": 907,
      "ç»ĵ": 908,
      "Ġmake": 909,
      "Ġno": 910,
      "éª": 911,
      "ice": 912,
      "çĸ": 913,
      "Ġcl": 914,
      "ip": 915,
      "æİ¥": 916,
      "é«ĺ": 917,
      "Ġdiff": 918,
      "çĪ": 919,
      "åŃ©": 920,
      "Ġhapp": 921,
      "èĬ": 922,
      "åĪ©": 923,
      "Ġthan": 924,
      "so": 925,
      "èĥ": 926,
      "ä¸¤": 927,
      "éĤ£äºĽ": 928,
      "Ġneed": 929,
      "Ġæĺ¯": 930,
      "ĠE": 931,
      "åŁº": 932,
      "âĻ«": 933,
      "æĪĳçļĦ": 934,
      "å»º": 935,
      "åĽŀ": 936,
      "Ġtw": 937,
      "Ġun": 938,
      "åĻ": 939,
      "æĻ": 940,
      "æīĢæľī": 941,
      "red": 942,
      "åĸ": 943,
      "èº«": 944,
      "Ġstart": 945,
      "Ġpr": 946,
      "å¢": 947,
      "åħ¥": 948,
      "ĠåĽłä¸º": 949,
      "åĲĪ": 950,
      "Ġright": 951,
      "æľ¯": 952,
      "è¡¨": 953,
      "è°¢": 954,
      "ĠP": 955,
      "irst": 956,
      "è®º": 957,
      "Ġpart": 958,
      "ia": 959,
      "Ġsaid": 960,
      "è®¸": 961,
      "èĭ": 962,
      "ome": 963,
      "è¯Ŀ": 964,
      "ry": 965,
      "ä»£": 966,
      "ree": 967,
      "Ġover": 968,
      "ç§ĳ": 969,
      "ä»¶": 970,
      "å¥³": 971,
      "ç¨ĭ": 972,
      "ç¡": 973,
      "Ġbu": 974,
      "own": 975,
      "Ġimp": 976,
      "çĲĥ": 977,
      "ign": 978,
      "å±ķ": 979,
      "ĠT": 980,
      "Ġdis": 981,
      "Ġsomething": 982,
      "æ±": 983,
      "ä¸Ģç§į": 984,
      "çĽ®": 985,
      "å·²ç»ı": 986,
      "ä½į": 987,
      "ç¬¬": 988,
      "ite": 989,
      "ĠH": 990,
      "å¾Īå¤ļ": 991,
      "å·¥ä½ľ": 992,
      "ĠN": 993,
      "ory": 994,
      "ount": 995,
      "Ġback": 996,
      "Ġpo": 997,
      "pt": 998,
      "äººä»¬": 999,
      "uch": 1000,
      "éĴ": 1001,
      "Ġä»ĸä»¬": 1002,
      "orm": 1003,
      "ä¸ľè¥¿": 1004,
      "ä¸»": 1005,
      "round": 1006,
      "å¤ĸ": 1007,
      "æıĲ": 1008,
      "åĽ¾": 1009,
      "ens": 1010,
      "åĩł": 1011,
      "ĠD": 1012,
      "Ġthose": 1013,
      "äº§": 1014,
      "åıĹ": 1015,
      "è±": 1016,
      "Ġmuch": 1017,
      "Ġtwo": 1018,
      "olog": 1019,
      "çīĩ": 1020,
      "Ġgot": 1021,
      "Ġchan": 1022,
      "Ġar": 1023,
      "Ġcall": 1024,
      "åĻ¨": 1025,
      "ib": 1026,
      "Ġfirst": 1027,
      "ife": 1028,
      "èĦĳ": 1029,
      "ä»»": 1030,
      "ä¸ļ": 1031,
      "ater": 1032,
      "å®Į": 1033,
      "ass": 1034,
      "Ġdiffere": 1035,
      "æĶ¾": 1036,
      "ç¥": 1037,
      "åĨ³": 1038,
      "ound": 1039,
      "çļĦäºĭ": 1040,
      "çļĦæĹ¶åĢĻ": 1041,
      "çĽ´": 1042,
      "Ġalso": 1043,
      "ç»Ł": 1044,
      "ä»ħ": 1045,
      "sel": 1046,
      "Ġro": 1047,
      "Ġä½Ĩ": 1048,
      "ep": 1049,
      "Ġkind": 1050,
      "ittle": 1051,
      "cent": 1052,
      "åĪĽ": 1053,
      "çļĦæĸ": 1054,
      "Ħ¿": 1055,
      "Ġnew": 1056,
      "ue": 1057,
      "ac": 1058,
      "Ġlot": 1059,
      "Ġlittle": 1060,
      "åıĬ": 1061,
      "åĨħ": 1062,
      "åĲĳ": 1063,
      "è§Ĥ": 1064,
      "åĨį": 1065,
      "åĳ¢": 1066,
      "Ġlo": 1067,
      "åĦ¿": 1068,
      "è®¤ä¸º": 1069,
      "That": 1070,
      "ç©¶": 1071,
      "Ġcont": 1072,
      "Ġspe": 1073,
      "ght": 1074,
      "ç´": 1075,
      "å¸¦": 1076,
      "éĶ": 1077,
      "ber": 1078,
      "çģ": 1079,
      "âĢĶâĢĶ": 1080,
      "è¯ķ": 1081,
      "æ¼": 1082,
      "å¤Ł": 1083,
      "ä¸ī": 1084,
      "way": 1085,
      "åįģ": 1086,
      "Ġshe": 1087,
      "ult": 1088,
      "åĪ«": 1089,
      "åĳĬ": 1090,
      "Ġac": 1091,
      "ple": 1092,
      "åĮº": 1093,
      "Ġtalk": 1094,
      "Ġmost": 1095,
      "æķĻ": 1096,
      "çĹħ": 1097,
      "åľº": 1098,
      "ĠâĻ«": 1099,
      "Ġbet": 1100,
      "ves": 1101,
      "é©": 1102,
      "king": 1103,
      "å¤Ħ": 1104,
      "åıĳçİ°": 1105,
      "å°ĳ": 1106,
      "In": 1107,
      "æĢİ": 1108,
      "vel": 1109,
      "è½¦": 1110,
      "åİŁ": 1111,
      "ru": 1112,
      "Ġph": 1113,
      "Ġres": 1114,
      "ody": 1115,
      "Ġonly": 1116,
      "æĶ¹": 1117,
      "Ġunder": 1118,
      "ving": 1119,
      "ated": 1120,
      "Ġdes": 1121,
      "æľĽ": 1122,
      "æī¾": 1123,
      "æĪĳä»¬çļĦ": 1124,
      "æ°´": 1125,
      "è¿Ĳ": 1126,
      "ĠL": 1127,
      "å¤ª": 1128,
      "Ġå¹¶": 1129,
      "è±¡": 1130,
      "rain": 1131,
      "æĪĸèĢħ": 1132,
      "able": 1133,
      "æ¶": 1134,
      "Ġeven": 1135,
      "Ġhis": 1136,
      "åĲį": 1137,
      "Ķç©¶": 1138,
      "ell": 1139,
      "What": 1140,
      "Ġlife": 1141,
      "åıĳçĶŁ": 1142,
      "ations": 1143,
      "ĠR": 1144,
      "co": 1145,
      "éŁ": 1146,
      "ä¸įåĲĮ": 1147,
      "ä¿Ŀ": 1148,
      "Ġday": 1149,
      "å½±": 1150,
      "è¯Ĩ": 1151,
      "Ġsy": 1152,
      "ä»Ĭ": 1153,
      "ick": 1154,
      "è¯¥": 1155,
      "Ġad": 1156,
      "å¹³": 1157,
      "æ¡": 1158,
      "åħĭ": 1159,
      "å°Ķ": 1160,
      "çĶ±": 1161,
      "æį®": 1162,
      "èī²": 1163,
      "çļĦæķ": 1164,
      "å¸Ĥ": 1165,
      "åĵģ": 1166,
      "Ġam": 1167,
      "æĬĢ": 1168,
      "èĪ": 1169,
      "èĩ³": 1170,
      "Ġhum": 1171,
      "ç»Ħ": 1172,
      "åĽ½å®¶": 1173,
      "ä¸Ģæł·": 1174,
      "è¿Ļç§į": 1175,
      "ä¸ĩ": 1176,
      "åĲ¬": 1177,
      "ĠéĤ£": 1178,
      "Ġmany": 1179,
      "lo": 1180,
      "Ġtake": 1181,
      "è§ģ": 1182,
      "æĢĿ": 1183,
      "Ġdifferent": 1184,
      "è¾¾": 1185,
      "è§Ĩ": 1186,
      "ial": 1187,
      "è®²": 1188,
      "ict": 1189,
      "åŃ©åŃĲ": 1190,
      "åĪ°äºĨ": 1191,
      "éļ¾": 1192,
      "Ġher": 1193,
      "åķ": 1194,
      "ish": 1195,
      "ms": 1196,
      "å²": 1197,
      "other": 1198,
      "ç¡®": 1199,
      "å¦Ĥä½ķ": 1200,
      "rough": 1201,
      "int": 1202,
      "ãĢĤâĢĿ": 1203,
      "åħ¶ä»ĸ": 1204,
      "è¿ĻéĩĮ": 1205,
      "du": 1206,
      "ç¦": 1207,
      "æĪĳæĥ³": 1208,
      "å¤´": 1209,
      "èĻ": 1210,
      "Ġgood": 1211,
      "åĲĹ": 1212,
      "åŃĺ": 1213,
      "æĺŁ": 1214,
      "éŁ³": 1215,
      "çĶŁæ´»": 1216,
      "ase": 1217,
      "æ®": 1218,
      "ank": 1219,
      "ire": 1220,
      "åı¦": 1221,
      "çļĦä¸Ģ": 1222,
      "Ġreal": 1223,
      "åĳ½": 1224,
      "Ġcomm": 1225,
      "éªĮ": 1226,
      "There": 1227,
      "è¿ĺæľī": 1228,
      "000": 1229,
      "Ġaround": 1230,
      "Ġdoes": 1231,
      "éĩįè¦ģ": 1232,
      "æīį": 1233,
      "é¦": 1234,
      "èį": 1235,
      "pe": 1236,
      "çĥ": 1237,
      "æ»": 1238,
      "å¦Ĥæŀľä½ł": 1239,
      "ph": 1240,
      "åįķ": 1241,
      "ĠF": 1242,
      "æľŁ": 1243,
      "Ġide": 1244,
      "çŃī": 1245,
      "Ġthrough": 1246,
      "Ġdown": 1247,
      "ä¹Ĳ": 1248,
      "å¤§å®¶": 1249,
      "å½¢": 1250,
      "åľ°æĸ¹": 1251,
      "åŀ": 1252,
      "ents": 1253,
      "ħ§": 1254,
      "æģ¯": 1255,
      "è¯ī": 1256,
      "ç¤º": 1257,
      "ä¹ī": 1258,
      "urn": 1259,
      "åĲĦ": 1260,
      "ç½ĳ": 1261,
      "Ġput": 1262,
      "cess": 1263,
      "æº": 1264,
      "'ll": 1265,
      "è®°": 1266,
      "¨¡": 1267,
      "ark": 1268,
      "æĭī": 1269,
      "Ġuse": 1270,
      "ä¾ĭ": 1271,
      "Ġpre": 1272,
      "èĲ": 1273,
      "èµ·æĿ¥": 1274,
      "Ġshow": 1275,
      "ĠåĴĮ": 1276,
      "æµ·": 1277,
      "æ£": 1278,
      "Ġbeing": 1279,
      "èµ°": 1280,
      "ä¼ł": 1281,
      "æīĵ": 1282,
      "çĭ": 1283,
      "Ġoff": 1284,
      "ak": 1285,
      "Ġtell": 1286,
      "å¿ħ": 1287,
      "ĠW": 1288,
      "ors": 1289,
      "ĠJ": 1290,
      "form": 1291,
      "ress": 1292,
      "éĢļè¿ĩ": 1293,
      "è¶Ĭ": 1294,
      "ĠâĢľ": 1295,
      "äº¤": 1296,
      "ade": 1297,
      "Ġbl": 1298,
      "ary": 1299,
      "æ°Ķ": 1300,
      "ible": 1301,
      "ç®¡": 1302,
      "Ġæľī": 1303,
      "æ°ĳ": 1304,
      "åıį": 1305,
      "ether": 1306,
      "ath": 1307,
      "Ġtoo": 1308,
      "éĻħ": 1309,
      "Ġhappen": 1310,
      "les": 1311,
      "Ġsame": 1312,
      "éĥ½æĺ¯": 1313,
      "åĳĬè¯ī": 1314,
      "Ġthou": 1315,
      "çłĶç©¶": 1316,
      "Ġem": 1317,
      "äºĮ": 1318,
      "æĮģ": 1319,
      "Ġå°±": 1320,
      "Ġä¹Ł": 1321,
      "é¡¹": 1322,
      "æ·": 1323,
      "Well": 1324,
      "per": 1325,
      "Ġå®ĥ": 1326,
      "ject": 1327,
      "ç¤¾": 1328,
      "ance": 1329,
      "Ġproble": 1330,
      "ç²": 1331,
      "åĬ©": 1332,
      "åħĪ": 1333,
      "æĸĩ": 1334,
      "Ġtry": 1335,
      "Ġinc": 1336,
      "ne": 1337,
      "ç¾İåĽ½": 1338,
      "Ġä»ĸ": 1339,
      "èİ": 1340,
      "xt": 1341,
      "Ġsm": 1342,
      "chn": 1343,
      "éĥ¨åĪĨ": 1344,
      "æķ´": 1345,
      "è¾¹": 1346,
      "è®¾è®¡": 1347,
      "ang": 1348,
      "Ġcount": 1349,
      "wn": 1350,
      "Ġfact": 1351,
      "èĥ½å¤Ł": 1352,
      "çļĦæĸ¹": 1353,
      "é»": 1354,
      "èµĦ": 1355,
      "ars": 1356,
      "ys": 1357,
      "å¤į": 1358,
      "ord": 1359,
      "stem": 1360,
      "row": 1361,
      "çĬ": 1362,
      "åĮ»": 1363,
      "éĢī": 1364,
      "Ġcome": 1365,
      "iver": 1366,
      "å®ī": 1367,
      "è£": 1368,
      "æĶ¿": 1369,
      "åŃĹ": 1370,
      "ç»Ĩ": 1371,
      "ful": 1372,
      "ç¼": 1373,
      "åħī": 1374,
      "tern": 1375,
      "day": 1376,
      "åıĪ": 1377,
      "åĲ§": 1378,
      "æĪĺ": 1379,
      "å¸Į": 1380,
      "ĠU": 1381,
      "ual": 1382,
      "ĠO": 1383,
      "Ġra": 1384,
      "ä»»ä½ķ": 1385,
      "ons": 1386,
      "Ġgen": 1387,
      "Ġdoing": 1388,
      "ile": 1389,
      "ric": 1390,
      "Ġä¸į": 1391,
      "Ġmay": 1392,
      "ning": 1393,
      "Ġfind": 1394,
      "åĳĺ": 1395,
      "ä¸ºä»Ģä¹Ī": 1396,
      "ool": 1397,
      "ç«ĭ": 1398,
      "ç¥ŀ": 1399,
      "å¾·": 1400,
      "å¤§çļĦ": 1401,
      "ä½¿çĶ¨": 1402,
      "Ġbig": 1403,
      "Ġbr": 1404,
      "be": 1405,
      "ces": 1406,
      "Ġgreat": 1407,
      "ç®Ĺ": 1408,
      "æĤ": 1409,
      "Ġtechn": 1410,
      "å£°": 1411,
      "è´¨": 1412,
      "ting": 1413,
      "Ġthree": 1414,
      "Ġhuman": 1415,
      "ower": 1416,
      "Ġwr": 1417,
      "æĶ¹åıĺ": 1418,
      "Ġä½Ĩæĺ¯": 1419,
      "ved": 1420,
      "ç©º": 1421,
      "èģĶ": 1422,
      "äºļ": 1423,
      "Ġpers": 1424,
      "Ġbec": 1425,
      "Ġä»¥": 1426,
      "æ¨¡": 1427,
      "Ġå½ĵ": 1428,
      "ically": 1429,
      "åħ³äºİ": 1430,
      "åı«": 1431,
      "Ġsur": 1432,
      "äººç±»": 1433,
      "Ġpercent": 1434,
      "çº¦": 1435,
      "Ġtra": 1436,
      "å¿«": 1437,
      "..": 1438,
      "te": 1439,
      "He": 1440,
      "Â·": 1441,
      "åıªæĺ¯": 1442,
      "èĭ±": 1443,
      "ied": 1444,
      "Ġsystem": 1445,
      "çĮ": 1446,
      "ĠçĦ¶åĲİ": 1447,
      "ħäºĭ": 1448,
      "çĻ¾": 1449,
      "è·Ł": 1450,
      "æºĲ": 1451,
      "éĩĳ": 1452,
      "Ġdec": 1453,
      "æľª": 1454,
      "åİĨ": 1455,
      "Ġwell": 1456,
      "fter": 1457,
      "illion": 1458,
      "æĿ¡": 1459,
      "ä¸įä¼ļ": 1460,
      "æµģ": 1461,
      "äºĭå®ŀ": 1462,
      "Ġbuild": 1463,
      "ology": 1464,
      "body": 1465,
      "igh": 1466,
      "è°Ī": 1467,
      "Ġapp": 1468,
      "nds": 1469,
      "thing": 1470,
      "ä½łçļĦ": 1471,
      "éħ": 1472,
      "åŀĭ": 1473,
      "fore": 1474,
      "Ġcalled": 1475,
      "èĢģ": 1476,
      "è¿Ļä¸Ģ": 1477,
      "çĪ±": 1478,
      "'d": 1479,
      "åĸľ": 1480,
      "ĠæĿ¥": 1481,
      "åħ·": 1482,
      "è¨": 1483,
      "Ġlet": 1484,
      "æ¼Ķ": 1485,
      "æĢİä¹Ī": 1486,
      "Ġstud": 1487,
      "self": 1488,
      "æĳ": 1489,
      "If": 1490,
      "èĬ±": 1491,
      "è¿ľ": 1492,
      "è¨Ģ": 1493,
      "å¼ł": 1494,
      "ä¸Ģèµ·": 1495,
      "æ³¨": 1496,
      "Ġgu": 1497,
      "æµĭ": 1498,
      "we": 1499,
      "åĪĩ": 1500,
      "å¸®": 1501,
      "éĤ£ä¹Ī": 1502,
      "æĹ¶éĹ´": 1503,
      "Ġinv": 1504,
      "50": 1505,
      "çº¿": 1506,
      "è¿Ľè¡Į": 1507,
      "Ġagain": 1508,
      "cial": 1509,
      "é©¬": 1510,
      "æĢ»": 1511,
      "Ġchild": 1512,
      "Ġquest": 1513,
      "Ġsim": 1514,
      "ition": 1515,
      "ä¸Ģä¸ĭ": 1516,
      "ä¸ªäºº": 1517,
      "çİ¯": 1518,
      "ious": 1519,
      "åıĸ": 1520,
      "åºĶè¯¥": 1521,
      "Ġmade": 1522,
      "Ġexper": 1523,
      "ics": 1524,
      "mer": 1525,
      "å¤±": 1526,
      "ities": 1527,
      "å¸Ī": 1528,
      "è¯Ń": 1529,
      "Ġind": 1530,
      "è·¯": 1531,
      "é¡»": 1532,
      "Ġlong": 1533,
      "åĽłæŃ¤": 1534,
      "å¸ĮæľĽ": 1535,
      "Ġrem": 1536,
      "è½¬": 1537,
      "ating": 1538,
      "Ġfl": 1539,
      "Ġown": 1540,
      "è§īå¾Ĺ": 1541,
      "Ġlear": 1542,
      "æĺ¯ä¸Ģä¸ª": 1543,
      "ian": 1544,
      "Ġwom": 1545,
      "ç®Ģ": 1546,
      "ĠCh": 1547,
      "æłĩ": 1548,
      "oss": 1549,
      "Ġimport": 1550,
      "ä¹¦": 1551,
      "æĺ¾": 1552,
      "Ġbel": 1553,
      "ew": 1554,
      "ç§ĳåŃ¦": 1555,
      "ub": 1556,
      "ç³»ç»Ł": 1557,
      "æ²»": 1558,
      "Ġshould": 1559,
      "å¥½çļĦ": 1560,
      "å¿ħé¡»": 1561,
      "ize": 1562,
      "ren": 1563,
      "Ġsc": 1564,
      "æ¬¢": 1565,
      "ates": 1566,
      "Ġwhy": 1567,
      "æĿ¥è¯´": 1568,
      "oc": 1569,
      "èĢĥ": 1570,
      "av": 1571,
      "lic": 1572,
      "æŀģ": 1573,
      "å¯¼": 1574,
      "Ġunderst": 1575,
      "å¡": 1576,
      "å®ŀéĻħ": 1577,
      "æĪĲä¸º": 1578,
      "çħ§": 1579,
      "é¢Ĩ": 1580,
      "æĶ¶": 1581,
      "åı¸": 1582,
      "æ´²": 1583,
      "Ġ3": 1584,
      "ç¦»": 1585,
      "he": 1586,
      "Ġturn": 1587,
      "Ġchange": 1588,
      "çļĦæĥ": 1589,
      "ft": 1590,
      "æŃ»": 1591,
      "ä¸įèĥ½": 1592,
      "erest": 1593,
      "æľĪ": 1594,
      "å¥ĩ": 1595,
      "Ġdidn": 1596,
      "åı£": 1597,
      "çļĦä¸ľè¥¿": 1598,
      "é£ŀ": 1599,
      "è¿ĳ": 1600,
      "é£Ł": 1601,
      "ty": 1602,
      "æŃ£åľ¨": 1603,
      "Ġfeel": 1604,
      "?\"": 1605,
      "ĠAnd": 1606,
      "åĵį": 1607,
      "çĻ½": 1608,
      "ction": 1609,
      "Ġtoday": 1610,
      "ä¸Ģæ¬¡": 1611,
      "Ġafter": 1612,
      "ä¼Ĺ": 1613,
      "Ġstarted": 1614,
      "åħ±": 1615,
      "Thank": 1616,
      "Ġthought": 1617,
      "Ġimportant": 1618,
      "æ®µ": 1619,
      "Ġob": 1620,
      "ä¿¡æģ¯": 1621,
      "ä½ı": 1622,
      "æŀĦ": 1623,
      "con": 1624,
      "Ġdesign": 1625,
      "Ġend": 1626,
      "Ġmean": 1627,
      "ĠK": 1628,
      "Ġperson": 1629,
      "å¼º": 1630,
      "åħĥ": 1631,
      "åĨµ": 1632,
      "Ġask": 1633,
      "ä¸ŃçļĦ": 1634,
      "è¶£": 1635,
      "Ġcour": 1636,
      "Ġhel": 1637,
      "ail": 1638,
      "åį´": 1639,
      "als": 1640,
      "Ġidea": 1641,
      "æ¡Ī": 1642,
      "Ġsci": 1643,
      "å¢ĥ": 1644,
      "è¿ĺæĺ¯": 1645,
      "çļĦäºĭæĥħ": 1646,
      "å£«": 1647,
      "Ġlast": 1648,
      "åĨĻ": 1649,
      "æĴ": 1650,
      "åĪļ": 1651,
      "Ġbas": 1652,
      "ull": 1653,
      "åŁİ": 1654,
      "æĸĻ": 1655,
      "Ġhim": 1656,
      "Ġbrain": 1657,
      "Ġinterest": 1658,
      "Ġits": 1659,
      "old": 1660,
      "Ġcreat": 1661,
      "Ġinst": 1662,
      "gan": 1663,
      "æŁĲ": 1664,
      "å¯¹äºİ": 1665,
      "éĶĻ": 1666,
      "Ġhelp": 1667,
      "Ġcar": 1668,
      "Ġsch": 1669,
      "Ġrel": 1670,
      "Ġexam": 1671,
      "çĶŁçī©": 1672,
      "Ġins": 1673,
      "æŃ¥": 1674,
      "æļ": 1675,
      "æľį": 1676,
      "Ġtrans": 1677,
      "ç»Ń": 1678,
      "åĵª": 1679,
      "Ġplay": 1680,
      "Ġwent": 1681,
      "Ġunderstand": 1682,
      "å¸ĥ": 1683,
      "äº²": 1684,
      "åĽĽ": 1685,
      "ution": 1686,
      "Ġbetter": 1687,
      "ily": 1688,
      "ough": 1689,
      "åĪĽéĢł": 1690,
      "Ġmight": 1691,
      "éĽĨ": 1692,
      "ost": 1693,
      "çĶ·": 1694,
      "çĶ»": 1695,
      "ise": 1696,
      "çĶļ": 1697,
      "ists": 1698,
      "Ġbefore": 1699,
      "ĠIt": 1700,
      "éĤ£ä¸ª": 1701,
      "åĶ": 1702,
      "Ġä»İ": 1703,
      "åĬŁ": 1704,
      "Ġä¸Ģ": 1705,
      "ä»Ĭå¤©": 1706,
      "Ġgive": 1707,
      "åĮħ": 1708,
      "20": 1709,
      "ob": 1710,
      "çļĦéĹ®é¢ĺ": 1711,
      "ility": 1712,
      "Ġanother": 1713,
      "åį³": 1714,
      "Ġproblem": 1715,
      "Ġnever": 1716,
      "Ġbit": 1717,
      "åĸľæ¬¢": 1718,
      "ular": 1719,
      "Ġke": 1720,
      "ave": 1721,
      "åħ¬åı¸": 1722,
      "è´¹": 1723,
      "Ġcoll": 1724,
      "Ġable": 1725,
      "Ġpoint": 1726,
      "åıĳå±ķ": 1727,
      "è§Ĵ": 1728,
      "å®Įåħ¨": 1729,
      "æ¶Ī": 1730,
      "und": 1731,
      "ros": 1732,
      "è¿Ļå°±æĺ¯": 1733,
      "å®¹": 1734,
      "ese": 1735,
      "çļĦæĦ": 1736,
      "Ġcourse": 1737,
      "Ġgra": 1738,
      "æĬĢæľ¯": 1739,
      "æł¹": 1740,
      "Ġcons": 1741,
      "å¾ĹåĪ°": 1742,
      "Ġpol": 1743,
      "Ġprodu": 1744,
      "åŃĺåľ¨": 1745,
      "çª": 1746,
      "å²ģ": 1747,
      "æĹ¥": 1748,
      "ven": 1749,
      "åĳ¨": 1750,
      "è®®": 1751,
      "å®¤": 1752,
      "Ġè¿ĻäºĽ": 1753,
      "Ġpower": 1754,
      "æł¼": 1755,
      "å°¼": 1756,
      "Ġstill": 1757,
      "äººçļĦ": 1758,
      "Ġbelie": 1759,
      "ç¢": 1760,
      "è¿Ļä¹Ī": 1761,
      "ï¼ģ": 1762,
      "ä¹ł": 1763,
      "äºĴ": 1764,
      "Ġstory": 1765,
      "åį°": 1766,
      "æĮĩ": 1767,
      "è¶ħ": 1768,
      "Ġcommun": 1769,
      "éĵ": 1770,
      "Ġfam": 1771,
      "äºī": 1772,
      "Ġtog": 1773,
      "åĩĨ": 1774,
      "å¼ķ": 1775,
      "Ġ19": 1776,
      "ert": 1777,
      "è¯ģ": 1778,
      "Ġfound": 1779,
      "Ġtogether": 1780,
      "åįĥ": 1781,
      "ç§°": 1782,
      "ç»´": 1783,
      "ix": 1784,
      "Ġinter": 1785,
      "Ġfew": 1786,
      "è¿Ļæł·çļĦ": 1787,
      "æĪĳåľ¨": 1788,
      "æĿ¥çļĦ": 1789,
      "è°¢è°¢": 1790,
      "çĶļèĩ³": 1791,
      "Ġbo": 1792,
      "Ġent": 1793,
      "kes": 1794,
      "Ġ20": 1795,
      "åĲĮæĹ¶": 1796,
      "Ġplan": 1797,
      "äºĨä¸Ģä¸ª": 1798,
      "ç¤¾ä¼ļ": 1799,
      "çĶŁåĳ½": 1800,
      "æĿĥ": 1801,
      "é¦ĸ": 1802,
      "æĽ¾": 1803,
      "äºĨä¸Ģ": 1804,
      "Ġä¸Ģä¸ª": 1805,
      "Ġrep": 1806,
      "oth": 1807,
      "æµİ": 1808,
      "å¤ĩ": 1809,
      "Ġele": 1810,
      "åħ´": 1811,
      "Ġsol": 1812,
      "Ġè¿Ļæĺ¯": 1813,
      "å¤§èĦĳ": 1814,
      "ç»Ī": 1815,
      "atch": 1816,
      "åŁŁ": 1817,
      "Ġsl": 1818,
      "ited": 1819,
      "ä¹ĭåĲİ": 1820,
      "Ġmon": 1821,
      "Ġago": 1822,
      "alth": 1823,
      "å·´": 1824,
      "éĢŁ": 1825,
      "Ġnext": 1826,
      "æľĢåĲİ": 1827,
      "Ġkid": 1828,
      "äºĭå®ŀä¸Ĭ": 1829,
      "ä¾¿": 1830,
      "å½±åĵį": 1831,
      "åĢ¼": 1832,
      "ä¾Ľ": 1833,
      "æ±Ĥ": 1834,
      "åıĭ": 1835,
      "Ġplace": 1836,
      "Ġnum": 1837,
      "è§£åĨ³": 1838,
      "è®©æĪĳä»¬": 1839,
      "èĤ²": 1840,
      "ï¼ī": 1841,
      "Ġcame": 1842,
      "Ġwater": 1843,
      "Ġmod": 1844,
      "erg": 1845,
      "velop": 1846,
      "ä»·": 1847,
      "Ġdr": 1848,
      "æķĪ": 1849,
      "Ġsort": 1850,
      "Ġhigh": 1851,
      "åıĤ": 1852,
      "ä½ľä¸º": 1853,
      "æĽ´å¤ļ": 1854,
      "å±Ĥ": 1855,
      "Ġschool": 1856,
      "Ġcr": 1857,
      "ç»ıæµİ": 1858,
      "ata": 1859,
      "æĲ": 1860,
      "å®ŀéĻħä¸Ĭ": 1861,
      "æľīä¸Ģä¸ª": 1862,
      "When": 1863,
      "å¸®åĬ©": 1864,
      "ng": 1865,
      "çĸĹ": 1866,
      "åĪĻ": 1867,
      "ween": 1868,
      "ç»ĩ": 1869,
      "çľŁæŃ£": 1870,
      "ï¼Ī": 1871,
      "ä»ĸä»¬çļĦ": 1872,
      "çľŁçļĦ": 1873,
      "uc": 1874,
      "¦Ĥ": 1875,
      "ED": 1876,
      "ä¼¼": 1877,
      "çļĦåľ°æĸ¹": 1878,
      "Ġlearn": 1879,
      "æĸŃ": 1880,
      "Ġstr": 1881,
      "ç¾¤": 1882,
      "Ġ10": 1883,
      "ather": 1884,
      "Ġcomple": 1885,
      "éļı": 1886,
      "æ·±": 1887,
      "iss": 1888,
      "ense": 1889,
      "Ġimag": 1890,
      "read": 1891,
      "è°ĥ": 1892,
      "äºĨè§£": 1893,
      "éĴ±": 1894,
      "Ġused": 1895,
      "åĨ³å®ļ": 1896,
      "åħ¶ä¸Ń": 1897,
      "ä¹Łæĺ¯": 1898,
      "ä½łåı¯ä»¥": 1899,
      "ä¹İ": 1900,
      "éĤ£éĩĮ": 1901,
      "æ¯Ķå¦Ĥ": 1902,
      "åģļçļĦ": 1903,
      "çľ¼": 1904,
      "ized": 1905,
      "Ġla": 1906,
      "ä¸ĬçļĦ": 1907,
      "ĠSt": 1908,
      "Ġeach": 1909,
      "meric": 1910,
      "Be": 1911,
      "Ġter": 1912,
      "åĲ¦": 1913,
      "æ¸¸": 1914,
      "Ġbetween": 1915,
      "æķ°æį®": 1916,
      ",\"": 1917,
      "ï¼ĮâĢľ": 1918,
      "ience": 1919,
      "è¯·": 1920,
      "ç½®": 1921,
      "Ġart": 1922,
      "åŁİå¸Ĥ": 1923,
      "äºĶ": 1924,
      "ç»ĵæŀľ": 1925,
      "ness": 1926,
      "åħ¶å®ŀ": 1927,
      "æľºåĻ¨": 1928,
      "è£ħ": 1929,
      "ork": 1930,
      "åĬ¡": 1931,
      "é£İ": 1932,
      "å¢ŀ": 1933,
      "ward": 1934,
      "æĭ©": 1935,
      "ä¸ºäºĨ": 1936,
      "arch": 1937,
      "å®ŀéªĮ": 1938,
      "az": 1939,
      "Ġrec": 1940,
      "ç«Ļ": 1941,
      "Ġquestion": 1942,
      "é¼": 1943,
      "åı²": 1944,
      "è§Ħ": 1945,
      "ĠæīĢä»¥": 1946,
      "æĭ¥": 1947,
      "ah": 1948,
      "Ġpat": 1949,
      "æľīä¸Ģ": 1950,
      "èĬĤ": 1951,
      "Ġtechnology": 1952,
      "å¨": 1953,
      "æĺĵ": 1954,
      "Ġdevelop": 1955,
      "Ġext": 1956,
      "åºķ": 1957,
      "èĩªå·±çļĦ": 1958,
      "Ġser": 1959,
      "ram": 1960,
      "Ġdata": 1961,
      "Ġéĥ½": 1962,
      "Ġmed": 1963,
      "åĳ³": 1964,
      "æĬ¤": 1965,
      "æĿĤ": 1966,
      "é¢Ħ": 1967,
      "å¿µ": 1968,
      "ï¼ļâĢľ": 1969,
      "èħ": 1970,
      "ures": 1971,
      "æ¯į": 1972,
      "è®©æĪĳ": 1973,
      "Ġsmall": 1974,
      "Ġmet": 1975,
      "ets": 1976,
      "Ġatt": 1977,
      "å¾®": 1978,
      "å¦ĤæŃ¤": 1979,
      "¿Ģ": 1980,
      "ĠAf": 1981,
      "æħ": 1982,
      "æ¸ħ": 1983,
      "ĠæĪĸèĢħ": 1984,
      "è¿ĩåİ»": 1985,
      "Ġwomen": 1986,
      "Ġcre": 1987,
      "æĪ¿": 1988,
      "çĬ¶": 1989,
      "è¶³": 1990,
      "éĢīæĭ©": 1991,
      "Ġfin": 1992,
      "è®¸å¤ļ": 1993,
      "ç®Ģåįķ": 1994,
      "æĢģ": 1995,
      "çľĭçľĭ": 1996,
      "ways": 1997,
      "å¹²": 1998,
      "åĬ¨çī©": 1999,
      "Ġlooking": 2000,
      "åı°": 2001,
      "ä¸ĢçĽ´": 2002,
      "å½ĵçĦ¶": 2003,
      "Ġlove": 2004,
      "ç»Ħç»ĩ": 2005,
      "åł": 2006,
      "Ġcare": 2007,
      "Ġop": 2008,
      "æĺ¯åľ¨": 2009,
      "Ġold": 2010,
      "Ġfour": 2011,
      "æİ§": 2012,
      "Ġexample": 2013,
      "Ġgrow": 2014,
      "Ġå¹¶ä¸Ķ": 2015,
      "å°½": 2016,
      "çİĩ": 2017,
      "ific": 2018,
      "æŀĹ": 2019,
      "åĬŀ": 2020,
      "èīº": 2021,
      "çĽ¸ä¿¡": 2022,
      "é»ĳ": 2023,
      "cond": 2024,
      "äº¿": 2025,
      "æĹ¶åĢĻ": 2026,
      "ä¸¤ä¸ª": 2027,
      "Ġpartic": 2028,
      "ute": 2029,
      "ered": 2030,
      "èĩ´": 2031,
      "ĠAmeric": 2032,
      "ĠèĢĮä¸Ķ": 2033,
      "æ»¡": 2034,
      "èİ·": 2035,
      "éĺ¿": 2036,
      "Ġdoesn": 2037,
      "ĠY": 2038,
      "ä¸ĵ": 2039,
      "Ġeff": 2040,
      "ced": 2041,
      "Ġdone": 2042,
      "èĥŀ": 2043,
      "Ġwanted": 2044,
      "Ġè¿Ļä¸ª": 2045,
      "äºĭæĥħ": 2046,
      "éĺŁ": 2047,
      "ä»¤": 2048,
      "æĭ¿": 2049,
      "Ġlight": 2050,
      "cy": 2051,
      "Ġmin": 2052,
      "Ġmom": 2053,
      "ings": 2054,
      "ä»ħä»ħ": 2055,
      "åķĨ": 2056,
      "Ġå°±æĺ¯": 2057,
      "iness": 2058,
      "10": 2059,
      "çĹĩ": 2060,
      "ative": 2061,
      "Ġcomput": 2062,
      "Ġword": 2063,
      "èı": 2064,
      "åĽ´": 2065,
      "cept": 2066,
      "èĢĮä¸Ķ": 2067,
      "pl": 2068,
      "ably": 2069,
      "çİ¯å¢ĥ": 2070,
      "æ¿Ģ": 2071,
      "Ġcent": 2072,
      "è¿ĩç¨ĭ": 2073,
      "æĪĳä»¬åı¯ä»¥": 2074,
      "ç»Ŀ": 2075,
      "Ġmove": 2076,
      "Ġå¦Ĥæŀľ": 2077,
      "Ġread": 2078,
      "çİ©": 2079,
      "åģĩ": 2080,
      "ä¹ĭåīį": 2081,
      "ä»ĸçļĦ": 2082,
      "Ġever": 2083,
      "é²": 2084,
      "éĹ¨": 2085,
      "åĪ»": 2086,
      "Ġhard": 2087,
      "æŃ¢": 2088,
      "åĲĮæł·": 2089,
      "åºľ": 2090,
      "æŁ¥": 2091,
      "é¡¹çĽ®": 2092,
      "ç²¾": 2093,
      "conom": 2094,
      "Ġcell": 2095,
      "Ġreas": 2096,
      "å¾Ģ": 2097,
      "Ġstu": 2098,
      "Ġwhole": 2099,
      "ç½Ĺ": 2100,
      "formation": 2101,
      "çļĦæĸ¹å¼ı": 2102,
      "æĿ¥èĩª": 2103,
      "äº§çĶŁ": 2104,
      "Ġä»¥åıĬ": 2105,
      "æ¤": 2106,
      "æĦıè¯Ĩ": 2107,
      "èį¯": 2108,
      "19": 2109,
      "ross": 2110,
      "ä¸įçŁ¥éģĵ": 2111,
      "å°±ä¼ļ": 2112,
      "è½»": 2113,
      "Ġchang": 2114,
      "åıĺå¾Ĺ": 2115,
      "ĠIn": 2116,
      "åĽ¢": 2117,
      "Ġlar": 2118,
      "Ġlive": 2119,
      "å¹´åīį": 2120,
      "Ġfar": 2121,
      "ç»Ĩèĥŀ": 2122,
      "ĠSo": 2123,
      "ç§»": 2124,
      "Ġå¥¹": 2125,
      "ands": 2126,
      "oney": 2127,
      "Ġbeh": 2128,
      "æĥ³è¦ģ": 2129,
      "Ġposs": 2130,
      "åİŁåĽł": 2131,
      "çļĦè¯Ŀ": 2132,
      "Ġmillion": 2133,
      "å¹¸": 2134,
      "åĩºæĿ¥": 2135,
      "å¯Į": 2136,
      "Ġtrying": 2137,
      "ä¸ĭæĿ¥": 2138,
      "æĬķ": 2139,
      "æł¡": 2140,
      "ger": 2141,
      "Ġbi": 2142,
      "å¯Ĩ": 2143,
      "è¿ŀ": 2144,
      "Ġear": 2145,
      "Ġnat": 2146,
      "ational": 2147,
      "éĻ©": 2148,
      "selves": 2149,
      "ope": 2150,
      "ote": 2151,
      "wh": 2152,
      "ism": 2153,
      "ç´ł": 2154,
      "å¾ħ": 2155,
      "éĻ¤": 2156,
      "Ġalways": 2157,
      "Ġaway": 2158,
      "æī¾åĪ°": 2159,
      "åı·": 2160,
      "çļĦæĶ": 2161,
      "ç¬ĳ": 2162,
      "Ġchildren": 2163,
      "Ġed": 2164,
      "ä½İ": 2165,
      "æĬ¥": 2166,
      "Ġless": 2167,
      "æķ´ä¸ª": 2168,
      "Ġgiv": 2169,
      "Ġworking": 2170,
      "Ġeconom": 2171,
      "Ġel": 2172,
      "åľ°çĲĥ": 2173,
      "ï¼ŁâĢĿ": 2174,
      "åį¡": 2175,
      "äºİæĺ¯": 2176,
      "çºª": 2177,
      "èīºæľ¯": 2178,
      "åħ¨çĲĥ": 2179,
      "Ġ4": 2180,
      "Ġcap": 2181,
      "æĥĬ": 2182,
      "ments": 2183,
      "Ġbelieve": 2184,
      "åıªæľī": 2185,
      "é±": 2186,
      "ä¹ĭéĹ´": 2187,
      "èĮ": 2188,
      "å½ķ": 2189,
      "å°±åĥı": 2190,
      "Ġcountry": 2191,
      "çŃĶ": 2192,
      "æ¦Ĥ": 2193,
      "æķħäºĭ": 2194,
      "Ġsupp": 2195,
      "åįĬ": 2196,
      "Ġgener": 2197,
      "Ġå¯¹": 2198,
      "ural": 2199,
      "cer": 2200,
      "Ġbus": 2201,
      "ĠWe": 2202,
      "æľĭ": 2203,
      "ird": 2204,
      "Because": 2205,
      "æĪĳä»¬åľ¨": 2206,
      "ç»ľ": 2207,
      "é±¼": 2208,
      "èĩªçĦ¶": 2209,
      "ä¹ĭä¸Ģ": 2210,
      "Ġresp": 2211,
      "å¯»": 2212,
      "ries": 2213,
      "è¯»": 2214,
      "å¯Ł": 2215,
      "How": 2216,
      "Ġsk": 2217,
      "å®³": 2218,
      "Ġhealth": 2219,
      "é¥": 2220,
      "æĹłæ³ķ": 2221,
      "æľĭåıĭ": 2222,
      "äº«": 2223,
      "å·¨": 2224,
      "ç´¢": 2225,
      "æĭ¥æľī": 2226,
      "éĻ¢": 2227,
      "ont": 2228,
      "åĩ»": 2229,
      "gin": 2230,
      "æĶ¯": 2231,
      "ç±³": 2232,
      "åĪĹ": 2233,
      "ĠAfric": 2234,
      "åĪĴ": 2235,
      "ä¸¾": 2236,
      "Ġbook": 2237,
      "çļĦæĬ": 2238,
      "æĸ¹éĿ¢": 2239,
      "ä¾ĭåŃĲ": 2240,
      "ä¹Łè®¸": 2241,
      "nect": 2242,
      "ä¹°": 2243,
      "æ¢": 2244,
      "Ġexpl": 2245,
      "hip": 2246,
      "æĪĳè®¤ä¸º": 2247,
      "Ġsub": 2248,
      "ruct": 2249,
      "Ġanim": 2250,
      "Ġproject": 2251,
      "Ġusing": 2252,
      "å·®": 2253,
      "èĥ½åĬĽ": 2254,
      "ps": 2255,
      "vers": 2256,
      "æĹ©": 2257,
      "Ġfrie": 2258,
      "Ġpict": 2259,
      "oll": 2260,
      "Ġcor": 2261,
      "çŃĳ": 2262,
      "æĥ³è±¡": 2263,
      "Ġmeans": 2264,
      "èľ": 2265,
      "Ġthinking": 2266,
      "Ġrun": 2267,
      "æĪĳè¯´": 2268,
      "åĪ°çļĦ": 2269,
      "Ġvis": 2270,
      "æĶ¿åºľ": 2271,
      "Ġopen": 2272,
      "çĥŃ": 2273,
      "åĭ": 2274,
      "atter": 2275,
      "åıĺåĮĸ": 2276,
      "åģ¥": 2277,
      "å±ķç¤º": 2278,
      "Ġinf": 2279,
      "Ġmoney": 2280,
      "Ġinformation": 2281,
      "Ġtook": 2282,
      "æĢİæł·": 2283,
      "led": 2284,
      "Ġhome": 2285,
      "Ġspace": 2286,
      "æĺ¯ä»Ģä¹Ī": 2287,
      "Ġorgan": 2288,
      "çļĦæķ°": 2289,
      "æĪı": 2290,
      "åģľ": 2291,
      "æĦ¿": 2292,
      "åĿĲ": 2293,
      "çŁ³": 2294,
      "æĸ¹å¼ı": 2295,
      "Ġmus": 2296,
      "vern": 2297,
      "æıĲä¾Ľ": 2298,
      "nce": 2299,
      "Ġfive": 2300,
      "Ġhand": 2301,
      "åıĺæĪĲ": 2302,
      "åħ°": 2303,
      "åŃ¦ä¹ł": 2304,
      "Ġmaybe": 2305,
      "its": 2306,
      "çļĦæł": 2307,
      "è¿ĲåĬ¨": 2308,
      "éĩĬ": 2309,
      "ident": 2310,
      "Ġcreate": 2311,
      "æ¯Ĵ": 2312,
      "åĲĥ": 2313,
      "ç¿": 2314,
      "Ġcou": 2315,
      "ks": 2316,
      "Ġpub": 2317,
      "å»ºçŃĳ": 2318,
      "æľīäºĽ": 2319,
      "æİ¨": 2320,
      "Ġeverything": 2321,
      "ract": 2322,
      "Ġlead": 2323,
      "gg": 2324,
      "ĠV": 2325,
      "åº·": 2326,
      "aces": 2327,
      "Ġbecome": 2328,
      "air": 2329,
      "Ġdoll": 2330,
      "Ġnumber": 2331,
      "ital": 2332,
      "Ġprob": 2333,
      "å¹¶ä¸į": 2334,
      "çı": 2335,
      "Ġprocess": 2336,
      "ues": 2337,
      "æĺ¯ä¸ª": 2338,
      "ond": 2339,
      "Ġkids": 2340,
      "Ġå®ĥä»¬": 2341,
      "Ġcompan": 2342,
      "Ġreg": 2343,
      "è¡Įä¸º": 2344,
      "è¯į": 2345,
      "å½ĵæĹ¶": 2346,
      "Ġspec": 2347,
      "çģ«": 2348,
      "rib": 2349,
      "æĸ°çļĦ": 2350,
      "çļĦæ¯": 2351,
      "çªģ": 2352,
      "ĠUn": 2353,
      "ten": 2354,
      "Ġsecond": 2355,
      "Ġacc": 2356,
      "Ġprog": 2357,
      "éĿŀæ´²": 2358,
      "ivers": 2359,
      "åŃ¦çĶŁ": 2360,
      "ever": 2361,
      "ĠYou": 2362,
      "ouse": 2363,
      "alf": 2364,
      "Ġmind": 2365,
      "Ġfut": 2366,
      "æĪĲåĬŁ": 2367,
      "Ġteach": 2368,
      "lob": 2369,
      "Ġsing": 2370,
      "åħ³ç³»": 2371,
      "é¸": 2372,
      "Ġform": 2373,
      "è°ģ": 2374,
      "aut": 2375,
      "Ġhead": 2376,
      "Ġwalk": 2377,
      "è®¡ç®Ĺ": 2378,
      "Ġleft": 2379,
      "æ¥": 2380,
      "iron": 2381,
      "éŁ³ä¹Ĳ": 2382,
      "ergy": 2383,
      "Ġgetting": 2384,
      "åŁºæľ¬": 2385,
      "Ġè®©": 2386,
      "æĪĳè¦ģ": 2387,
      "iew": 2388,
      "å¥³æĢ§": 2389,
      "çº§": 2390,
      "Ġeng": 2391,
      "Ġenough": 2392,
      "Ġbest": 2393,
      "éĢĤ": 2394,
      "åľŁ": 2395,
      "å®¢": 2396,
      "ention": 2397,
      "åŃ¦å®¶": 2398,
      "éĴŁ": 2399,
      "å¹¿": 2400,
      "Ġca": 2401,
      "Ġinteresting": 2402,
      "sw": 2403,
      "åįļ": 2404,
      "Ġfuture": 2405,
      "ä¸įåĲĮçļĦ": 2406,
      "ä¸ĢçĤ¹": 2407,
      "Ġwar": 2408,
      "åŁºåĽł": 2409,
      "ines": 2410,
      "Ġgovern": 2411,
      "iting": 2412,
      "Ġquite": 2413,
      "èĲ½": 2414,
      "These": 2415,
      "åº§": 2416,
      "Ġpres": 2417,
      "Ġmonth": 2418,
      "Ġgrou": 2419,
      "NA": 2420,
      "Ġcomes": 2421,
      "æİĴ": 2422,
      "æĺ¯ä¸Ģ": 2423,
      "Ġcle": 2424,
      "Ġsocial": 2425,
      "ories": 2426,
      "Ġfood": 2427,
      "çĲĨè§£": 2428,
      "ä»½": 2429,
      "åħħ": 2430,
      "Ġconf": 2431,
      "Ġtimes": 2432,
      "ĠæĪĸ": 2433,
      "æĭį": 2434,
      "Ġfun": 2435,
      "Ġset": 2436,
      "è¿°": 2437,
      "è®¨": 2438,
      "æİ¢": 2439,
      "Ġmaking": 2440,
      "çĶµèĦĳ": 2441,
      "éº": 2442,
      "çļĦä¸Ģä¸ª": 2443,
      "Ġcontro": 2444,
      "æľīè¶£": 2445,
      "èĽ": 2446,
      "åŃ¦æł¡": 2447,
      "çļĦæķħäºĭ": 2448,
      "Ġhappened": 2449,
      "èļ": 2450,
      "ety": 2451,
      "å±±": 2452,
      "Ġsense": 2453,
      "Ġenergy": 2454,
      "ier": 2455,
      "Ġsign": 2456,
      "åĲ¸": 2457,
      "ç¾İåħĥ": 2458,
      "pr": 2459,
      "åĽ°": 2460,
      "ç½ĳç»ľ": 2461,
      "Ġansw": 2462,
      "Ġtalking": 2463,
      "ç§ĳæĬĢ": 2464,
      "Ġmark": 2465,
      "çļĦç¬": 2466,
      "Ġdem": 2467,
      "è¾ĥ": 2468,
      "ts": 2469,
      "Ġprobably": 2470,
      "çļĦæĦı": 2471,
      "æľªæĿ¥": 2472,
      "çļĦæĥħ": 2473,
      "Ġadd": 2474,
      "Ġtold": 2475,
      "åĩºçİ°": 2476,
      "Ġconnect": 2477,
      "å£°éŁ³": 2478,
      "ç»ıåİĨ": 2479,
      "å®īåħ¨": 2480,
      "ertain": 2481,
      "Ġpass": 2482,
      "Ġcountries": 2483,
      "Ġæ¯ı": 2484,
      "æĻ®": 2485,
      "Ġbody": 2486,
      "ately": 2487,
      "å®ĥçļĦ": 2488,
      "çļĦæĢ": 2489,
      "Ġbuilding": 2490,
      "imes": 2491,
      "åħ»": 2492,
      "Ġroom": 2493,
      "tty": 2494,
      "60": 2495,
      "reen": 2496,
      "Ġjob": 2497,
      "Ġcur": 2498,
      "Ġbegin": 2499,
      "Ġmoment": 2500,
      "Ġåİ»": 2501,
      "åİĨåı²": 2502,
      "éĻį": 2503,
      "Ġstuff": 2504,
      "å®ĩ": 2505,
      "å¾ĭ": 2506,
      "ä»¥åıĬ": 2507,
      "Ġwithout": 2508,
      "Ġpop": 2509,
      "âĻª": 2510,
      "ä¼Ĭ": 2511,
      "Ġphys": 2512,
      "ient": 2513,
      "ner": 2514,
      "Ġmen": 2515,
      "æĸ¹æ³ķ": 2516,
      "åĿĹ": 2517,
      "Ġwee": 2518,
      "å°Ĩä¼ļ": 2519,
      "æĦıåĳ³": 2520,
      "ying": 2521,
      "åį±": 2522,
      "æĬĬå®ĥ": 2523,
      "çĭ¬": 2524,
      "Ġmodel": 2525,
      "ï¼į": 2526,
      "æĦŁè§ī": 2527,
      "èº«ä½ĵ": 2528,
      "æľīäºº": 2529,
      "Ġyoung": 2530,
      "lobal": 2531,
      "Ġelect": 2532,
      "å©": 2533,
      "Ġkeep": 2534,
      "Ġreason": 2535,
      "Ġallow": 2536,
      "ĠInd": 2537,
      "å·ŀ": 2538,
      "Ġ200": 2539,
      "åĪ©çĶ¨": 2540,
      "ake": 2541,
      "Ġside": 2542,
      "æ²¹": 2543,
      "Ġåı¯ä»¥": 2544,
      "å°Ŀ": 2545,
      "éĻĲ": 2546,
      "æľºä¼ļ": 2547,
      "Ġenv": 2548,
      "me": 2549,
      "é¢ĳ": 2550,
      "Ġhist": 2551,
      "Ġdollars": 2552,
      "ices": 2553,
      "irl": 2554,
      "æķĻèĤ²": 2555,
      "Ġbeaut": 2556,
      "ç¬¬äºĮ": 2557,
      "Ġelse": 2558,
      "Ġlives": 2559,
      "Ġopp": 2560,
      "çº³": 2561,
      "Ġdist": 2562,
      "ä¹ħ": 2563,
      "åºŃ": 2564,
      "å¦Ī": 2565,
      "My": 2566,
      "æĢĿèĢĥ": 2567,
      "ä»¶äºĭ": 2568,
      "...": 2569,
      "è¿Ļæĺ¯ä¸Ģä¸ª": 2570,
      "One": 2571,
      "Ġpretty": 2572,
      "Ġcoming": 2573,
      "Ġanything": 2574,
      "Ġpie": 2575,
      "åı¦ä¸Ģä¸ª": 2576,
      "ç©¿": 2577,
      "ä¼¤": 2578,
      "å¹¶ä¸Ķ": 2579,
      "Ġhalf": 2580,
      "Ġgr": 2581,
      "çļĦæĹ¶éĹ´": 2582,
      "Ġè¿ĺæľī": 2583,
      "Ġprot": 2584,
      "Ġtop": 2585,
      "Ġsoci": 2586,
      "Ġdef": 2587,
      "Ġscience": 2588,
      "ĠçĶ¨": 2589,
      "Ġsuch": 2590,
      "æĿĢ": 2591,
      "ogra": 2592,
      "ĠæľĢ": 2593,
      "ember": 2594,
      "å»ºç«ĭ": 2595,
      "ĠâĢĶ": 2596,
      "ortun": 2597,
      "åĲĦç§į": 2598,
      "åį°åº¦": 2599,
      "Ġstop": 2600,
      "åĩı": 2601,
      "æ´ĭ": 2602,
      "Ġbusiness": 2603,
      "æĺ¯åĲ¦": 2604,
      "ä»į": 2605,
      "ä¸ĸçºª": 2606,
      "ä»¤äºº": 2607,
      "ç»§": 2608,
      "der": 2609,
      "çī¹åĪ«": 2610,
      "Ġä¼ļ": 2611,
      "ality": 2612,
      "Ġsaw": 2613,
      "éĺ³": 2614,
      "æģĲ": 2615,
      "Ġacross": 2616,
      "éĿ©": 2617,
      "Why": 2618,
      "ead": 2619,
      "uring": 2620,
      "gs": 2621,
      "å½ĵä½ł": 2622,
      "æĦıåĳ³çĿĢ": 2623,
      "Ġå¤§": 2624,
      "æĪĳä¸į": 2625,
      "å¤įæĿĤ": 2626,
      "å°Ħ": 2627,
      "ä¸´": 2628,
      "åįĹ": 2629,
      "io": 2630,
      "man": 2631,
      "Ġrese": 2632,
      "Ġmatter": 2633,
      "åģ¥åº·": 2634,
      "å¤«": 2635,
      "Ġbad": 2636,
      "æİī": 2637,
      "Ġwo": 2638,
      "Ġenviron": 2639,
      "most": 2640,
      "ior": 2641,
      "å®ĮæĪĲ": 2642,
      "æĳĦ": 2643,
      "æĢ§çļĦ": 2644,
      "ç¦ı": 2645,
      "Ġfamily": 2646,
      "ĠThe": 2647,
      "éĩĩ": 2648,
      "çĸ¾": 2649,
      "kay": 2650,
      "ï¼Ľ": 2651,
      "idd": 2652,
      "Ġeas": 2653,
      "æİ§åĪ¶": 2654,
      "She": 2655,
      "Ġbring": 2656,
      "åĪ¶éĢł": 2657,
      "Ġseen": 2658,
      "Ġsound": 2659,
      "Ġmakes": 2660,
      "æ¤į": 2661,
      "Ġstand": 2662,
      "åķĬ": 2663,
      "å°Ŀè¯ķ": 2664,
      "Ġlater": 2665,
      "ince": 2666,
      "åľ¨ä¸Ģèµ·": 2667,
      "Ġty": 2668,
      "amp": 2669,
      "ä¾Ŀ": 2670,
      "Ġsays": 2671,
      "æĻ¯": 2672,
      "ç¡®å®ŀ": 2673,
      "å®Ļ": 2674,
      "ided": 2675,
      "å½ĵæĪĳ": 2676,
      "ä¿ĿæĬ¤": 2677,
      "å®ĩå®Ļ": 2678,
      "Ġeduc": 2679,
      "å¦ĤæŀľæĪĳä»¬": 2680,
      "èŀ": 2681,
      "ots": 2682,
      "æŃĮ": 2683,
      "olution": 2684,
      "ream": 2685,
      "æĥħåĨµ": 2686,
      "Ġscient": 2687,
      "Ġey": 2688,
      "å¤ļå°ĳ": 2689,
      "Ġhope": 2690,
      "éĤ£æł·": 2691,
      "Ġasked": 2692,
      "åģļäºĨ": 2693,
      "å¨ģ": 2694,
      "Ġfig": 2695,
      "Ġparticular": 2696,
      "äº¡": 2697,
      "ott": 2698,
      "Ġliving": 2699,
      "æĦŁåĪ°": 2700,
      "æĴŃ": 2701,
      "80": 2702,
      "çķĻ": 2703,
      "ä¸»ä¹ī": 2704,
      "å±ħ": 2705,
      "Ġexperience": 2706,
      "çļĦæĥ³": 2707,
      "ime": 2708,
      "Here": 2709,
      "arth": 2710,
      "çħ§çīĩ": 2711,
      "æį¢": 2712,
      "Ġaut": 2713,
      "Ġhour": 2714,
      "Ġshare": 2715,
      "çĳ": 2716,
      "Ġsimple": 2717,
      "ĠNew": 2718,
      "where": 2719,
      "èĴ": 2720,
      "Ġways": 2721,
      "æīĢæľīçļĦ": 2722,
      "ective": 2723,
      "Ġdet": 2724,
      "åĮ»çĶŁ": 2725,
      "For": 2726,
      "é¾": 2727,
      "èĳ": 2728,
      "åİĭ": 2729,
      "Ġhaving": 2730,
      "Ġgoes": 2731,
      "åĲĪä½ľ": 2732,
      "ash": 2733,
      "ization": 2734,
      "ken": 2735,
      "Ġsit": 2736,
      "Ġglobal": 2737,
      "Ġhappens": 2738,
      "åıĤä¸İ": 2739,
      "arr": 2740,
      "Ġresearch": 2741,
      "Ġcase": 2742,
      "åħŃ": 2743,
      "ĠAfrica": 2744,
      "ç§¯": 2745,
      "ught": 2746,
      "ä¸¥": 2747,
      "Ġfore": 2748,
      "As": 2749,
      "lf": 2750,
      "æĪĳä»¬éľĢè¦ģ": 2751,
      "åºı": 2752,
      "åĿı": 2753,
      "æ£Ĵ": 2754,
      "Ġdays": 2755,
      "Ġcomplete": 2756,
      "è¯Ńè¨Ģ": 2757,
      "Ġlist": 2758,
      "ä¸įè¿ĩ": 2759,
      "200": 2760,
      "Ġcult": 2761,
      "Ġval": 2762,
      "è¿Ľåħ¥": 2763,
      "Ġequ": 2764,
      "çļĦæ°": 2765,
      "ãĢĭ": 2766,
      "å¼Ĥ": 2767,
      "Ġair": 2768,
      "ãĢĬ": 2769,
      "æĦıè¯ĨåĪ°": 2770,
      "æĪĳæĺ¯": 2771,
      "Ġref": 2772,
      "æŁĵ": 2773,
      "åį«": 2774,
      "åľ°åĮº": 2775,
      "å¤ļæķ°": 2776,
      "ç¬¬ä¸Ģ": 2777,
      "ina": 2778,
      "é£Łçī©": 2779,
      "ä¸ĸçķĮä¸Ĭ": 2780,
      "æĻļ": 2781,
      "åĩłä¸ª": 2782,
      "Ġcol": 2783,
      "Ġpicture": 2784,
      "çĽ®æłĩ": 2785,
      "Ġthous": 2786,
      "ike": 2787,
      "çļĦæĸ¹æ³ķ": 2788,
      "èİ·å¾Ĺ": 2789,
      "æĿ¿": 2790,
      "ilt": 2791,
      "åĵĪ": 2792,
      "Ġcomputer": 2793,
      "30": 2794,
      "åľ¨è¿Ļ": 2795,
      "è¡Ģ": 2796,
      "ready": 2797,
      "è®¡åĪĴ": 2798,
      "Ġplanet": 2799,
      "Ġwonder": 2800,
      "Let": 2801,
      "æĻº": 2802,
      "çļĦç¬¬": 2803,
      "ç»§ç»Ń": 2804,
      "Ġsingle": 2805,
      "iter": 2806,
      "ä¸ŃåĽ½": 2807,
      "orn": 2808,
      "éģĩ": 2809,
      "Ġcity": 2810,
      "æİĮ": 2811,
      "Ġpolit": 2812,
      "Ġlevel": 2813,
      "Ġchar": 2814,
      "Ġrob": 2815,
      "ä¸Ńå¿ĥ": 2816,
      "ins": 2817,
      "å°ıæĹ¶": 2818,
      "ĠçļĦ": 2819,
      "Ġprof": 2820,
      "åı¦ä¸Ģ": 2821,
      "Ġwatch": 2822,
      "çĪ¶": 2823,
      "Ġphot": 2824,
      "Ġbre": 2825,
      "allen": 2826,
      "çĽĳ": 2827,
      "ants": 2828,
      "arent": 2829,
      "Ġproblems": 2830,
      "æĪĳä»¬æľī": 2831,
      "æķĳ": 2832,
      "aps": 2833,
      "é¼ĵ": 2834,
      "Ġmem": 2835,
      "è´£": 2836,
      "åľ¨æĪĳ": 2837,
      "ĠæĬĬ": 2838,
      "åı¦å¤ĸ": 2839,
      "less": 2840,
      "åįĩ": 2841,
      "angu": 2842,
      "med": 2843,
      "Ġalmost": 2844,
      "Ġwhile": 2845,
      "Ġrest": 2846,
      "å¤§åŃ¦": 2847,
      "Ġdise": 2848,
      "Ġloc": 2849,
      "Ġsix": 2850,
      "âĢĻ": 2851,
      "Ġpublic": 2852,
      "åĨĽ": 2853,
      "Ġenvironment": 2854,
      "ĠâĻª": 2855,
      "åĬª": 2856,
      "çŁŃ": 2857,
      "åĸĦ": 2858,
      "Ġamaz": 2859,
      "ov": 2860,
      "Ġtest": 2861,
      "æīįèĥ½": 2862,
      "Ġinside": 2863,
      "ograph": 2864,
      "Ġboth": 2865,
      "Ġsaying": 2866,
      "çł´": 2867,
      "å¸Ĥåľº": 2868,
      "ĠEarth": 2869,
      "Ġalready": 2870,
      "èĥĮ": 2871,
      "Ġsure": 2872,
      "è¯¾": 2873,
      "uge": 2874,
      "Ġcommunity": 2875,
      "Ġmach": 2876,
      "èģĶç³»": 2877,
      "ulation": 2878,
      "å®ĺ": 2879,
      "çĽĬ": 2880,
      "èĤ¯": 2881,
      "æĢķ": 2882,
      "èĻĳ": 2883,
      "çľĭèµ·æĿ¥": 2884,
      "ä½ľçĶ¨": 2885,
      "Ġcertain": 2886,
      "unch": 2887,
      "è§£éĩĬ": 2888,
      "æİ¥åıĹ": 2889,
      "åı«åģļ": 2890,
      "Ġyet": 2891,
      "Ġmor": 2892,
      "æĵ": 2893,
      "è¯¯": 2894,
      "Ġhear": 2895,
      "æĿĲ": 2896,
      "ä½łçŁ¥éģĵ": 2897,
      "æĭħ": 2898,
      "Ġbillion": 2899,
      "æĭ¬": 2900,
      "çĦ¶èĢĮ": 2901,
      "Ġlooked": 2902,
      "çĵ": 2903,
      "çĨ": 2904,
      "æ£®": 2905,
      "Ġanswer": 2906,
      "æ½": 2907,
      "ases": 2908,
      "å®¶åºŃ": 2909,
      "èĹ": 2910,
      "Ġsuc": 2911,
      "Ġpossible": 2912,
      "ee": 2913,
      "åĬªåĬĽ": 2914,
      "åĬ¿": 2915,
      "ivid": 2916,
      "çļ®": 2917,
      "è§¦": 2918,
      "osed": 2919,
      "æĽ´åĬł": 2920,
      "Ġlangu": 2921,
      "Ġnothing": 2922,
      "çº¸": 2923,
      "å·¥åħ·": 2924,
      "ange": 2925,
      "Ġonce": 2926,
      "å¹¶ä¸įæĺ¯": 2927,
      "Ġcontrol": 2928,
      "Ġgl": 2929,
      "ä»·åĢ¼": 2930,
      "Ġpain": 2931,
      "åħį": 2932,
      "çļĦç¤": 2933,
      "åĩłä¹İ": 2934,
      "Ġwhether": 2935,
      "ury": 2936,
      "å¹´è½»": 2937,
      "Ġexc": 2938,
      "çĬ¯": 2939,
      "å·¦": 2940,
      "Ġgirl": 2941,
      "Ġage": 2942,
      "åľ¨è¿ĻéĩĮ": 2943,
      "éĩįæĸ°": 2944,
      "æī¿": 2945,
      "éĿł": 2946,
      "Ġdisco": 2947,
      "æĿŁ": 2948,
      "Ġsomeone": 2949,
      "Ġcontin": 2950,
      "æļ´": 2951,
      "Ġvide": 2952,
      "Ġbasically": 2953,
      "Ġmusic": 2954,
      "Ġpar": 2955,
      "ä½łä¼ļ": 2956,
      "ä¸īä¸ª": 2957,
      "é¦ĸåħĪ": 2958,
      "Ġiss": 2959,
      "åĺ": 2960,
      "imate": 2961,
      "Ġchallen": 2962,
      "æħ¢": 2963,
      "Ġ9": 2964,
      "åľ¨è¿Ļä¸ª": 2965,
      "Ġwithin": 2966,
      "Ġideas": 2967,
      "work": 2968,
      "itive": 2969,
      "é¢ĨåŁŁ": 2970,
      "é¡¿": 2971,
      "Ġwrong": 2972,
      "Ġlab": 2973,
      "éķľ": 2974,
      "æľºåĻ¨äºº": 2975,
      "åĮĹ": 2976,
      "ĠéĤ£äºĽ": 2977,
      "çłģ": 2978,
      "Ġass": 2979,
      "èĲ¥": 2980,
      "æĺ¯æĪĳä»¬": 2981,
      "Ġoften": 2982,
      "å®ŀçİ°": 2983,
      "çĶµå½±": 2984,
      "Ġexact": 2985,
      "Ġremember": 2986,
      "éĢģ": 2987,
      "Ġunt": 2988,
      "Ġ30": 2989,
      "Ġamazing": 2990,
      "Ġmil": 2991,
      "åĨľ": 2992,
      "Ġlooks": 2993,
      "éĩįè¦ģçļĦ": 2994,
      "é¦Ĩ": 2995,
      "Ġincred": 2996,
      "ield": 2997,
      "Ġproduct": 2998,
      "éĩĮçļĦ": 2999,
      "Ġhistory": 3000,
      "åı¤": 3001,
      "çĶŁäº§": 3002,
      "Ġmyself": 3003,
      "å±Ģ": 3004,
      "åĽŀåĪ°": 3005,
      "oice": 3006,
      "side": 3007,
      "æĦıä¹ī": 3008,
      "Ġguy": 3009,
      "Ġbeautif": 3010,
      "Ġ100": 3011,
      "åĵ¥": 3012,
      "æĹı": 3013,
      "éĩĮéĿ¢": 3014,
      "çļĦçł": 3015,
      "Ġwa": 3016,
      "åĩºäºĨ": 3017,
      "Ġcost": 3018,
      "ĠTED": 3019,
      "åįģåĪĨ": 3020,
      "ene": 3021,
      "Ġtrue": 3022,
      "Ġtreat": 3023,
      "Ġdev": 3024,
      "æ¸¸æĪı": 3025,
      "Ġmonths": 3026,
      "Ġå°Ĩ": 3027,
      "Ġheart": 3028,
      "åı¥": 3029,
      "Ġdire": 3030,
      "å¿Ĺ": 3031,
      "å¹´ä»£": 3032,
      "âĢĿãĢĤ": 3033,
      "å¥¹ä»¬": 3034,
      "Ġ50": 3035,
      "åī§": 3036,
      "æĸ½": 3037,
      "æłĳ": 3038,
      "å®ĥæĺ¯": 3039,
      "ters": 3040,
      "æ³¨æĦı": 3041,
      "æĪĳå°±": 3042,
      "é¡¶": 3043,
      "ages": 3044,
      "ç©ºéĹ´": 3045,
      "ĠIntern": 3046,
      "åħ³æ³¨": 3047,
      "æ¸©": 3048,
      "de": 3049,
      "è´Ł": 3050,
      "ware": 3051,
      "åĢį": 3052,
      "åıįåºĶ": 3053,
      "æ³¢": 3054,
      "undred": 3055,
      "Ġä¸İ": 3056,
      "èĻ«": 3057,
      "Ġsw": 3058,
      "åĮħæĭ¬": 3059,
      "lish": 3060,
      "Ġnight": 3061,
      "Ġkill": 3062,
      "è®¨è®º": 3063,
      "No": 3064,
      "èĵ": 3065,
      "iverse": 3066,
      "Ġimagine": 3067,
      "èĮĥ": 3068,
      "cle": 3069,
      "å¸¦æĿ¥": 3070,
      "ĠUnited": 3071,
      "up": 3072,
      "åĤ": 3073,
      "aterial": 3074,
      "è§Ĥå¯Ł": 3075,
      "ä½ľåĵģ": 3076,
      "æĽ¾ç»ı": 3077,
      "æľīçĤ¹": 3078,
      "åĨ°": 3079,
      "åı³": 3080,
      "Ġself": 3081,
      "çŃĸ": 3082,
      "Ġlarge": 3083,
      "ling": 3084,
      "Ġè¦ģ": 3085,
      "Ġentire": 3086,
      "uck": 3087,
      "åª": 3088,
      "åĨ²": 3089,
      "Ġheard": 3090,
      "å¤ĦçĲĨ": 3091,
      "Ġæ¯Ķå¦Ĥ": 3092,
      "æĥ³æ³ķ": 3093,
      "Ġfigure": 3094,
      "ians": 3095,
      "éĥ½ä¼ļ": 3096,
      "äº§åĵģ": 3097,
      "è¡Ĺ": 3098,
      "æıı": 3099,
      "Ġadv": 3100,
      "bers": 3101,
      "Ġwasn": 3102,
      "æ°¸": 3103,
      "Ġindivid": 3104,
      "utes": 3105,
      "åĿ¦": 3106,
      "to": 3107,
      "uro": 3108,
      "Ġclass": 3109,
      "å¤ªéĺ³": 3110,
      "Ġstate": 3111,
      "Ġçİ°åľ¨": 3112,
      "ä¸Ģå®ļ": 3113,
      "åĽŃ": 3114,
      "çĻĮ": 3115,
      "Ġcells": 3116,
      "åŃ©åŃĲä»¬": 3117,
      "éĥ½æľī": 3118,
      "ivity": 3119,
      "Ġworks": 3120,
      "eah": 3121,
      "ä¼ĺ": 3122,
      "Ġcond": 3123,
      "Ġgroup": 3124,
      "åĪĨäº«": 3125,
      "ollow": 3126,
      "land": 3127,
      "èĪŀ": 3128,
      "çļĦç¤¾": 3129,
      "Ġorder": 3130,
      "æľĢç»Ī": 3131,
      "All": 3132,
      "ex": 3133,
      "ired": 3134,
      "Ġface": 3135,
      "ä¼¦": 3136,
      "åĬĽéĩı": 3137,
      "Ġhundred": 3138,
      "Ġfull": 3139,
      "Ġnews": 3140,
      "Ġ[": 3141,
      "æĪĳä¼ļ": 3142,
      "çļĦæµ": 3143,
      "Ġwords": 3144,
      "çİ°å®ŀ": 3145,
      "æ¬§": 3146,
      "ering": 3147,
      "èıĮ": 3148,
      "70": 3149,
      "ĳæĪĺ": 3150,
      "èī¾": 3151,
      "æĦŁè°¢": 3152,
      "Ġbeautiful": 3153,
      "oot": 3154,
      "å°±åı¯ä»¥": 3155,
      "æĤ£": 3156,
      "åĪĨéĴŁ": 3157,
      "ives": 3158,
      "Ġfriends": 3159,
      "vious": 3160,
      "Ġmag": 3161,
      "ç´§": 3162,
      "Ġgovernment": 3163,
      "Ġè¿Ļæł·": 3164,
      "Ġaff": 3165,
      "çļĦæĥ³æ³ķ": 3166,
      "çĽ¸å½ĵ": 3167,
      "iddle": 3168,
      "æ±½": 3169,
      "çļĦçĲ": 3170,
      "Ġå°±åĥı": 3171,
      "å¥¥": 3172,
      "å°±èĥ½": 3173,
      "èĩªçĶ±": 3174,
      "åĮºåŁŁ": 3175,
      "éĨ": 3176,
      "ä¸įåı¯": 3177,
      "Ġbuilt": 3178,
      "åĶ¯": 3179,
      "çļĦå¤§": 3180,
      "Ġnet": 3181,
      "ç«¥": 3182,
      "æĮģç»Ń": 3183,
      "Ġcouple": 3184,
      "ä¸½": 3185,
      "æĢª": 3186,
      "å®¹æĺĵ": 3187,
      "Ġche": 3188,
      "éĶ®": 3189,
      "Ń¦": 3190,
      "Ġpay": 3191,
      "ected": 3192,
      "çĻ¾ä¸ĩ": 3193,
      "15": 3194,
      "åĪĿ": 3195,
      "Ġappro": 3196,
      "Ġfil": 3197,
      "æĪ·": 3198,
      "æĪĳè§īå¾Ĺ": 3199,
      "Ġsec": 3200,
      "Ġresult": 3201,
      "oy": 3202,
      "æ¯ıä¸ªäºº": 3203,
      "Ġincre": 3204,
      "ock": 3205,
      "Ġindividual": 3206,
      "ç»ĵæŀĦ": 3207,
      "Ġäººä»¬": 3208,
      "Ġmaterial": 3209,
      "è¿Ļä¸ªéĹ®é¢ĺ": 3210,
      "è¿½": 3211,
      "Ġmust": 3212,
      "åĩĨå¤ĩ": 3213,
      "åªĴ": 3214,
      "å½ĵæĪĳä»¬": 3215,
      "ç£": 3216,
      "Ġ'": 3217,
      "Ġret": 3218,
      "atic": 3219,
      "Ġfront": 3220,
      "åį³ä½¿": 3221,
      "ny": 3222,
      "outh": 3223,
      "æĺ¯åĽłä¸º": 3224,
      "æ´»åĬ¨": 3225,
      "ä»ĺ": 3226,
      "è®¤è¯Ĩ": 3227,
      "ä¸įåĪ°": 3228,
      "è¯´çļĦ": 3229,
      "èģļ": 3230,
      "Ġtre": 3231,
      "Ġris": 3232,
      "Ġè¢«": 3233,
      "get": 3234,
      "aper": 3235,
      "è¶ħè¿ĩ": 3236,
      "Ġuntil": 3237,
      "bs": 3238,
      "ä¿®": 3239,
      "æľįåĬ¡": 3240,
      "ustr": 3241,
      "Ġvir": 3242,
      "Ġpiece": 3243,
      "çº¢": 3244,
      "çº½": 3245,
      "åĪ¶ä½ľ": 3246,
      "ç¥ŀç»ı": 3247,
      "èµĦæºĲ": 3248,
      "Ġlaw": 3249,
      "Ġfollow": 3250,
      "è§Ĥä¼Ĺ": 3251,
      "åıĮ": 3252,
      "ush": 3253,
      "æĬĹ": 3254,
      "è¡ĮåĬ¨": 3255,
      "æĺ¾ç¤º": 3256,
      "Ġinn": 3257,
      "Ġplaces": 3258,
      "Ġmarket": 3259,
      "æł¸": 3260,
      "Ġcancer": 3261,
      "Ġeverybody": 3262,
      "Ġquick": 3263,
      "ron": 3264,
      "Ġfund": 3265,
      "Ġdi": 3266,
      "Ġspecies": 3267,
      "Ġcompletely": 3268,
      "Ġdecided": 3269,
      "çļĦå·¥ä½ľ": 3270,
      "Ġconst": 3271,
      "éĺ²": 3272,
      "ä¸»è¦ģ": 3273,
      "ĠInternet": 3274,
      "è§Ĩé¢ĳ": 3275,
      "Ġz": 3276,
      "Ġbecame": 3277,
      "Ġname": 3278,
      "Ġknew": 3279,
      "ĠStates": 3280,
      "Ġpast": 3281,
      "Ġline": 3282,
      "TED": 3283,
      "Ġisn": 3284,
      "Ġdeep": 3285,
      "ä»£è¡¨": 3286,
      "èĪ¹": 3287,
      "èĻ½": 3288,
      "åħ´è¶£": 3289,
      "ats": 3290,
      "Ġland": 3291,
      "ç»ĥ": 3292,
      "æĪĺäºī": 3293,
      "Ġobject": 3294,
      "line": 3295,
      "è´«": 3296,
      "Ġlanguage": 3297,
      "end": 3298,
      "çļĦçĪ": 3299,
      "æŁĲç§į": 3300,
      "Ġcra": 3301,
      "çļĦå°ı": 3302,
      "Ġthough": 3303,
      "æĺ¯æĪĳ": 3304,
      "çīĪ": 3305,
      "åĲ«": 3306,
      "æ²»çĸĹ": 3307,
      "å¡ĳ": 3308,
      "Ġeducation": 3309,
      "å±ŀ": 3310,
      "Ġview": 3311,
      "ĠéĤ£ä¹Ī": 3312,
      "æĶ¿æ²»": 3313,
      "å¾Īå¥½": 3314,
      "è´¥": 3315,
      "åľ¨ä¸Ģä¸ª": 3316,
      "ä¼¯": 3317,
      "è½¯": 3318,
      "Ġtool": 3319,
      "omes": 3320,
      "çľĭåĪ°çļĦ": 3321,
      "æ¼Ķè®²": 3322,
      "å¤§æ¦Ĥ": 3323,
      "ç«¯": 3324,
      "æĸĩåĮĸ": 3325,
      "çļĦçłĶç©¶": 3326,
      "åĶ¯ä¸Ģ": 3327,
      "åİ»äºĨ": 3328,
      "Ġabs": 3329,
      "æĢ»æĺ¯": 3330,
      "Ġ5": 3331,
      "Ġexperim": 3332,
      "Ġterr": 3333,
      "çĸ¾çĹħ": 3334,
      "åģļåĩº": 3335,
      "åĪĨåŃĲ": 3336,
      "åıĳçĶŁäºĨ": 3337,
      "èµĽ": 3338,
      "æ¯Ķè¾ĥ": 3339,
      "çĽ´åĪ°": 3340,
      "Ġhappening": 3341,
      "ision": 3342,
      "ane": 3343,
      "Ġlearned": 3344,
      "å¢ŀéķ¿": 3345,
      "èŃ¦": 3346,
      "æĺİçĻ½": 3347,
      "æľ¨": 3348,
      "åı¯èĥ½ä¼ļ": 3349,
      "Ġinvest": 3350,
      "Ġdra": 3351,
      "ä¼ģ": 3352,
      "çļĦæĦŁ": 3353,
      "ined": 3354,
      "æ¨¡å¼ı": 3355,
      "Ġtrain": 3356,
      "å¼¹": 3357,
      "Ġstudy": 3358,
      "æĪĳä»¬è¦ģ": 3359,
      "æľīäºĨ": 3360,
      "Ġstories": 3361,
      "Ġdru": 3362,
      "è¶ĬæĿ¥": 3363,
      "cing": 3364,
      "Ġfree": 3365,
      "Ġvideo": 3366,
      "Ġexactly": 3367,
      "br": 3368,
      "ĠIs": 3369,
      "ental": 3370,
      "Ġtaking": 3371,
      "ator": 3372,
      "çļĦæĥħåĨµ": 3373,
      "è¾ĵ": 3374,
      "Ġsomebody": 3375,
      "èģĮ": 3376,
      "éħį": 3377,
      "ien": 3378,
      "æĪĳä¹Ł": 3379,
      "Ġhuge": 3380,
      "æĪĳä»¬ä¸į": 3381,
      "ä»ĸè¯´": 3382,
      "Ġstudents": 3383,
      "éŃ": 3384,
      "Ġsca": 3385,
      "Ġhouse": 3386,
      "åħ«": 3387,
      "å¯»æī¾": 3388,
      "è¶ĬæĿ¥è¶Ĭ": 3389,
      "çľŁå®ŀ": 3390,
      "Ġwoman": 3391,
      "è¯Ħ": 3392,
      "Ġitself": 3393,
      "gest": 3394,
      "Ġdeal": 3395,
      "Ġanimals": 3396,
      "çļĦçĲĨ": 3397,
      "ä»¥åīį": 3398,
      "Ġgets": 3399,
      "Ġnature": 3400,
      "Ġengine": 3401,
      "èĢĥèĻĳ": 3402,
      "Ġsuccess": 3403,
      "aw": 3404,
      "åŁºç¡": 3405,
      "Ġstruct": 3406,
      "åıĳæĺİ": 3407,
      "æĽ²": 3408,
      "ret": 3409,
      "rop": 3410,
      "çģ¯": 3411,
      "Ġsociety": 3412,
      "åŁºç¡Ģ": 3413,
      "åĹ": 3414,
      "aster": 3415,
      "ç§ĳåŃ¦å®¶": 3416,
      "omet": 3417,
      "Ġmess": 3418,
      "Ġpos": 3419,
      "ç±»ä¼¼": 3420,
      "çĸĳ": 3421,
      "ĠAmerica": 3422,
      "è¯º": 3423,
      "æŀ¶": 3424,
      "Ġ15": 3425,
      "CA": 3426,
      "è®Ń": 3427,
      "ients": 3428,
      "Ġav": 3429,
      "ä¸Ģä½į": 3430,
      "ä¸Ģä¸ªäºº": 3431,
      "Ġuniverse": 3432,
      "Ġå¦Ĥæŀľä½ł": 3433,
      "æľīå¾Īå¤ļ": 3434,
      "Ġones": 3435,
      "å¤§çº¦": 3436,
      "èĪ¬": 3437,
      "éĥ½åľ¨": 3438,
      "Ġthemselves": 3439,
      "çĽ®åīį": 3440,
      "åĲ¬åĪ°": 3441,
      "Ġsince": 3442,
      "åľ£": 3443,
      "æĪĲäºĨ": 3444,
      "Ġourselves": 3445,
      "è§ĤçĤ¹": 3446,
      "Ġagainst": 3447,
      "Ġmic": 3448,
      "ional": 3449,
      "Ġspend": 3450,
      "Ġquestions": 3451,
      "æł¹æľ¬": 3452,
      "dd": 3453,
      "ä»ĭ": 3454,
      "äº®": 3455,
      "Ġkinds": 3456,
      "æŃ»äº¡": 3457,
      "å·¥ç¨ĭ": 3458,
      "itting": 3459,
      "èĻ½çĦ¶": 3460,
      "ogn": 3461,
      "Ġclose": 3462,
      "åĬŀæ³ķ": 3463,
      "æĦıæĢĿ": 3464,
      "æ¥ļ": 3465,
      "Ġopportun": 3466,
      "ones": 3467,
      "Ġmeet": 3468,
      "éĢļå¸¸": 3469,
      "å¥³åŃ©": 3470,
      "ocus": 3471,
      "è·³": 3472,
      "acter": 3473,
      "çĶµè¯Ŀ": 3474,
      "Ġbehav": 3475,
      "face": 3476,
      "åįĸ": 3477,
      "ä¸ĬéĿ¢": 3478,
      "å¹´çļĦ": 3479,
      "Ġsometimes": 3480,
      "Ġåıª": 3481,
      "éª¨": 3482,
      "âĢ¦": 3483,
      "æľºæŀĦ": 3484,
      "etic": 3485,
      "Ġmeas": 3486,
      "éģį": 3487,
      "ç¬¬ä¸Ģä¸ª": 3488,
      "åĬ±": 3489,
      "åįİ": 3490,
      "èĥ½æºĲ": 3491,
      "Ġturns": 3492,
      "çĽĸ": 3493,
      "éĺ¶": 3494,
      "ç¬¬ä¸Ģæ¬¡": 3495,
      "sy": 3496,
      "éĹ»": 3497,
      "è¸": 3498,
      "æĪĳä»¬æīĢ": 3499,
      "å¤§å¤ļæķ°": 3500,
      "æĮī": 3501,
      "çģµ": 3502,
      "åħ¸": 3503,
      "icult": 3504,
      "ctor": 3505,
      "æĹłè®º": 3506,
      "å°º": 3507,
      "è´Ŀ": 3508,
      "att": 3509,
      "å°±åľ¨": 3510,
      "thers": 3511,
      "å°ıçļĦ": 3512,
      "è·ĳ": 3513,
      "çļĦäººä»¬": 3514,
      "Ġprov": 3515,
      "Ġalong": 3516,
      "çļĦæķ°æį®": 3517,
      "å¤§éĩı": 3518,
      "å¥¹çļĦ": 3519,
      "èº«ä¸Ĭ": 3520,
      "Ġcomplex": 3521,
      "Ġcompany": 3522,
      "eg": 3523,
      "lud": 3524,
      "Ġdep": 3525,
      "å°½ç®¡": 3526,
      "èĨ": 3527,
      "ĠéĢļè¿ĩ": 3528,
      "gle": 3529,
      "å²Ľ": 3530,
      "Ġcreated": 3531,
      "Ġhours": 3532,
      "ĠThey": 3533,
      "ç»ĵæĿŁ": 3534,
      "Ġminutes": 3535,
      "11": 3536,
      "haps": 3537,
      "Ġcouldn": 3538,
      "ç¼ĸ": 3539,
      "æľīåħ³": 3540,
      "åįı": 3541,
      "Ġteam": 3542,
      "ability": 3543,
      "è¿·": 3544,
      "Ġfocus": 3545,
      "ä¼Ł": 3546,
      "èĩªæĪĳ": 3547,
      "Ġmass": 3548,
      "Ġworked": 3549,
      "Ġpred": 3550,
      "èĭ¦": 3551,
      "Ġdisease": 3552,
      "æķ°åŃĹ": 3553,
      "cc": 3554,
      "Ġæ²¡æľī": 3555,
      "æ¯ıå¤©": 3556,
      "iversity": 3557,
      "Ġoce": 3558,
      "Then": 3559,
      "Ġclear": 3560,
      "Ġparent": 3561,
      "æĹħ": 3562,
      "Ġsex": 3563,
      "å¯¹æĪĳ": 3564,
      "æĽ´å¥½": 3565,
      "ium": 3566,
      "ĠHe": 3567,
      "ä¼łç»Ł": 3568,
      "çº½çº¦": 3569,
      "ĠåĪ°": 3570,
      "Ġhold": 3571,
      "çķ¥": 3572,
      "ĠThank": 3573,
      "ames": 3574,
      "Ġrelations": 3575,
      "åĵªéĩĮ": 3576,
      "çļĦæİ": 3577,
      "åĿĩ": 3578,
      "Ġmother": 3579,
      "çļĦçĹ": 3580,
      "urs": 3581,
      "ä¸įæĸŃ": 3582,
      "å¦Ļ": 3583,
      "Ġrather": 3584,
      "ature": 3585,
      "ä¼Ļ": 3586,
      "ming": 3587,
      "è®¡ç®Ĺæľº": 3588,
      "Ġä½¿": 3589,
      "çľĭçĿĢ": 3590,
      "åĪ«äºº": 3591,
      "Ġwind": 3592,
      "æĪĳçŁ¥éģĵ": 3593,
      "çĹĽ": 3594,
      "æĿĲæĸĻ": 3595,
      "æ±½è½¦": 3596,
      "çļĦç¡": 3597,
      "ĠIndia": 3598,
      "Ġill": 3599,
      "é¡¾": 3600,
      "è®°å½ķ": 3601,
      "Ġthousands": 3602,
      "çļĦä¸ĸçķĮ": 3603,
      "åģļåĪ°": 3604,
      "Ġleast": 3605,
      "å¡Ķ": 3606,
      "Ġthird": 3607,
      "åĲ¯": 3608,
      "å¸Ŀ": 3609,
      "Ġbott": 3610,
      "æ¯ıä¸ª": 3611,
      "Ġblack": 3612,
      "ĠThat": 3613,
      "çīĽ": 3614,
      "Ġdifficult": 3615,
      "ibly": 3616,
      "æ¸ħæ¥ļ": 3617,
      "Ġprogram": 3618,
      "å¾ģ": 3619,
      "ĠThis": 3620,
      "Ġothers": 3621,
      "åĳ¼": 3622,
      "âĢĿï¼Į": 3623,
      "Ġeveryone": 3624,
      "Ġinnov": 3625,
      "Ġemp": 3626,
      "Ġä¸º": 3627,
      "illions": 3628,
      "Ġexist": 3629,
      "ç¨ĭåº¦": 3630,
      "Ġguys": 3631,
      "Ġfly": 3632,
      "Ġliter": 3633,
      "åĿļ": 3634,
      "12": 3635,
      "Ġwon": 3636,
      "æľīä¸ª": 3637,
      "Ġearly": 3638,
      "ale": 3639,
      "ä¸ĥ": 3640,
      "è¿ĩçļĦ": 3641,
      "Ġè¿ĺ": 3642,
      "Ġjour": 3643,
      "èŀį": 3644,
      "çļĦæŃ": 3645,
      "ç¦»å¼Ģ": 3646,
      "æĦ¿æĦı": 3647,
      "æĪĲçļĦ": 3648,
      "æīĭæľº": 3649,
      "Ġlisten": 3650,
      "Ġmath": 3651,
      "Ġmiss": 3652,
      "æĪĳä»¬èĥ½": 3653,
      "istic": 3654,
      "èĵĿ": 3655,
      "Ġbab": 3656,
      "ĠGod": 3657,
      "äºĨæĪĳ": 3658,
      "èĭ±åĽ½": 3659,
      "è§Ĵåº¦": 3660,
      "åªĴä½ĵ": 3661,
      "ĠæĪĳæĥ³": 3662,
      "éħĴ": 3663,
      "Ġinstead": 3664,
      "ä»ħä»ħæĺ¯": 3665,
      "èĹı": 3666,
      "ä½łèĥ½": 3667,
      "ither": 3668,
      "è¿ĽåĮĸ": 3669,
      "app": 3670,
      "Ġgame": 3671,
      "æĢĢ": 3672,
      "åĪĨä¹ĭ": 3673,
      "Ġè¿Ļç§į": 3674,
      "åıĹåĪ°": 3675,
      "çļĦæĸ°": 3676,
      "ially": 3677,
      "not": 3678,
      "çļĦç¥": 3679,
      "100": 3680,
      "cul": 3681,
      "Ġlots": 3682,
      "Ġspeak": 3683,
      "wards": 3684,
      "ented": 3685,
      "ider": 3686,
      "Ġhappy": 3687,
      "Ġaud": 3688,
      "ination": 3689,
      "Ġfield": 3690,
      "Ġgave": 3691,
      "æĪĳä»¬ä¹Ł": 3692,
      "éģ¿": 3693,
      "è®°å¾Ĺ": 3694,
      "åĮ»çĸĹ": 3695,
      "å®ŀéªĮå®¤": 3696,
      "Every": 3697,
      "iqu": 3698,
      "Ġvar": 3699,
      "èĤī": 3700,
      "åºĶçĶ¨": 3701,
      "éĢŁåº¦": 3702,
      "erv": 3703,
      "Ġrad": 3704,
      "Ġnorm": 3705,
      "å¥ĭ": 3706,
      "Ġarch": 3707,
      "çĹħæ¯Ĵ": 3708,
      "Ġamount": 3709,
      "¤Ĳ": 3710,
      "olved": 3711,
      "Ġtaken": 3712,
      "Ġèĥ½": 3713,
      "Ġsystems": 3714,
      "Ġmot": 3715,
      "ç½ª": 3716,
      "Ġleg": 3717,
      "æ£Ģ": 3718,
      "ç¤¾åĮº": 3719,
      "ç¿»": 3720,
      "40": 3721,
      "Ġsens": 3722,
      "çī©è´¨": 3723,
      "ç©·": 3724,
      "æīĢä»¥æĪĳ": 3725,
      "Ġoutside": 3726,
      "ĠBr": 3727,
      "æİ¥çĿĢ": 3728,
      "å¾Ĺä¸į": 3729,
      "åĢĴ": 3730,
      "ä»įçĦ¶": 3731,
      "ç¼º": 3732,
      "ĠYork": 3733,
      "Ġnatural": 3734,
      "Ġfail": 3735,
      "uss": 3736,
      "åħ³éĶ®": 3737,
      "Ġsimp": 3738,
      "é¢Ĩå¯¼": 3739,
      "Some": 3740,
      "Ġ...": 3741,
      "ä¸ĢåĪĩ": 3742,
      "çļĦæ¼": 3743,
      "Ġdifference": 3744,
      "æļĹ": 3745,
      "çĶ·äºº": 3746,
      "åħħæ»¡": 3747,
      "Ġpot": 3748,
      "ç§»åĬ¨": 3749,
      "Ġnetwork": 3750,
      "iol": 3751,
      "æ²Ļ": 3752,
      "ç³Ł": 3753,
      "éĶĻè¯¯": 3754,
      "è°Īè®º": 3755,
      "utions": 3756,
      "å¥½äºĨ": 3757,
      "çıŃ": 3758,
      "aking": 3759,
      "Ġcir": 3760,
      "Ġbro": 3761,
      "ä¸įè¦ģ": 3762,
      "Ġstep": 3763,
      "Ġdeath": 3764,
      "ared": 3765,
      "Ġä½łä»¬": 3766,
      "ç»¿": 3767,
      "æīĢä»¥æĪĳä»¬": 3768,
      "ĠèĢĮæĺ¯": 3769,
      "å¾Īå¤ļäºº": 3770,
      "Ġrecord": 3771,
      "ris": 3772,
      "çľĭè§ģ": 3773,
      "åŁĥ": 3774,
      "å¥³äºº": 3775,
      "åĲįåŃĹ": 3776,
      "Ġextra": 3777,
      "Ġchanged": 3778,
      "èĲ¨": 3779,
      "é£ŀè¡Į": 3780,
      "é¤Ĳ": 3781,
      "ĠWhat": 3782,
      "ential": 3783,
      "å¹ħ": 3784,
      "æ²³": 3785,
      "ç»ĻæĪĳ": 3786,
      "Ġä½łåı¯ä»¥": 3787,
      "ove": 3788,
      "ift": 3789,
      "æģ¶": 3790,
      "ĠEuro": 3791,
      "Ġve": 3792,
      "Ġhy": 3793,
      "è¿Ļå¼ł": 3794,
      "åĲİæĿ¥": 3795,
      "åĽŀçŃĶ": 3796,
      "ĠæŃ£": 3797,
      "ĠçĶļèĩ³": 3798,
      "Ġstre": 3799,
      "è¯ķåĽ¾": 3800,
      "æĿĳ": 3801,
      "æµ·æ´ĭ": 3802,
      "Ġinteract": 3803,
      "Ġsupport": 3804,
      "Ġrecent": 3805,
      "å¾Īæľī": 3806,
      "åĽ¾çīĩ": 3807,
      "ological": 3808,
      "çŃīçŃī": 3809,
      "Ġlearning": 3810,
      "å¯¼èĩ´": 3811,
      "è¯ģæĺİ": 3812,
      "ĠAmerican": 3813,
      "Ġmiddle": 3814,
      "Ġant": 3815,
      "ç¯": 3816,
      "Ġlim": 3817,
      "çļĦæ¸": 3818,
      "éģĹ": 3819,
      "å¥½åĲ§": 3820,
      "Ġeffect": 3821,
      "çĶµè§Ĩ": 3822,
      "ä¸Ģå¤©": 3823,
      "vered": 3824,
      "åºĹ": 3825,
      "åľ¨éĤ£": 3826,
      "Ġshap": 3827,
      "Ġcolle": 3828,
      "æĶ¯æĮģ": 3829,
      "rew": 3830,
      "Ġoper": 3831,
      "Ġcam": 3832,
      "æĺ¯çļĦ": 3833,
      "ased": 3834,
      "Do": 3835,
      "èĦı": 3836,
      "Ġleave": 3837,
      "Ġcut": 3838,
      "çļĦæĮ": 3839,
      "Ġsaf": 3840,
      "å¹¶æ²¡æľī": 3841,
      "çĽ¸åħ³": 3842,
      "æ´ŀ": 3843,
      "æĽ´å¤ļçļĦ": 3844,
      "Ġrelationship": 3845,
      "èĢĮè¨Ģ": 3846,
      "åħ¶å®ĥ": 3847,
      "Ġrev": 3848,
      "Ġseven": 3849,
      "è®¾å¤ĩ": 3850,
      "èĪª": 3851,
      "ully": 3852,
      "Ġmachine": 3853,
      "æ½ľ": 3854,
      "èĥ½éĩı": 3855,
      "Ġarea": 3856,
      "å±ĭ": 3857,
      "åĪĽæĸ°": 3858,
      "ä¿ĿæĮģ": 3859,
      "çĺ": 3860,
      "æĪĳåı¯ä»¥": 3861,
      "orth": 3862,
      "åłĤ": 3863,
      "Ġeyes": 3864,
      "äººåı£": 3865,
      "ides": 3866,
      "çļĦç¡®": 3867,
      "Ġred": 3868,
      "å¾Īéļ¾": 3869,
      "ĠAr": 3870,
      "æ¨¡åŀĭ": 3871,
      "Ġcentury": 3872,
      "Ġtyp": 3873,
      "éĿ¢å¯¹": 3874,
      "Ġturned": 3875,
      "Or": 3876,
      "fect": 3877,
      "Ġes": 3878,
      "Ġcities": 3879,
      "æīĺ": 3880,
      "é¡º": 3881,
      "æŀĲ": 3882,
      "çļĦæĬĢ": 3883,
      "ĠåĲĮæĹ¶": 3884,
      "Ġda": 3885,
      "Ġdig": 3886,
      "elt": 3887,
      "Ch": 3888,
      "ç§ģ": 3889,
      "è·Ŀ": 3890,
      "è¶³å¤Ł": 3891,
      "Ġbeginning": 3892,
      "era": 3893,
      "ĠAl": 3894,
      "ä¸įåı¯èĥ½": 3895,
      "éĤ£æĺ¯": 3896,
      "çĶµåŃĲ": 3897,
      "Ġbehind": 3898,
      "ĠæĽ´": 3899,
      "Ġident": 3900,
      "ç«ł": 3901,
      "çļĦæ¯ı": 3902,
      "Ġgreen": 3903,
      "è¯Ĺ": 3904,
      "Ġyourself": 3905,
      "å¹»": 3906,
      "Ġdream": 3907,
      "æ¸Ĳ": 3908,
      "Ġgiven": 3909,
      "gen": 3910,
      "els": 3911,
      "çĽ´æİ¥": 3912,
      "å¢ŀåĬł": 3913,
      "éº»": 3914,
      "Ġbehavior": 3915,
      "ĠEurope": 3916,
      "Ġlow": 3917,
      "Ġhands": 3918,
      "èĩ³å°ĳ": 3919,
      "olute": 3920,
      "å§Ĩ": 3921,
      "ney": 3922,
      "åħ·æľī": 3923,
      "æĥ³åĪ°": 3924,
      "çī©ç§į": 3925,
      "Ġcommon": 3926,
      "inal": 3927,
      "inary": 3928,
      "Ġpick": 3929,
      "Ġexplain": 3930,
      "Ġåĥı": 3931,
      "iving": 3932,
      "åħ¨ä¸ĸçķĮ": 3933,
      "Ġlocal": 3934,
      "oh": 3935,
      "verage": 3936,
      "åģļä»Ģä¹Ī": 3937,
      "æ´¾": 3938,
      "è¾¾åĪ°": 3939,
      "Ġcommunic": 3940,
      "å¥ĸ": 3941,
      "åįģå¹´": 3942,
      "æµĭè¯ķ": 3943,
      "åĪ°åºķ": 3944,
      "Ġshort": 3945,
      "Ġdel": 3946,
      "æįķ": 3947,
      "æľĢè¿ĳ": 3948,
      "Ġneeded": 3949,
      "åĨħå®¹": 3950,
      "Ġpopulation": 3951,
      "sych": 3952,
      "ern": 3953,
      "Ġreach": 3954,
      "è°·": 3955,
      "æŃ£ç¡®": 3956,
      "åĪ©äºļ": 3957,
      "çĩ": 3958,
      "Ġsent": 3959,
      "Ġbegan": 3960,
      "è®©äºº": 3961,
      "Ġseeing": 3962,
      "èĦļ": 3963,
      "èĽĭ": 3964,
      "itch": 3965,
      "Ġtakes": 3966,
      "Ġfinally": 3967,
      "ĠBut": 3968,
      "çļĦæ²": 3969,
      "åĨ·": 3970,
      "çļĦåİŁåĽł": 3971,
      "æľīæķĪ": 3972,
      "å¦ĩ": 3973,
      "Ġperhaps": 3974,
      "Ġsym": 3975,
      "äº¤æµģ": 3976,
      "ĠChina": 3977,
      "Ġeasy": 3978,
      "Ġbreak": 3979,
      "ges": 3980,
      "æĩ": 3981,
      "çļĦçŁ": 3982,
      "astic": 3983,
      "Ġaccess": 3984,
      "lock": 3985,
      "ä¾ĭå¦Ĥ": 3986,
      "èĢģå¸Ī": 3987,
      "åħ±åĲĮ": 3988,
      "è´¢": 3989,
      "å»ºéĢł": 3990,
      "èī²çļĦ": 3991,
      "aring": 3992,
      "è¿ŀæİ¥": 3993,
      "itions": 3994,
      "year": 3995,
      "çĶ¨æĿ¥": 3996,
      "åĩºçļĦ": 3997,
      "ump": 3998,
      "éļĲ": 3999,
      "æīĢæľīäºº": 4000,
      "ç²¾ç¥ŀ": 4001,
      "çļĦç¾": 4002,
      "éĽ¶": 4003,
      "åĦ¿ç«¥": 4004,
      "Ġpattern": 4005,
      "com": 4006,
      "åĪ¤": 4007,
      "å·§": 4008,
      "Ġimpro": 4009,
      "ipp": 4010,
      "éĢı": 4011,
      "reme": 4012,
      "æİ¥ä¸ĭæĿ¥": 4013,
      "Ġoil": 4014,
      "Ġnon": 4015,
      "Ġmoving": 4016,
      "çī©çĲĨ": 4017,
      "æĪĳä»¬çİ°åľ¨": 4018,
      "çİ°è±¡": 4019,
      "æ´Ľ": 4020,
      "ç»Ļä½łä»¬": 4021,
      "ĠFr": 4022,
      "å¡ŀ": 4023,
      "Ġterms": 4024,
      "ples": 4025,
      "Ġjo": 4026,
      "æĬķèµĦ": 4027,
      "Ġculture": 4028,
      "å¼ĥ": 4029,
      "éĤ£æĹ¶": 4030,
      "çļĦçº": 4031,
      "äºĴèģĶ": 4032,
      "Ġcompanies": 4033,
      "å¤ļçļĦ": 4034,
      "æĽ¼": 4035,
      "Ġobvious": 4036,
      "èį¯çī©": 4037,
      "jor": 4038,
      "Ġstay": 4039,
      "æĹ¶ä»£": 4040,
      "éļıçĿĢ": 4041,
      "æĹ§": 4042,
      "Ġneeds": 4043,
      "èĮĥåĽ´": 4044,
      "Ġopt": 4045,
      "ä¹±": 4046,
      "ä¼ļæľī": 4047,
      "ero": 4048,
      "ery": 4049,
      "Ġtot": 4050,
      "ä½łåľ¨": 4051,
      "Ġcannot": 4052,
      "ĠEng": 4053,
      "Ġrealized": 4054,
      "åĩıå°ĳ": 4055,
      "Ġfre": 4056,
      "çļĦçħ§": 4057,
      "Ġparts": 4058,
      "Ġtrad": 4059,
      "Ġlonger": 4060,
      "Ġpowerful": 4061,
      "éĵ¶": 4062,
      "èĳĹ": 4063,
      "çīĻ": 4064,
      "æĭŁ": 4065,
      "æľ¬èº«": 4066,
      "Ġsimply": 4067,
      "idence": 4068,
      "å¤§éĥ¨åĪĨ": 4069,
      "çĨŁ": 4070,
      "è¿ª": 4071,
      "å¥Ĺ": 4072,
      "æĶ¾åľ¨": 4073,
      "Ġemot": 4074,
      "Ġ40": 4075,
      "çŃĶæ¡Ī": 4076,
      "ony": 4077,
      "çļĦç½": 4078,
      "ç¬Ķ": 4079,
      "Ġsuper": 4080,
      "18": 4081,
      "ãĢĤâĢľ": 4082,
      "Ġpaper": 4083,
      "ç§ĺ": 4084,
      "Ġtem": 4085,
      "åĬŁèĥ½": 4086,
      "å¾Īå¿«": 4087,
      "åŁ¹": 4088,
      "Ġintell": 4089,
      "å·¨å¤§çļĦ": 4090,
      "èĿ": 4091,
      "Ġduring": 4092,
      "å¥½åĥı": 4093,
      "éĨĴ": 4094,
      "ä¹Łæľī": 4095,
      "èĦ¸": 4096,
      "è¯Ĭ": 4097,
      "ç«Ł": 4098,
      "çļĦä¸Ģéĥ¨åĪĨ": 4099,
      "Ġwonderful": 4100,
      "å¥ı": 4101,
      "éĢĢ": 4102,
      "æĺİæĺ¾": 4103,
      "è¡¨çİ°": 4104,
      "Ġfather": 4105,
      "ä¸Ĭåİ»": 4106,
      "çļĦç©": 4107,
      "åĽ¢éĺŁ": 4108,
      "ä¼ģä¸ļ": 4109,
      "Ġæ¯Ķ": 4110,
      "Ġimage": 4111,
      "éĺ»": 4112,
      "çļĦæĸĩ": 4113,
      "èįī": 4114,
      "ton": 4115,
      "åľ¨æĪĳä»¬": 4116,
      "Ġviol": 4117,
      "Ġ18": 4118,
      "Ġfamil": 4119,
      "Ġserv": 4120,
      "Ġfriend": 4121,
      "èľĤ": 4122,
      "sh": 4123,
      "Ġ12": 4124,
      "Ġsurv": 4125,
      "éº¦": 4126,
      "Ġocc": 4127,
      "å¤ľ": 4128,
      "ç§Ĵ": 4129,
      "è¡¡": 4130,
      "å½¢å¼ı": 4131,
      "Ġeight": 4132,
      "Ġweek": 4133,
      "Ġsize": 4134,
      "ä¸ĢæŃ¥": 4135,
      "å®Ĺ": 4136,
      "åįł": 4137,
      "Ġreality": 4138,
      "Ġinclud": 4139,
      "åĪļåĪļ": 4140,
      "port": 4141,
      "Ġpsych": 4142,
      "ax": 4143,
      "è¿¹": 4144,
      "äºĨè¿Ļä¸ª": 4145,
      "ä¹Łä¸į": 4146,
      "Ġchem": 4147,
      "Ġevent": 4148,
      "90": 4149,
      "eople": 4150,
      "çĲĨè®º": 4151,
      "Ġdisc": 4152,
      "èİ±": 4153,
      "å©ļ": 4154,
      "éĴĪ": 4155,
      "Ġ7": 4156,
      "ä¸Ģå¼ł": 4157,
      "çĹħäºº": 4158,
      "Ġrepres": 4159,
      "æĪĳä»¬éĥ½": 4160,
      "è®¿": 4161,
      "å¿Ĩ": 4162,
      "æ¬¾": 4163,
      "åĳĬè¯īä½ł": 4164,
      "åį±éĻ©": 4165,
      "äºĪ": 4166,
      "æĺ¯å¦Ĥä½ķ": 4167,
      "Ġmajor": 4168,
      "Ġabsolute": 4169,
      "Ġfelt": 4170,
      "Ġarg": 4171,
      "æĪĳå¸ĮæľĽ": 4172,
      "Ġge": 4173,
      "å¼Ħ": 4174,
      "åĪĨæŀĲ": 4175,
      "Ġtried": 4176,
      "cious": 4177,
      "Ġperform": 4178,
      "Ġresour": 4179,
      "åŁºæľ¬ä¸Ĭ": 4180,
      "éĢĶ": 4181,
      "Ġwhatever": 4182,
      "Ġä½łä¼ļ": 4183,
      "çĮ©": 4184,
      "æ°¸è¿ľ": 4185,
      "Ġparents": 4186,
      "Ġess": 4187,
      "ode": 4188,
      "çģŃ": 4189,
      "çªģçĦ¶": 4190,
      "On": 4191,
      "Ġperfect": 4192,
      "Ġpoor": 4193,
      "Ġspecial": 4194,
      "çĭĤ": 4195,
      "å¼±": 4196,
      "Ġpriv": 4197,
      "Ġsun": 4198,
      "Ġpress": 4199,
      "èĦ±": 4200,
      "Ġåħ³äºİ": 4201,
      "Ġpract": 4202,
      "ä¼´": 4203,
      "æ¯«": 4204,
      "åĬĽçļĦ": 4205,
      "Ġä¹Łå°±æĺ¯": 4206,
      "é¼ł": 4207,
      "Ġapproach": 4208,
      "Ġquickly": 4209,
      "fully": 4210,
      "hood": 4211,
      "æĿ¥çľĭ": 4212,
      "å¼Ģåıĳ": 4213,
      "é£ŀæľº": 4214,
      "çļĦæ¼Ķ": 4215,
      "Ġsqu": 4216,
      "ison": 4217,
      "æĸ¯åĿ¦": 4218,
      "å¢Ļ": 4219,
      "Ġfish": 4220,
      "lease": 4221,
      "å¦Ĥä»Ĭ": 4222,
      "Ġphone": 4223,
      "Ġeconomic": 4224,
      "Ġwall": 4225,
      "æĪĳæīĢ": 4226,
      "Ġfall": 4227,
      "oogle": 4228,
      "osp": 4229,
      "æĪĸè®¸": 4230,
      "Ġexpect": 4231,
      "Ġsurpr": 4232,
      "Ġrobot": 4233,
      "äººåĳĺ": 4234,
      "Ġmedia": 4235,
      "å°¤": 4236,
      "æĪĳä»¬è¿ĺ": 4237,
      "æĬĺ": 4238,
      "rought": 4239,
      "è½®": 4240,
      "åķĨä¸ļ": 4241,
      "å®Ŀ": 4242,
      "Ġblood": 4243,
      "rodu": 4244,
      "åħ¬åħ±": 4245,
      "ibility": 4246,
      "æ··": 4247,
      "é²ģ": 4248,
      "At": 4249,
      "æķ£": 4250,
      "ç»ıå¸¸": 4251,
      "çļĦæĦıæĢĿ": 4252,
      "Ġprotect": 4253,
      "èĤ¯å®ļ": 4254,
      "Ġdark": 4255,
      "ĠDNA": 4256,
      "è§Ħæ¨¡": 4257,
      "äºĴèģĶç½ĳ": 4258,
      "itect": 4259,
      "æĪĳä»¬å¿ħé¡»": 4260,
      "æ¥¼": 4261,
      "Ġsitu": 4262,
      "Ġrequ": 4263,
      "éĹŃ": 4264,
      "è¡£": 4265,
      "Ġpersonal": 4266,
      "Ġinsp": 4267,
      "åĳ¨åĽ´": 4268,
      "unt": 4269,
      "ä»¥åĲİ": 4270,
      "ç®¡çĲĨ": 4271,
      "è¿Ļä¸ĢçĤ¹": 4272,
      "éĿĴ": 4273,
      "Ġemb": 4274,
      "ledge": 4275,
      "Ġpresent": 4276,
      "åĽ°éļ¾": 4277,
      "crib": 4278,
      "Ġyes": 4279,
      "Ġground": 4280,
      "æľīçļĦ": 4281,
      "æ°§": 4282,
      "æĮĳæĪĺ": 4283,
      "ç»Ļä½ł": 4284,
      "Ġbuy": 4285,
      "Ġhumans": 4286,
      "ç¡®å®ļ": 4287,
      "Ġgrand": 4288,
      "é¾Ļ": 4289,
      "ged": 4290,
      "åģı": 4291,
      "ĠèĢĮä¸įæĺ¯": 4292,
      "çĭ±": 4293,
      "Ġinterested": 4294,
      "åĶ±": 4295,
      "å¹ķ": 4296,
      "ilar": 4297,
      "Ġconv": 4298,
      "Ġspent": 4299,
      "æİ¢ç´¢": 4300,
      "Ġocean": 4301,
      "ä¸Ŀ": 4302,
      "ä¸Ģå¹´": 4303,
      "å¿ĥçĲĨ": 4304,
      "å´": 4305,
      "ised": 4306,
      "Ġgone": 4307,
      "ĠSh": 4308,
      "ards": 4309,
      "Ġgrowth": 4310,
      "Ġopportunity": 4311,
      "rent": 4312,
      "orld": 4313,
      "urb": 4314,
      "ä¸ĭéĿ¢": 4315,
      "Ġstrong": 4316,
      "çļĦç¤¾ä¼ļ": 4317,
      "lt": 4318,
      "åľ¨éĤ£éĩĮ": 4319,
      "çīĮ": 4320,
      "çĤ¸": 4321,
      "Ġ6": 4322,
      "åľ°åĽ¾": 4323,
      "æİĪ": 4324,
      "Ġrecogn": 4325,
      "Ġpolitical": 4326,
      "ev": 4327,
      "çļĦæľĢ": 4328,
      "æĪĳè¿ĺ": 4329,
      "Ġciv": 4330,
      "bor": 4331,
      "æī©": 4332,
      "åºĬ": 4333,
      "ived": 4334,
      "ä½įç½®": 4335,
      "ç¥¨": 4336,
      "éļ¾ä»¥": 4337,
      "Ġscale": 4338,
      "çĿ¡": 4339,
      "çĽ¸åĲĮ": 4340,
      "of": 4341,
      "ĠæĪĳä»¬åı¯ä»¥": 4342,
      "Ġfeed": 4343,
      "åĳĬè¯īæĪĳ": 4344,
      "Ġweeks": 4345,
      "oph": 4346,
      "ä¹Łä¼ļ": 4347,
      "çļĦæĶ¿": 4348,
      "é¢Ħæµĭ": 4349,
      "Ġfight": 4350,
      "å½ĵåľ°": 4351,
      "Ġmeasure": 4352,
      "Ġknown": 4353,
      "è¡¨è¾¾": 4354,
      "Ġkey": 4355,
      "æ¬§æ´²": 4356,
      "æ¹": 4357,
      "éĻĨ": 4358,
      "éľĩ": 4359,
      "ç¢³": 4360,
      "Ġrisk": 4361,
      "Ġability": 4362,
      "avor": 4363,
      "Ġtravel": 4364,
      "çľ¼çĿ": 4365,
      "æĪĳä»¬å·²ç»ı": 4366,
      "é¡µ": 4367,
      "éĻ¤äºĨ": 4368,
      "ler": 4369,
      "ators": 4370,
      "ising": 4371,
      "è®©ä½ł": 4372,
      "ains": 4373,
      "çĪ¸": 4374,
      "çļĦæķĻ": 4375,
      "çŀ": 4376,
      "ãĢĮ": 4377,
      "æĪĳä»¬å°±": 4378,
      "Ġblue": 4379,
      "åĭĴ": 4380,
      "ãĢį": 4381,
      "åĪº": 4382,
      "éĩİ": 4383,
      "æĿ¥åĪ°": 4384,
      "æĥ§": 4385,
      "ä¸Ģæł·çļĦ": 4386,
      "Ġleaders": 4387,
      "ä¸¥éĩį": 4388,
      "ä¸ªæľĪ": 4389,
      "Ġeat": 4390,
      "Ġeither": 4391,
      "éĢĲ": 4392,
      "æ¢¦": 4393,
      "çļĦçħ§çīĩ": 4394,
      "Oh": 4395,
      "Ġvers": 4396,
      "Ġsitting": 4397,
      "Ġenc": 4398,
      "æīĭæľ¯": 4399,
      "å½¢æĪĲ": 4400,
      "Ġpredict": 4401,
      "room": 4402,
      "Ġconsum": 4403,
      "å°¼äºļ": 4404,
      "Ġeconomy": 4405,
      "æ¤įçī©": 4406,
      "çŁ¥è¯Ĩ": 4407,
      "zy": 4408,
      "Ġfear": 4409,
      "åľĪ": 4410,
      "ä¹Ŀ": 4411,
      "çļĦæĻ": 4412,
      "çĶ±äºİ": 4413,
      "è°ĥæŁ¥": 4414,
      "ole": 4415,
      "åĽº": 4416,
      "ä¼°": 4417,
      "å·¨å¤§": 4418,
      "é¸Ł": 4419,
      "å®£": 4420,
      "åĢ¾": 4421,
      "åĬłåħ¥": 4422,
      "Ġshows": 4423,
      "Ġchanges": 4424,
      "Ġdirect": 4425,
      "å³": 4426,
      "Ġintern": 4427,
      "æ°ĶåĢĻ": 4428,
      "Ġsurface": 4429,
      "ouch": 4430,
      "Ġcy": 4431,
      "ä¸Ĭå¸Ŀ": 4432,
      "Ġnear": 4433,
      "Ġextreme": 4434,
      "ologies": 4435,
      "æĹ¦": 4436,
      "è¿ĩæĿ¥": 4437,
      "ills": 4438,
      "Ġmult": 4439,
      "éĶĢ": 4440,
      "Ġarchitect": 4441,
      "Ġdest": 4442,
      "ä¸įåĨį": 4443,
      "çļĦç²": 4444,
      "Ġimpact": 4445,
      "Ġlost": 4446,
      "æł¹æį®": 4447,
      "Ġrespons": 4448,
      "Ġsend": 4449,
      "ik": 4450,
      "Ġå·²ç»ı": 4451,
      "çļĦæ¨¡": 4452,
      "å¿ĺ": 4453,
      "åĵ¦": 4454,
      "izing": 4455,
      "ĠBe": 4456,
      "åĲĦä½į": 4457,
      "Ġobs": 4458,
      "Ġsum": 4459,
      "cially": 4460,
      "çĻ»": 4461,
      "éĽĦ": 4462,
      "Ġclimate": 4463,
      "Not": 4464,
      "bo": 4465,
      "æĺ¯ä¸Ģç§į": 4466,
      "åĬ³": 4467,
      "åıªèĥ½": 4468,
      "æ¼«": 4469,
      "æ¶²": 4470,
      "Ġdemoc": 4471,
      "çĻĮçĹĩ": 4472,
      "An": 4473,
      "Ġè¿Ļå°±æĺ¯": 4474,
      "æĵį": 4475,
      "Ġchallenge": 4476,
      "éĿĻ": 4477,
      "çĶ¨çļĦ": 4478,
      "ç³ķ": 4479,
      "åħ¶ä»ĸäºº": 4480,
      "Ġwrite": 4481,
      "çľ¼çĿĽ": 4482,
      "ral": 4483,
      "åľ¨äºİ": 4484,
      "æľīçĿĢ": 4485,
      "éļľ": 4486,
      "è¿ĩç¨ĭä¸Ń": 4487,
      "Ġwhite": 4488,
      "çļĦæ³": 4489,
      "Ġvalue": 4490,
      "Ġincredible": 4491,
      "çļĦåŃ©åŃĲ": 4492,
      "æĪĳä»¬å¯¹": 4493,
      "éĤ£ç§į": 4494,
      "çĽĺ": 4495,
      "æķ°åŃ¦": 4496,
      "Ġfeet": 4497,
      "çĮľ": 4498,
      "Is": 4499,
      "Ġcool": 4500,
      "è¿Ļæĺ¯ä¸ª": 4501,
      "æŁĲäºĽ": 4502,
      "Ġmorning": 4503,
      "Ġap": 4504,
      "ä»ª": 4505,
      "uth": 4506,
      "Ġorig": 4507,
      "éĽ¨": 4508,
      "èģª": 4509,
      "Ġanimal": 4510,
      "Ġcaus": 4511,
      "ug": 4512,
      "æĪĳå¾Ī": 4513,
      "è¦ģæ±Ĥ": 4514,
      "åĽ½éĻħ": 4515,
      "èī¯": 4516,
      "ä¼łæĴŃ": 4517,
      "èĴĤ": 4518,
      "iny": 4519,
      "Ġcal": 4520,
      "Ġhar": 4521,
      "Ġareas": 4522,
      "Ġwouldn": 4523,
      "å½©": 4524,
      "Ġfeeling": 4525,
      "çļĦæ°´": 4526,
      "ĠåĽłæŃ¤": 4527,
      "anger": 4528,
      "å¿«ä¹Ĳ": 4529,
      "å¾Ħ": 4530,
      "åĴĮæĪĳ": 4531,
      "æĲŀ": 4532,
      "Ġstructure": 4533,
      "çļĦçĶŁæ´»": 4534,
      "Ġç»Ļ": 4535,
      "æµª": 4536,
      "å»¶": 4537,
      "æĩĤ": 4538,
      "Ġè¯´": 4539,
      "entially": 4540,
      "ument": 4541,
      "å¦Īå¦Ī": 4542,
      "Ġmicro": 4543,
      "ç»ıè¿ĩ": 4544,
      "ä½ĵéªĮ": 4545,
      "è¿Ļé¡¹": 4546,
      "æľīä»Ģä¹Ī": 4547,
      "çİ°ä»£": 4548,
      "book": 4549,
      "cl": 4550,
      "ä»İæĿ¥": 4551,
      "Ġpatients": 4552,
      "ä¹ĭéĹ´çļĦ": 4553,
      "DNA": 4554,
      "eed": 4555,
      "¹ģ": 4556,
      "ales": 4557,
      "Ġnice": 4558,
      "ĠéĤ£å°±æĺ¯": 4559,
      "Ġbased": 4560,
      "Ġslow": 4561,
      "èļģ": 4562,
      "Our": 4563,
      "éģĵå¾·": 4564,
      "ç§°ä¸º": 4565,
      "Ġphysical": 4566,
      "Ġdraw": 4567,
      "Ġbottom": 4568,
      "çĩĥ": 4569,
      "erm": 4570,
      "äºĭçī©": 4571,
      "å®ļä¹ī": 4572,
      "ule": 4573,
      "lect": 4574,
      "æ°ĳä¸»": 4575,
      "Ġindust": 4576,
      "People": 4577,
      "Ġaverage": 4578,
      "Ġfast": 4579,
      "Ġanal": 4580,
      "Ġsoft": 4581,
      "åŃĲéĩĮ": 4582,
      "æģ©": 4583,
      "åĮ»éĻ¢": 4584,
      "Ġgrowing": 4585,
      "è½¯ä»¶": 4586,
      "çļĦæĬĢæľ¯": 4587,
      "rom": 4588,
      "ted": 4589,
      "Ġpull": 4590,
      "Ġneigh": 4591,
      "æĭħå¿ĥ": 4592,
      "Okay": 4593,
      "Ġredu": 4594,
      "éĿ¢ä¸´": 4595,
      "é»Ħ": 4596,
      "æĤ¨": 4597,
      "Ġfoot": 4598,
      "çļĦçŃ": 4599,
      "Ġnumbers": 4600,
      "åıĤåĬł": 4601,
      "æĭįæĳĦ": 4602,
      "ï¼İ": 4603,
      "Ġmar": 4604,
      "æĪĳä»¬ä¼ļ": 4605,
      "Ġpost": 4606,
      "çĳŀ": 4607,
      "To": 4608,
      "Ġbrought": 4609,
      "Ġcomb": 4610,
      "è¾Ĩ": 4611,
      "ĠSe": 4612,
      "Ġphotograph": 4613,
      "25": 4614,
      "Ġborn": 4615,
      "ä¿¡åı·": 4616,
      "ä»»åĬ¡": 4617,
      "å®ĹæķĻ": 4618,
      "æľĹ": 4619,
      "ä¸įä»ħ": 4620,
      "çĪĨ": 4621,
      "éĿŀå¸¸æĦŁè°¢": 4622,
      "Ġevolution": 4623,
      "ä¼¼ä¹İ": 4624,
      "Ġscientists": 4625,
      "by": 4626,
      "ateg": 4627,
      "åĮĸåŃ¦": 4628,
      "Ġrealize": 4629,
      "çĻ¾åĪĨä¹ĭ": 4630,
      "Ġattention": 4631,
      "çļĦçĪ¶": 4632,
      "hor": 4633,
      "Ġwin": 4634,
      "Ġbox": 4635,
      "Ġprofess": 4636,
      "ä¹Łå°±æĺ¯": 4637,
      "ustain": 4638,
      "çĽ¸äºĴ": 4639,
      "cr": 4640,
      "Ġbene": 4641,
      "æĪĳä»¬æĺ¯": 4642,
      "dden": 4643,
      "Ġèĥ½å¤Ł": 4644,
      "è¿«": 4645,
      "ç»ķ": 4646,
      "å¹³åĿĩ": 4647,
      "åĹ¯": 4648,
      "èĢĹ": 4649,
      "é¢Ŀ": 4650,
      "Ġsudden": 4651,
      "çĸ«": 4652,
      "è¯ķçĿĢ": 4653,
      "ression": 4654,
      "Ġexperiment": 4655,
      "çļĦç©º": 4656,
      "Ġpur": 4657,
      "Ġdie": 4658,
      "åºĵ": 4659,
      "Ġmole": 4660,
      "ç²ī": 4661,
      "æ¯įäº²": 4662,
      "åłĨ": 4663,
      "lu": 4664,
      "é¹": 4665,
      "Ġunderstanding": 4666,
      "Ġliterally": 4667,
      "å¾Īå¤§": 4668,
      "äºĭä»¶": 4669,
      "çļĦä¿¡æģ¯": 4670,
      "èµĸ": 4671,
      "èĢĮæĺ¯": 4672,
      "è¢ĭ": 4673,
      "åıªè¦ģ": 4674,
      "åı¯èĥ½æĺ¯": 4675,
      "çĸ¯": 4676,
      "Ġwrote": 4677,
      "ey": 4678,
      "ä¸Ģæ®µ": 4679,
      "leep": 4680,
      "æ²ī": 4681,
      "å¤ļä¹Ī": 4682,
      "Ġmedic": 4683,
      "Ġhor": 4684,
      "ä¹Łåı¯ä»¥": 4685,
      "Ġdeg": 4686,
      "Ġhundreds": 4687,
      "æĪĳå¯¹": 4688,
      "ä½łè¦ģ": 4689,
      "ified": 4690,
      "Ġknowledge": 4691,
      "éĽ·": 4692,
      "ensive": 4693,
      "åıĳçİ°äºĨ": 4694,
      "St": 4695,
      "Ġste": 4696,
      "çĶŁåŃĺ": 4697,
      "ç³»åĪĹ": 4698,
      "Ġprin": 4699,
      "å¹¸ç¦ı": 4700,
      "Ġfilm": 4701,
      "å°¤åħ¶": 4702,
      "ĠæīĢæľī": 4703,
      "chie": 4704,
      "æĦŁåħ´è¶£": 4705,
      "loy": 4706,
      "é»ĺ": 4707,
      "ĠOK": 4708,
      "è¿Ļä¸įæĺ¯": 4709,
      "å½¼": 4710,
      "è¯´è¿ĩ": 4711,
      "åĮĸçļĦ": 4712,
      "èĭı": 4713,
      "çĮ®": 4714,
      "é£İéĻ©": 4715,
      "ext": 4716,
      "ĠWh": 4717,
      "Ġåį´": 4718,
      "è¿ĻäºĽäºº": 4719,
      "Ġvol": 4720,
      "éĺ¶æ®µ": 4721,
      "Ġcirc": 4722,
      "Ġä¸įæĺ¯": 4723,
      "å½Ĵ": 4724,
      "ç¼©": 4725,
      "Ġtechnologies": 4726,
      "å¥ĩæĢª": 4727,
      "Ġserious": 4728,
      "ä»ĸä»¬åľ¨": 4729,
      "çļĦçģ": 4730,
      "Ġmain": 4731,
      "Ġinstit": 4732,
      "Ġrunning": 4733,
      "bon": 4734,
      "æĪĳä»¬çŁ¥éģĵ": 4735,
      "èĢ³": 4736,
      "éĹ®é¢ĺæĺ¯": 4737,
      "å¸¦çĿĢ": 4738,
      "Ġmov": 4739,
      "ä¸ĭçļĦ": 4740,
      "è¡ĮæĺŁ": 4741,
      "Ġtext": 4742,
      "acy": 4743,
      "æ»ĭ": 4744,
      "åĢ¼å¾Ĺ": 4745,
      "Ġ8": 4746,
      "æŃ£å¸¸": 4747,
      "åħ¨éĥ¨": 4748,
      "ored": 4749,
      "åıĳçĶŁåľ¨": 4750,
      "Ġcivil": 4751,
      "æıĲé«ĺ": 4752,
      "Ġmeaning": 4753,
      "èģªæĺİ": 4754,
      "ĠåĨį": 4755,
      "Ġhosp": 4756,
      "Ġmap": 4757,
      "Ġalone": 4758,
      "Ġseems": 4759,
      "Ġstarting": 4760,
      "ä½ľä¸ºä¸Ģä¸ª": 4761,
      "æĲľ": 4762,
      "ging": 4763,
      "ned": 4764,
      "oon": 4765,
      "Ġsour": 4766,
      "Ġball": 4767,
      "eng": 4768,
      "æĸĹ": 4769,
      "å®Įç¾İ": 4770,
      "ped": 4771,
      "Ġast": 4772,
      "Ġmillions": 4773,
      "ä¹³": 4774,
      "æĿ°": 4775,
      "åİĤ": 4776,
      "éĩĮæĸ¯": 4777,
      "Ġrock": 4778,
      "Ġgiving": 4779,
      "bit": 4780,
      "æĹģ": 4781,
      "è´µ": 4782,
      "å±ı": 4783,
      "ption": 4784,
      "Ġpolic": 4785,
      "æĪĳèĥ½": 4786,
      "ä½Ľ": 4787,
      "Ġfac": 4788,
      "äºĨæĪĳä»¬": 4789,
      "çĥĪ": 4790,
      "Ġguess": 4791,
      "çļĦæĢĿ": 4792,
      "Ġcolor": 4793,
      "Ġspread": 4794,
      "Ġsimilar": 4795,
      "Ġdeveloped": 4796,
      "èħ¿": 4797,
      "Ġbooks": 4798,
      "çļĦç½ĳ": 4799,
      "Ġsea": 4800,
      "æĥ³æĥ³": 4801,
      "çĶŁæ´»åľ¨": 4802,
      "Ġmovement": 4803,
      "Ġtools": 4804,
      "Ġflo": 4805,
      "ä¸įç®¡": 4806,
      "Ġforward": 4807,
      "æ²¡æľīäºº": 4808,
      "æľ¬ä¹¦": 4809,
      "Ġprom": 4810,
      "Ġcrit": 4811,
      "æĺ¯å¾Ī": 4812,
      "æľīä¸ĢäºĽ": 4813,
      "ows": 4814,
      "æī§": 4815,
      "Ġstra": 4816,
      "æ¯Ľ": 4817,
      "åŃĲçļĦ": 4818,
      "èĻļ": 4819,
      "ä½ıåľ¨": 4820,
      "æĪ¿éĹ´": 4821,
      "Ġmiles": 4822,
      "çļĦç¾İ": 4823,
      "vent": 4824,
      "Ġéĥ½æĺ¯": 4825,
      "Ġfavor": 4826,
      "ä¸Ģåıª": 4827,
      "æ¯ķ": 4828,
      "åĿĲåľ¨": 4829,
      "çĶŁæĢģ": 4830,
      "è®Ńç»ĥ": 4831,
      "æĪĳå°Ĩ": 4832,
      "åĢŁ": 4833,
      "aged": 4834,
      "è¯ķéªĮ": 4835,
      "Ġtelling": 4836,
      "æĶ¶éĽĨ": 4837,
      "par": 4838,
      "æĬ±": 4839,
      "iod": 4840,
      "omen": 4841,
      "çĶ¨äºİ": 4842,
      "Ġdead": 4843,
      "çľĭåĪ°äºĨ": 4844,
      "éĿ©åĳ½": 4845,
      "èĸ": 4846,
      "ĠZ": 4847,
      "Ġå¯¹äºİ": 4848,
      "Ġvill": 4849,
      "æŃ£æĺ¯": 4850,
      "Ġforce": 4851,
      "Ġsoon": 4852,
      "æĸ¹æ¡Ī": 4853,
      "head": 4854,
      "Ġdevelopment": 4855,
      "Ġissue": 4856,
      "çļĦæ´": 4857,
      "åĽłç´ł": 4858,
      "èģĬ": 4859,
      "åħ´å¥ĭ": 4860,
      "Ġfundam": 4861,
      "ĠWell": 4862,
      "å°ģ": 4863,
      "éĻĦ": 4864,
      "ĠæĪĳçļĦ": 4865,
      "éľ²": 4866,
      "Ġdescrib": 4867,
      "å¤±è´¥": 4868,
      "Ġhot": 4869,
      "ä¸ĢæĿ¡": 4870,
      "ç»ıéªĮ": 4871,
      "è¡¨æ¼Ķ": 4872,
      "æīĵå¼Ģ": 4873,
      "ĠWorld": 4874,
      "Ġimages": 4875,
      "ä¸ĵå®¶": 4876,
      "por": 4877,
      "Ġpath": 4878,
      "æĪĳä»¬å°Ĩ": 4879,
      "Ġdepe": 4880,
      "Ġanyone": 4881,
      "çĭĹ": 4882,
      "Ġcollect": 4883,
      "ai": 4884,
      "ç¹ģ": 4885,
      "Ġtheory": 4886,
      "æĪĳå¼Ģå§ĭ": 4887,
      "çİĭ": 4888,
      "æŀª": 4889,
      "ĠAs": 4890,
      "åĲĦåľ°": 4891,
      "Al": 4892,
      "ä»¥ä¸º": 4893,
      "chan": 4894,
      "è´§": 4895,
      "Ġtele": 4896,
      "åĽŀæĿ¥": 4897,
      "æ¼Ĥ": 4898,
      "Ġrelig": 4899,
      "è¿ĩåİ»çļĦ": 4900,
      "iant": 4901,
      "çļĦæĪĲ": 4902,
      "racy": 4903,
      "ades": 4904,
      "Ġcompet": 4905,
      "Ġthank": 4906,
      "Ġtradition": 4907,
      "ĠTh": 4908,
      "Ġtouch": 4909,
      "ĠSouth": 4910,
      "Ġtalked": 4911,
      "ggest": 4912,
      "Ġaudience": 4913,
      "Just": 4914,
      "å¾Īéĩįè¦ģ": 4915,
      "éģŃ": 4916,
      "è°ĵ": 4917,
      "è¾ĳ": 4918,
      "ç«ŀ": 4919,
      "Ġ25": 4920,
      "Ġcenter": 4921,
      "Ġgives": 4922,
      "ĠThere": 4923,
      "å¾ĹåĪ°äºĨ": 4924,
      "èĩªèº«": 4925,
      "Ġproper": 4926,
      "è½½": 4927,
      "æģ°": 4928,
      "èĥľ": 4929,
      "è¿Ļä¸ĢåĪĩ": 4930,
      "éĵģ": 4931,
      "Ġissues": 4932,
      "Ġabsolutely": 4933,
      "å¾ª": 4934,
      "æĢĸ": 4935,
      "Ġsell": 4936,
      "Ġsuggest": 4937,
      "Ġelectric": 4938,
      "å¦ĩå¥³": 4939,
      "ä¼ļè®®": 4940,
      "oose": 4941,
      "Ġconvers": 4942,
      "æĮ¥": 4943,
      "æ¯ıå¹´": 4944,
      "Ġcurrent": 4945,
      "çļĦåĽ½å®¶": 4946,
      "æĿ¾": 4947,
      "ç¬¦": 4948,
      "éĥ½ä¸į": 4949,
      "åĲ¸å¼ķ": 4950,
      "Ġforest": 4951,
      "çĵ¦": 4952,
      "åĤ¨": 4953,
      "ä»¥æĿ¥": 4954,
      "Ġstage": 4955,
      "Ġsuff": 4956,
      "åĽ¾åĥı": 4957,
      "ç®ĢåįķçļĦ": 4958,
      "ç»Ŀå¯¹": 4959,
      "çŁ³æ²¹": 4960,
      "Ġworth": 4961,
      "åģĩè®¾": 4962,
      "åĲĮæł·çļĦ": 4963,
      "Ġavail": 4964,
      "ä¸ĢèĪ¬": 4965,
      "åĲī": 4966,
      "äºĨå¾Īå¤ļ": 4967,
      "Ġchance": 4968,
      "Ġvisual": 4969,
      "ç¦ģ": 4970,
      "Ġperiod": 4971,
      "è®°å¿Ĩ": 4972,
      "çľŁæŃ£çļĦ": 4973,
      "Ġsn": 4974,
      "ç»į": 4975,
      "èĢħçļĦ": 4976,
      "ç¬¬ä¸ī": 4977,
      "è§Ĩè§ī": 4978,
      "èĭ±å°º": 4979,
      "æ¶Īæģ¯": 4980,
      "Ġsil": 4981,
      "amed": 4982,
      "è¡¨éĿ¢": 4983,
      "ĠNo": 4984,
      "Ġroad": 4985,
      "Ġcars": 4986,
      "éľĢæ±Ĥ": 4987,
      "ç¨ĭåºı": 4988,
      "çĽ®çļĦ": 4989,
      "æĺŁæľŁ": 4990,
      "Ġice": 4991,
      "Ġachie": 4992,
      "pecially": 4993,
      "åľŁåľ°": 4994,
      "ä¸įéĶĻ": 4995,
      "æł·çļĦ": 4996,
      "é¢ľ": 4997,
      "Ġrul": 4998,
      "Ġshowed": 4999,
      "åĳĬè¯īæĪĳä»¬": 5000,
      "é¾Ħ": 5001,
      "oud": 5002,
      "Ġcamp": 5003,
      "ä¸ĢåĲį": 5004,
      "ilities": 5005,
      "æľĢå¤§çļĦ": 5006,
      "æı¡": 5007,
      "Ġtrack": 5008,
      "Ġsolution": 5009,
      "æııè¿°": 5010,
      "oes": 5011,
      "Ġarr": 5012,
      "Ġä¸įè¿ĩ": 5013,
      "Ġgirls": 5014,
      "çļĦçĹħ": 5015,
      "Ġindustry": 5016,
      "ä»¿": 5017,
      "ances": 5018,
      "ç»ª": 5019,
      "å¯¹åĲ§": 5020,
      "Ġrate": 5021,
      "éļĶ": 5022,
      "éĩįè¦ģçļĦæĺ¯": 5023,
      "çļĦæĽ": 5024,
      "Ġonline": 5025,
      "ä¸ĭåİ»": 5026,
      "ĠEnglish": 5027,
      "éĵ¶è¡Į": 5028,
      "iet": 5029,
      "ma": 5030,
      "Ġsustain": 5031,
      "ä¸įèµ·": 5032,
      "Ġstat": 5033,
      "æ¯ģ": 5034,
      "å¼ĢæĶ¾": 5035,
      "è·¨": 5036,
      "è¿Ĳä½ľ": 5037,
      "ique": 5038,
      "åħģ": 5039,
      "è´¨éĩı": 5040,
      "Ġdiscovered": 5041,
      "ites": 5042,
      "Ġfu": 5043,
      "è´Ń": 5044,
      "æĺ¾çĦ¶": 5045,
      "Ġsubject": 5046,
      "åı¥è¯Ŀ": 5047,
      "ä»ĭç»į": 5048,
      "Ġnormal": 5049,
      "Ġest": 5050,
      "è¿Ļæł·åģļ": 5051,
      "Ġamong": 5052,
      "Ġattack": 5053,
      "åį±æľº": 5054,
      "ä¸¤ç§į": 5055,
      "çļĦä¸ĢåĪĩ": 5056,
      "Ġhon": 5057,
      "æĢ¥": 5058,
      "ç¢°": 5059,
      "Ġfire": 5060,
      "urity": 5061,
      "Ġconcept": 5062,
      "è¡¨æĺİ": 5063,
      "Ġexperien": 5064,
      "æļ´åĬĽ": 5065,
      "Ġintellig": 5066,
      "åħģè®¸": 5067,
      "ency": 5068,
      "asing": 5069,
      "ä¸įéľĢè¦ģ": 5070,
      "ä¸ĬäºĨ": 5071,
      "Ġaren": 5072,
      "ä½ĵçļĦ": 5073,
      "ished": 5074,
      "ç½ĳç«Ļ": 5075,
      "èĭ±éĩĮ": 5076,
      "Ġtype": 5077,
      "ç³Łç³ķ": 5078,
      "æĺ¯æľī": 5079,
      "ç»ĺ": 5080,
      "æ³¡": 5081,
      "Ġcreating": 5082,
      "ç¢į": 5083,
      "Ġmodern": 5084,
      "é¼ĵæİĮ": 5085,
      "Ġbenef": 5086,
      "æĪĳæľī": 5087,
      "éĺħ": 5088,
      "å®ĥä»¬çļĦ": 5089,
      "æĺŁçĲĥ": 5090,
      "Ġresources": 5091,
      "like": 5092,
      "Ġreact": 5093,
      "imens": 5094,
      "ĠæĪĳä»¬çļĦ": 5095,
      "æįŁ": 5096,
      "ç»ĵåĲĪ": 5097,
      "Ġsolve": 5098,
      "Ġdeveloping": 5099,
      "Ġrecently": 5100,
      "Ġå¾Ī": 5101,
      "Ġ60": 5102,
      "Ġcop": 5103,
      "å®¡": 5104,
      "å¼Ĺ": 5105,
      "Ġprop": 5106,
      "è¿Ļæĺ¯æĪĳ": 5107,
      "è´£ä»»": 5108,
      "ĠæīĢ": 5109,
      "Ġlay": 5110,
      "Ġtruth": 5111,
      "åŁºäºİ": 5112,
      "Ġreasons": 5113,
      "ç¯ĩ": 5114,
      "Ġsituation": 5115,
      "pect": 5116,
      "Ġåı¯": 5117,
      "ï¼ĮâĢĿ": 5118,
      "ung": 5119,
      "Ġseem": 5120,
      "çļĦæĶ¹": 5121,
      "Ġinnovation": 5122,
      "å®ļçļĦ": 5123,
      "æıĲåĩº": 5124,
      "æĤ²": 5125,
      "Ġdesigned": 5126,
      "asc": 5127,
      "ä»ĸä»¬ä¼ļ": 5128,
      "è¯´æĺİ": 5129,
      "Ġsold": 5130,
      "apt": 5131,
      "æ¶Īå¤±": 5132,
      "åĪ°è¾¾": 5133,
      "ä¸ŃéĹ´": 5134,
      "Ġvoice": 5135,
      "phere": 5136,
      "æī¹": 5137,
      "åĩłå¹´": 5138,
      "åħĪçĶŁ": 5139,
      "ä¸įå¤ļ": 5140,
      "åħ¶ä»ĸçļĦ": 5141,
      "æĻ®éĢļ": 5142,
      "yond": 5143,
      "ences": 5144,
      "ival": 5145,
      "Ġarm": 5146,
      "Ġeye": 5147,
      "Ġavailable": 5148,
      "ä¹Į": 5149,
      "éĤ®": 5150,
      "Ġcapital": 5151,
      "å©´": 5152,
      "çļĦæĦŁè§ī": 5153,
      "Ġmathem": 5154,
      "çļĦç¥ŀ": 5155,
      "Ġfur": 5156,
      "å°¾": 5157,
      "Ġasking": 5158,
      "Ġplant": 5159,
      "ç»ĻæĪĳä»¬": 5160,
      "ç»ĨèıĮ": 5161,
      "Ġplaying": 5162,
      "Ġproduce": 5163,
      "è·Ŀç¦»": 5164,
      "çļĦæģ": 5165,
      "Ġknows": 5166,
      "ç®±": 5167,
      "è¿ĽæŃ¥": 5168,
      "Ġå½ĵçĦ¶": 5169,
      "åĶ®": 5170,
      "æŃ¦": 5171,
      "assion": 5172,
      "è¿ĲçĶ¨": 5173,
      "Ġbaby": 5174,
      "Ġespecially": 5175,
      "SA": 5176,
      "Ġtiny": 5177,
      "Ġsong": 5178,
      "ä¸Ģä»¶": 5179,
      "Ġsearch": 5180,
      "éĥ½èĥ½": 5181,
      "é¢Ĺ": 5182,
      "ç³ĸ": 5183,
      "Ġsmart": 5184,
      "åŀĭçļĦ": 5185,
      "Ġåį³": 5186,
      "çļĦéĤ£": 5187,
      "erence": 5188,
      "ify": 5189,
      "ĠHow": 5190,
      "çĶ·åŃ©": 5191,
      "çĪ¶äº²": 5192,
      "Ġsleep": 5193,
      "ä¸įçĶ¨": 5194,
      "Ġsave": 5195,
      "Ġimm": 5196,
      "Ġevidence": 5197,
      "Ġpatient": 5198,
      "Ġcomputers": 5199,
      "Ġgroups": 5200,
      "Ġincredibly": 5201,
      "ä½łæĺ¯": 5202,
      "éĤ£å°±æĺ¯": 5203,
      "åĩºçĶŁ": 5204,
      "Ġvac": 5205,
      "å¿ĥèĦı": 5206,
      "ude": 5207,
      "å¹³çŃī": 5208,
      "Ġer": 5209,
      "itiz": 5210,
      "Ġhaven": 5211,
      "Ġult": 5212,
      "æ±ł": 5213,
      "Ġä¹Łè®¸": 5214,
      "è£Ĥ": 5215,
      "Ġshape": 5216,
      "Ġä¸ĢäºĽ": 5217,
      "åľ¨ç¾İåĽ½": 5218,
      "é©¾": 5219,
      "èģĶåĲĪ": 5220,
      "Ġinvolved": 5221,
      "æĿĥåĪ©": 5222,
      "Ġdrive": 5223,
      "Ġjourney": 5224,
      "ä»°": 5225,
      "Ġbra": 5226,
      "åĬ¨ä½ľ": 5227,
      "æķ°éĩı": 5228,
      "Ġmedical": 5229,
      "æģĲæĢĸ": 5230,
      "»åŃĲ": 5231,
      "arily": 5232,
      "æ´Ĺ": 5233,
      "Ġbigger": 5234,
      "Can": 5235,
      "æħ§": 5236,
      "Ġsever": 5237,
      "ç¾İä¸½": 5238,
      "åĪĽä½ľ": 5239,
      "Ġtransform": 5240,
      "Ġstreet": 5241,
      "ister": 5242,
      "çļĦçĸ": 5243,
      "é©¶": 5244,
      "åĮ»åŃ¦": 5245,
      "Ġchanging": 5246,
      "æĺ¯æľĢ": 5247,
      "iction": 5248,
      "æĶ¹åıĺäºĨ": 5249,
      "ä½łæīĢ": 5250,
      "åĩºæĿ¥çļĦ": 5251,
      "ä¹ĭä¸º": 5252,
      "ç»Ļå¤§å®¶": 5253,
      "æ®Ĭ": 5254,
      "Ġpictures": 5255,
      "inese": 5256,
      "Ġdou": 5257,
      "abor": 5258,
      "Ġpoll": 5259,
      "Ġbecomes": 5260,
      "èĴĻ": 5261,
      "oices": 5262,
      "Ġ-": 5263,
      "rest": 5264,
      "Ġdin": 5265,
      "å°Ĭ": 5266,
      "lear": 5267,
      "Ġmechan": 5268,
      "Ġtable": 5269,
      "çľŁæĺ¯": 5270,
      "é©±": 5271,
      "è¿Ļä¹Īåģļ": 5272,
      "éĵ¾": 5273,
      "Ġreport": 5274,
      "pan": 5275,
      "æĪĳçİ°åľ¨": 5276,
      "ä¿ĥ": 5277,
      "è´´": 5278,
      "æģĭ": 5279,
      "Ġemerg": 5280,
      "éħ·": 5281,
      "æĴŀ": 5282,
      "èīºæľ¯å®¶": 5283,
      "ohn": 5284,
      "Ġfem": 5285,
      "å¼Ł": 5286,
      "äºĽä»Ģä¹Ī": 5287,
      "å¿½": 5288,
      "æĪĸæĺ¯": 5289,
      "è§ĦåĪĻ": 5290,
      "Ġaw": 5291,
      "åİ»åģļ": 5292,
      "æ³ķå¾ĭ": 5293,
      "ç¨į": 5294,
      "Ġè¿ĺæĺ¯": 5295,
      "Ġbar": 5296,
      "åīĤ": 5297,
      "æ»ĳ": 5298,
      "çļĦæµ·": 5299,
      "pid": 5300,
      "ran": 5301,
      "çļĦç»ĵæŀľ": 5302,
      "Ġdanger": 5303,
      "èµ¢": 5304,
      "ä¸ĸçķĮçļĦ": 5305,
      "Ġgeneration": 5306,
      "åİĭåĬĽ": 5307,
      "Ġmessage": 5308,
      "ĠçĽ´åĪ°": 5309,
      "æĪĳä¸įçŁ¥éģĵ": 5310,
      "åħµ": 5311,
      "æľīå¤ļ": 5312,
      "ä¼ĳ": 5313,
      "çļĦæ¦Ĥ": 5314,
      "çľģ": 5315,
      "æĬĵ": 5316,
      "Ġlived": 5317,
      "istan": 5318,
      "ç§°ä¹ĭä¸º": 5319,
      "æ¦Ĥå¿µ": 5320,
      "æĪĳçĽ¸ä¿¡": 5321,
      "è¿Ļä»¶äºĭ": 5322,
      "Ġlikely": 5323,
      "å·¥ä¸ļ": 5324,
      "Ġputting": 5325,
      "Ġcarbon": 5326,
      "Ġrain": 5327,
      "Ġtowards": 5328,
      "å®Ī": 5329,
      "åıĳçĶŁçļĦ": 5330,
      "éŃĶ": 5331,
      "ishing": 5332,
      "oms": 5333,
      "Ġbeyond": 5334,
      "aybe": 5335,
      "çļĦæł·": 5336,
      "çĪ¶æ¯į": 5337,
      "çļĦå½±åĵį": 5338,
      "ä»ĸä»¬æĺ¯": 5339,
      "Ġtrust": 5340,
      "ä¾µ": 5341,
      "ĠCan": 5342,
      "èĤ¥": 5343,
      "Ġflu": 5344,
      "çĽĳçĭ±": 5345,
      "å©´åĦ¿": 5346,
      "å¥¶": 5347,
      "Ġchoice": 5348,
      "ä¿Ħ": 5349,
      "æĸ¹åĲĳ": 5350,
      "ç¤¼": 5351,
      "ips": 5352,
      "å¥³å£«": 5353,
      "æĳĨ": 5354,
      "Ġsolar": 5355,
      "åĬŀåħ¬": 5356,
      "å¹¸è¿Ĳ": 5357,
      "Ġdrugs": 5358,
      "Ġseveral": 5359,
      "come": 5360,
      "light": 5361,
      "Ġnecess": 5362,
      "ç§įæĹı": 5363,
      "æĽ¿": 5364,
      "åħ³å¿ĥ": 5365,
      "æ¯ıä¸Ģä¸ª": 5366,
      "æİ¥è§¦": 5367,
      "Ġdrug": 5368,
      "yn": 5369,
      "çļĦèĥ½åĬĽ": 5370,
      "Ġlea": 5371,
      "ĠGoogle": 5372,
      "Ġclos": 5373,
      "èĬ±è´¹": 5374,
      "Ġflow": 5375,
      "Ġeffective": 5376,
      "Ġfunction": 5377,
      "Ġsafe": 5378,
      "ube": 5379,
      "Ġfa": 5380,
      "Ġlif": 5381,
      "è¥¿æĸ¹": 5382,
      "Ġunf": 5383,
      "Ġbasic": 5384,
      "Ġdefin": 5385,
      "çļĦæ¼Ķè®²": 5386,
      "fort": 5387,
      "lict": 5388,
      "Ġcitiz": 5389,
      "oring": 5390,
      "åĨĴ": 5391,
      "åı¯ä»¥çľĭåĪ°": 5392,
      "å¦ĤæŀľæĪĳ": 5393,
      "èį£": 5394,
      "æ£®æŀĹ": 5395,
      "With": 5396,
      "Ġexcept": 5397,
      "ä½ĵç³»": 5398,
      "èĥģ": 5399,
      "è½¬åıĺ": 5400,
      "è¸ª": 5401,
      "By": 5402,
      "Ġfair": 5403,
      "åºŁ": 5404,
      "å¤Ħäºİ": 5405,
      "Ġmount": 5406,
      "Ġdom": 5407,
      "éĻ·": 5408,
      "Ġtend": 5409,
      "æĽ´å¥½çļĦ": 5410,
      "æı´": 5411,
      "500": 5412,
      "Ġ80": 5413,
      "Ġdied": 5414,
      "æĪĳä»¬æĬĬ": 5415,
      "ä»ĸäºº": 5416,
      "âĢ¢": 5417,
      "æĹ¢": 5418,
      "ä¹ĭä¸Ń": 5419,
      "une": 5420,
      "iP": 5421,
      "éŀ": 5422,
      "Ġä¸Ģç§į": 5423,
      "Ġbreat": 5424,
      "çĽ¸åıį": 5425,
      "ç¨³": 5426,
      "å»ºè®®": 5427,
      "æĿ¡ä»¶": 5428,
      "çĶ·æĢ§": 5429,
      "Man": 5430,
      "ä»Ķ": 5431,
      "Ġrece": 5432,
      "è®©ä»ĸä»¬": 5433,
      "åıĸå¾Ĺ": 5434,
      "è£ħç½®": 5435,
      "èī¾æ»ĭ": 5436,
      "ä¸ģ": 5437,
      "Ġstru": 5438,
      "åĪĨä¹ĭä¸Ģ": 5439,
      "çłĶ": 5440,
      "æĪĳåĴĮ": 5441,
      "è§Ī": 5442,
      "çļĦçĬ": 5443,
      "çī¹æ®Ĭ": 5444,
      "Ġwriting": 5445,
      "ĠChinese": 5446,
      "æĶ¶åħ¥": 5447,
      "è§Ĵèī²": 5448,
      "ä¸ĢçĽ´åľ¨": 5449,
      "Ġpotential": 5450,
      "Ġåģļ": 5451,
      "Ġå¦Ĥä½ķ": 5452,
      "Ġsat": 5453,
      "Ġce": 5454,
      "Ġbed": 5455,
      "åĬ¨åĬĽ": 5456,
      "ously": 5457,
      "å½¢çĬ¶": 5458,
      "Ġsounds": 5459,
      "å¨ģèĥģ": 5460,
      "Ġneighbor": 5461,
      "ires": 5462,
      "rist": 5463,
      "è¿İ": 5464,
      "Ġnational": 5465,
      "è¯¸": 5466,
      "çİĽ": 5467,
      "åħ¬æ°ĳ": 5468,
      "medi": 5469,
      "å½¼æŃ¤": 5470,
      "Ġä¸ºä»Ģä¹Ī": 5471,
      "è¿ĻåĦ¿": 5472,
      "eter": 5473,
      "vert": 5474,
      "åĲĮäºĭ": 5475,
      "æĮº": 5476,
      "Ġspeed": 5477,
      "äººç±»çļĦ": 5478,
      "Ġschools": 5479,
      "Ġdevice": 5480,
      "for": 5481,
      "ç¥ŀå¥ĩ": 5482,
      "Ġextraord": 5483,
      "Ġsoftware": 5484,
      "Ġnine": 5485,
      "çļĦç®": 5486,
      "æ¡Į": 5487,
      "åĳĬè¯īä½łä»¬": 5488,
      "Ġcommunities": 5489,
      "ĠæĪĸæĺ¯": 5490,
      "ration": 5491,
      "Ġbird": 5492,
      "ctors": 5493,
      "æĥ¯": 5494,
      "Ġneur": 5495,
      "umb": 5496,
      "è¡ĮçļĦ": 5497,
      "çŃ¾": 5498,
      "éķ¿çļĦ": 5499,
      "åħĭéĩĮæĸ¯": 5500,
      "åľĨ": 5501,
      "æī«": 5502,
      "åįĪ": 5503,
      "æŃ£å¦Ĥ": 5504,
      "æĦŁæŁĵ": 5505,
      "Ġdigital": 5506,
      "æĪĳä»İ": 5507,
      "æķħ": 5508,
      "æĸ°éĹ»": 5509,
      "æ±¡": 5510,
      "how": 5511,
      "ĠéĿŀå¸¸": 5512,
      "Ġäºĭå®ŀä¸Ĭ": 5513,
      "igher": 5514,
      "Ġmob": 5515,
      "Ġanybody": 5516,
      "è¡¨ç¤º": 5517,
      "æ°´å¹³": 5518,
      "éĻįä½İ": 5519,
      "Ġrevolution": 5520,
      "rast": 5521,
      "éĢĥ": 5522,
      "the": 5523,
      "çļĦç³": 5524,
      "Ġactiv": 5525,
      "Ġexamples": 5526,
      "Ġgeneral": 5527,
      "ief": 5528,
      "èĤ¢": 5529,
      "Ġoffice": 5530,
      "ana": 5531,
      "Ġlog": 5532,
      "åī¯": 5533,
      "Ġquality": 5534,
      "å²¸": 5535,
      "ressed": 5536,
      "Ġreturn": 5537,
      "Ġprinci": 5538,
      "è¯ĳ": 5539,
      "ä¼ļè¯´": 5540,
      "éĤĢ": 5541,
      "èĢĮä¸įæĺ¯": 5542,
      "Ġstarts": 5543,
      "æĪ¿åŃĲ": 5544,
      "Ġaccount": 5545,
      "ners": 5546,
      "uly": 5547,
      "Ġå®ŀéĻħä¸Ĭ": 5548,
      "Ġblock": 5549,
      "ä¸ĢæĹ¦": 5550,
      "Ġaction": 5551,
      "ç»ĦæĪĲ": 5552,
      "åľ°çĲĥä¸Ĭ": 5553,
      "Ġrules": 5554,
      "çļĦä¾ĭåŃĲ": 5555,
      "Ġwish": 5556,
      "Ġhigher": 5557,
      "ä½Ļ": 5558,
      "äºĨä¸ĢäºĽ": 5559,
      "ä½ĨæĪĳ": 5560,
      "æī¾åĪ°äºĨ": 5561,
      "ç²Ĵ": 5562,
      "Ġscreen": 5563,
      "ä¸ĵä¸ļ": 5564,
      "Ġparticularly": 5565,
      "pre": 5566,
      "put": 5567,
      "ask": 5568,
      "Ġvirus": 5569,
      "é¢ľèī²": 5570,
      "Ġson": 5571,
      "Ġep": 5572,
      "åİħ": 5573,
      "Ġcompassion": 5574,
      "éĢłæĪĲ": 5575,
      "Ġrights": 5576,
      "Ġcertainly": 5577,
      "Ġcross": 5578,
      "itary": 5579,
      "onse": 5580,
      "Ġonto": 5581,
      "irth": 5582,
      "Ġpeace": 5583,
      "Ġshowing": 5584,
      "äº¤éĢļ": 5585,
      "ç»¿èī²": 5586,
      "è¿Ļæ¬¡": 5587,
      "Ġparticip": 5588,
      "Ġclean": 5589,
      "Ġcharacter": 5590,
      "oun": 5591,
      "lex": 5592,
      "Ġnuc": 5593,
      "usion": 5594,
      "çļĦæŁ": 5595,
      "åŃ¦ä¼ļ": 5596,
      "Ġrich": 5597,
      "éĽħ": 5598,
      "é«ĺåħ´": 5599,
      "Ġviolence": 5600,
      "IV": 5601,
      "ground": 5602,
      "åĩºåİ»": 5603,
      "pped": 5604,
      "åħ¶ä¸ŃçļĦ": 5605,
      "èĤ¡": 5606,
      "ĠPh": 5607,
      "çģ¾": 5608,
      "åĪļæīį": 5609,
      "view": 5610,
      "çľĭæĿ¥": 5611,
      "Ġmoved": 5612,
      "æĹ¶æľŁ": 5613,
      "åİ»å¹´": 5614,
      "åĸĿ": 5615,
      "æ±ĩ": 5616,
      "åĨħéĥ¨": 5617,
      "Ġbiggest": 5618,
      "Ġlargest": 5619,
      "Ġåħ¶ä¸Ń": 5620,
      "Ġbacter": 5621,
      "æĪĳä»¬ä»İ": 5622,
      "idge": 5623,
      "èĤ¤": 5624,
      "ä½¿å¾Ĺ": 5625,
      "æ®ĸ": 5626,
      "Ġmaterials": 5627,
      "å¡ĳæĸĻ": 5628,
      "Ġcamera": 5629,
      "åĴĮå¹³": 5630,
      "ĠAn": 5631,
      "å°ıåŃ©": 5632,
      "çĽ¸ä¼¼": 5633,
      "Ġprim": 5634,
      "é¦Ļ": 5635,
      "äºĴåĬ¨": 5636,
      "Ġeffic": 5637,
      "Ġwalking": 5638,
      "éģ¿åħį": 5639,
      "çļĦæĦıæĢĿæĺ¯": 5640,
      "ought": 5641,
      "Ġhit": 5642,
      "æĺ¯éĿŀå¸¸": 5643,
      "è¿Ļå°±": 5644,
      "å®ľ": 5645,
      "Ġconscious": 5646,
      "Ġvision": 5647,
      "å¹´è½»äºº": 5648,
      "Ġobviously": 5649,
      "iar": 5650,
      "æľĢå¥½": 5651,
      "æĬĬå®ĥä»¬": 5652,
      "æĻļä¸Ĭ": 5653,
      "å±ŀäºİ": 5654,
      "Ġtotally": 5655,
      "Ġfurther": 5656,
      "ĠâĢĿ": 5657,
      "Ġaf": 5658,
      "çļĦå£°éŁ³": 5659,
      "Ġokay": 5660,
      "çľĭä¸Ĭåİ»": 5661,
      "éĥ½åı¯ä»¥": 5662,
      "Ġneg": 5663,
      "ä¸ĭéĻį": 5664,
      "ä½łåı¯ä»¥çľĭåĪ°": 5665,
      "å®³æĢķ": 5666,
      "Ġexciting": 5667,
      "Yes": 5668,
      "æĺ¯æĢİä¹Ī": 5669,
      "å¯¹è¯Ŀ": 5670,
      "å½ĵä¸Ń": 5671,
      "æ±Ĺ": 5672,
      "Ġscientific": 5673,
      "çļĦç²¾": 5674,
      "uit": 5675,
      "ĠNow": 5676,
      "æľīå¤ļå°ĳ": 5677,
      "å½»": 5678,
      "ĠAm": 5679,
      "å·®ä¸įå¤ļ": 5680,
      "Ġvirt": 5681,
      "å¯¹æĪĳæĿ¥è¯´": 5682,
      "èĽĭçĻ½": 5683,
      "Ġäºİæĺ¯": 5684,
      "Ġpa": 5685,
      "Ġplants": 5686,
      "ç«Ļåľ¨": 5687,
      "é²ľ": 5688,
      "åĨ²çªģ": 5689,
      "Ġcode": 5690,
      "rad": 5691,
      "antly": 5692,
      "åĽŀå®¶": 5693,
      "è®²è¿°": 5694,
      "æĥ³è±¡ä¸Ģä¸ĭ": 5695,
      "Ġcause": 5696,
      "Ġresults": 5697,
      "Ġdiag": 5698,
      "more": 5699,
      "Ġaware": 5700,
      "ä½łå°±": 5701,
      "éĤ¦": 5702,
      "Ġwants": 5703,
      "Ġsyn": 5704,
      "æ®ĭ": 5705,
      "æ¤ħ": 5706,
      "Ġec": 5707,
      "èµŀ": 5708,
      "ĠNorth": 5709,
      "åĽ½å®¶çļĦ": 5710,
      "Ġresponse": 5711,
      "ç§¯æŀģ": 5712,
      "Maybe": 5713,
      "oke": 5714,
      "Ġthreat": 5715,
      "ç§Ģ": 5716,
      "ĠDe": 5717,
      "èµĦéĩĳ": 5718,
      "Ġcris": 5719,
      "æĬķåħ¥": 5720,
      "Ġextremely": 5721,
      "Tw": 5722,
      "aur": 5723,
      "here": 5724,
      "xy": 5725,
      "Ġmeant": 5726,
      "Ġprison": 5727,
      "æĶ¿çŃĸ": 5728,
      "Ġteachers": 5729,
      "æĪĳå·²ç»ı": 5730,
      "isions": 5731,
      "ä¸įå¾Ĺä¸į": 5732,
      "ä¸ĭä¸Ģä¸ª": 5733,
      "ĠæĪĳè®¤ä¸º": 5734,
      "Ġeverywhere": 5735,
      "Ġrole": 5736,
      "Ġrepresent": 5737,
      "Ġåħ¶å®ŀ": 5738,
      "çļĦçİ¯å¢ĥ": 5739,
      "æĹĭ": 5740,
      "å¢¨": 5741,
      "è®¾è®¡å¸Ī": 5742,
      "èıľ": 5743,
      "åģĩå¦Ĥ": 5744,
      "å±ıå¹ķ": 5745,
      "Ġåį³ä½¿": 5746,
      "ä¸¹": 5747,
      "æĺ¯ä¸į": 5748,
      "åģ¶": 5749,
      "Ġnobody": 5750,
      "ä¿Ŀè¯ģ": 5751,
      "Ġcreative": 5752,
      "Ġready": 5753,
      "åįļçī©": 5754,
      "Ġdetail": 5755,
      "Ġå¼Ģå§ĭ": 5756,
      "æľĿ": 5757,
      "Ġfix": 5758,
      "oming": 5759,
      "ä¼¸": 5760,
      "åı¯æĢķ": 5761,
      "æ²¡æľīä»»ä½ķ": 5762,
      "Ġboy": 5763,
      "Ġskin": 5764,
      "After": 5765,
      "OK": 5766,
      "Ġrele": 5767,
      "å¤ªå¤ļ": 5768,
      "Ġadm": 5769,
      "çĥ¦": 5770,
      "tend": 5771,
      "æĳ©": 5772,
      "Ġindividuals": 5773,
      "Ġled": 5774,
      "çļĦæŀ": 5775,
      "æīĢåľ¨": 5776,
      "éĺ´": 5777,
      "ores": 5778,
      "åŁºéĩĳ": 5779,
      "æīĢæľīè¿ĻäºĽ": 5780,
      "æłĩåĩĨ": 5781,
      "ç¢İ": 5782,
      "çļĦæłĩ": 5783,
      "Ġprogress": 5784,
      "Ġwatching": 5785,
      "Ġapart": 5786,
      "åįļçī©é¦Ĩ": 5787,
      "çļĦä¸»": 5788,
      "ä¹Ķ": 5789,
      "Ġgas": 5790,
      "Ġdoor": 5791,
      "å¿«éĢŁ": 5792,
      "äºĴçĽ¸": 5793,
      "èľľ": 5794,
      "éĺħè¯»": 5795,
      "ä¹¡": 5796,
      "çļĦæ¶": 5797,
      "å¸ķ": 5798,
      "osphere": 5799,
      "ç¥ĸ": 5800,
      "ç¾İåĽ½äºº": 5801,
      "Ġstudent": 5802,
      "ä»·æł¼": 5803,
      "çĬ¶æĢģ": 5804,
      "Ġäºº": 5805,
      "Ġdiv": 5806,
      "verty": 5807,
      "åī©": 5808,
      "äºĮåįģ": 5809,
      "åĽĽä¸ª": 5810,
      "Ġprojects": 5811,
      "éĢĤåºĶ": 5812,
      "Ġsecurity": 5813,
      "è¦": 5814,
      "Ġbirth": 5815,
      "Ġpush": 5816,
      "æĪĳä»¬åºĶè¯¥": 5817,
      "Ġnamed": 5818,
      "iding": 5819,
      "Ġcontext": 5820,
      "æµĭéĩı": 5821,
      "åģľæŃ¢": 5822,
      "ech": 5823,
      "é½": 5824,
      "Ġè®©æĪĳä»¬": 5825,
      "Ġmarr": 5826,
      "åľ¨åº§": 5827,
      "ä½łçľĭ": 5828,
      "è¡¥": 5829,
      "æľĢå¥½çļĦ": 5830,
      "è¾©": 5831,
      "itten": 5832,
      "Ġprint": 5833,
      "å¤ªç©º": 5834,
      "æĪĳæĥ³è¦ģ": 5835,
      "èģĮä¸ļ": 5836,
      "Ġpu": 5837,
      "Ġlink": 5838,
      "æľīæĹ¶": 5839,
      "æĬ½": 5840,
      "æĬĳ": 5841,
      "åĳĨ": 5842,
      "å®¶ä¼Ļ": 5843,
      "ä¸ĸçķĮåĲĦåľ°": 5844,
      "èĬ±äºĨ": 5845,
      "licated": 5846,
      "æľīäºĽäºº": 5847,
      "Ġallowed": 5848,
      "éĻĲåĪ¶": 5849,
      "ç¨ĭåº¦ä¸Ĭ": 5850,
      "Ġeventually": 5851,
      "nal": 5852,
      "»ç»Ł": 5853,
      "åľ¨ä¸Ģ": 5854,
      "æīİ": 5855,
      "ä»ĸä»¬è¯´": 5856,
      "éĢĴ": 5857,
      "Ġimmedi": 5858,
      "æ¶ī": 5859,
      "Ġcrazy": 5860,
      "âĢ¦âĢ¦": 5861,
      "Ġfavorite": 5862,
      "è¹": 5863,
      "enn": 5864,
      "Ġgames": 5865,
      "icle": 5866,
      "æģĴ": 5867,
      "èĭĹ": 5868,
      "æĤī": 5869,
      "14": 5870,
      "erve": 5871,
      "Ġstick": 5872,
      "æĪĲæľ¬": 5873,
      "ä¹ĭå¤ĸ": 5874,
      "åĦ¿åŃĲ": 5875,
      "åıĺæĪĲäºĨ": 5876,
      "Ġconnected": 5877,
      "Ġmodels": 5878,
      "èŃ¦å¯Ł": 5879,
      "Ġcolleag": 5880,
      "æ¯«æĹł": 5881,
      "è¦Ĩ": 5882,
      "Look": 5883,
      "å¤ı": 5884,
      "Ġsepar": 5885,
      "Where": 5886,
      "ç»Ļä»ĸä»¬": 5887,
      "çĶŁæ´»ä¸Ń": 5888,
      "Ġsupposed": 5889,
      "å¹¿åĳĬ": 5890,
      "éģĩåĪ°": 5891,
      "Ġimprove": 5892,
      "Ġchemical": 5893,
      "Ġfundamental": 5894,
      "iation": 5895,
      "pective": 5896,
      "ä¸°": 5897,
      "Ġdro": 5898,
      "ä»Ģä¹Īæĺ¯": 5899,
      "Ġconsider": 5900,
      "æĿĤå¿Ĺ": 5901,
      "éĺ¿æĭī": 5902,
      "ughter": 5903,
      "eth": 5904,
      "Ġwaste": 5905,
      "çĶŁéķ¿": 5906,
      "å¯¹æĪĳä»¬": 5907,
      "è®¾æĸ½": 5908,
      "Ġcarry": 5909,
      "éĽĨä¸Ń": 5910,
      "è¯ģæį®": 5911,
      "Ġmeth": 5912,
      "ĠAfrican": 5913,
      "Ġdiscover": 5914,
      "Ġhospital": 5915,
      "First": 5916,
      "la": 5917,
      "æīĢè°ĵ": 5918,
      "çĽĽ": 5919,
      "å¿Ļ": 5920,
      "æ²¡äºº": 5921,
      "Ġintrodu": 5922,
      "ä¿¡ä»°": 5923,
      "Ġcontinue": 5924,
      "Ġtrees": 5925,
      "ze": 5926,
      "itter": 5927,
      "Ġgrew": 5928,
      "è¯ŀ": 5929,
      "ä¹Łæ²¡æľī": 5930,
      "Ġnotice": 5931,
      "cient": 5932,
      "æİ¥è¿ĳ": 5933,
      "Ġstrateg": 5934,
      "Ġconflict": 5935,
      "Ġjobs": 5936,
      "Ġobjects": 5937,
      "å³°": 5938,
      ".,": 5939,
      "æ¾": 5940,
      "Ġå°½ç®¡": 5941,
      "åı¶": 5942,
      "ä¹ĺ": 5943,
      "Ġgal": 5944,
      "å¾Īæ£Ĵ": 5945,
      "åıĳè¡¨": 5946,
      "è½¨": 5947,
      "Ġadult": 5948,
      "å¤±åİ»": 5949,
      "Ġtransl": 5950,
      "éĢĲæ¸Ĳ": 5951,
      "Ġbank": 5952,
      "erson": 5953,
      "çĥ§": 5954,
      "Ġå½ĵä½ł": 5955,
      "æŁĲä¸ª": 5956,
      "åĵªäºĽ": 5957,
      "ission": 5958,
      "è´Łè´£": 5959,
      "Ġcheck": 5960,
      "æľīåı¯èĥ½": 5961,
      "Ġchoose": 5962,
      "æµ®": 5963,
      "Ġtrial": 5964,
      "æ¶Īè´¹": 5965,
      "å¼ķèµ·": 5966,
      "Ġcapt": 5967,
      "æģĲæĥ§": 5968,
      "éĺ»æŃ¢": 5969,
      "éĤĢè¯·": 5970,
      "Ġï¼Ī": 5971,
      "Ĭçĳ": 5972,
      "éĤ»": 5973,
      "Ġgoal": 5974,
      "æĭľ": 5975,
      "apan": 5976,
      "ffic": 5977,
      "ruction": 5978,
      "Ġtells": 5979,
      "Ġessentially": 5980,
      "Ĭçĳļ": 5981,
      "ĠåıĪ": 5982,
      "Ġtar": 5983,
      "Ġtree": 5984,
      "äºĳ": 5985,
      "anc": 5986,
      "Ġshown": 5987,
      "è¡Įä¸ļ": 5988,
      "acebook": 5989,
      "è°¢è°¢å¤§å®¶": 5990,
      "Ġrobots": 5991,
      "!\"": 5992,
      "ĠæĹłè®º": 5993,
      "Ġmis": 5994,
      "ids": 5995,
      "æĹ¶åĪ»": 5996,
      "è¿ĩäºĨ": 5997,
      "è¿Ļæĺ¯ä¸Ģ": 5998,
      "æľ¬è´¨": 5999,
      "Ġclin": 6000,
      "ĠWest": 6001,
      "ç©ºæ°Ķ": 6002,
      "Of": 6003,
      "åħļ": 6004,
      "æĪĳä»¬åıĳçİ°": 6005,
      "åŃ¤": 6006,
      "iger": 6007,
      "æĶ»": 6008,
      "è¿ĺè¦ģ": 6009,
      "å¹¶éĿŀ": 6010,
      "å§Ĳ": 6011,
      "éĽª": 6012,
      "çĪ¬": 6013,
      "Ġaccept": 6014,
      "çĥŁ": 6015,
      "Ġlaunch": 6016,
      "Ġearl": 6017,
      "Ġsignific": 6018,
      "Ġpassion": 6019,
      "Ġthousand": 6020,
      "èĥĮæĻ¯": 6021,
      "ä¼Łå¤§çļĦ": 6022,
      "ĠBrit": 6023,
      "Ġdepend": 6024,
      "çļĦæ¦Ĥå¿µ": 6025,
      "Ġextraordinary": 6026,
      "Ġåı¯èĥ½": 6027,
      "ĠåĮħæĭ¬": 6028,
      "Ġfill": 6029,
      "çĶ¨äºĨ": 6030,
      "Ġconc": 6031,
      "åĪ©çĽĬ": 6032,
      "Ġpoverty": 6033,
      "è¾¹çļĦ": 6034,
      "Ġminds": 6035,
      "çĭ¬ç«ĭ": 6036,
      "Ġterror": 6037,
      "Ġincluding": 6038,
      "16": 6039,
      "ring": 6040,
      "Ġbunch": 6041,
      "æľ«": 6042,
      "ä¸įåľ¨": 6043,
      "å¹´é¾Ħ": 6044,
      "Ġgraph": 6045,
      "æ³¨æĦıåĪ°": 6046,
      "Ġfamilies": 6047,
      "urban": 6048,
      "iers": 6049,
      "Ġåıªæĺ¯": 6050,
      "ä»ĸåľ¨": 6051,
      "è¿Ļä¸ªä¸ĸçķĮ": 6052,
      "ulate": 6053,
      "è¿Ļæł·ä¸Ģä¸ª": 6054,
      "åĨįæ¬¡": 6055,
      "æĥħåĨµä¸ĭ": 6056,
      "è¯¾ç¨ĭ": 6057,
      "Ġpositive": 6058,
      "Ġvillage": 6059,
      "æĪ´": 6060,
      "Ġcases": 6061,
      "Ġwealth": 6062,
      "ims": 6063,
      "çļĦçĥ": 6064,
      "èį·": 6065,
      "akes": 6066,
      "åĳ¼åĲ¸": 6067,
      "åĬŀåħ¬å®¤": 6068,
      "éŀĭ": 6069,
      "Ġwife": 6070,
      "è®¶": 6071,
      "åĲİçļĦ": 6072,
      "Ġdeb": 6073,
      "æĬĬè¿ĻäºĽ": 6074,
      "Ġtaught": 6075,
      "ounds": 6076,
      "conds": 6077,
      "Ġmemory": 6078,
      "Ġassum": 6079,
      "Ġdiscuss": 6080,
      "çļĦçŃĶ": 6081,
      "çĸ¯çĭĤ": 6082,
      "Ġmovie": 6083,
      "mb": 6084,
      "Ġä¸ºäºĨ": 6085,
      "Ġfra": 6086,
      "Ġlate": 6087,
      "åľ¨ä½ł": 6088,
      "ä¸įæĥ³": 6089,
      "Ġann": 6090,
      "çī©ä½ĵ": 6091,
      "Ġimposs": 6092,
      "æĢ»ç»Ł": 6093,
      "Ġfarm": 6094,
      "Ġallows": 6095,
      "mend": 6096,
      "è´¢å¯Į": 6097,
      "Ġdemocracy": 6098,
      "æ²¿": 6099,
      "Ġconcer": 6100,
      "è¶ĭ": 6101,
      "èĭ¥": 6102,
      "Ġbuildings": 6103,
      "Ġfinan": 6104,
      "èı²": 6105,
      "Ġinflu": 6106,
      "åį«çĶŁ": 6107,
      "Ġlabor": 6108,
      "Ġtemper": 6109,
      "ĥåľ": 6110,
      "Ġabove": 6111,
      "æ²ĥ": 6112,
      "åĲĮæĥħ": 6113,
      "ç©Ĩ": 6114,
      "oday": 6115,
      "èĤ¿": 6116,
      "ç¡¬": 6117,
      "åŀĥåľ": 6118,
      "èĢģé¼ł": 6119,
      "æļĸ": 6120,
      "åįĥä¸ĩ": 6121,
      "åŀĥåľ¾": 6122,
      "çļĦåĬĽéĩı": 6123,
      "Ġfaster": 6124,
      "åĩ¡": 6125,
      "Ġworse": 6126,
      "Ġsomewhere": 6127,
      "odies": 6128,
      "æĦŁåıĹ": 6129,
      "Ġfell": 6130,
      "åĲ¬èµ·æĿ¥": 6131,
      "æĢĿæĥ³": 6132,
      "ĠWar": 6133,
      "çļĦæ´»": 6134,
      "let": 6135,
      "ster": 6136,
      "å¦¹": 6137,
      "çļĦçĻ": 6138,
      "Ġspir": 6139,
      "Ġ11": 6140,
      "Ġhappiness": 6141,
      "ç»Łè®¡": 6142,
      "é¥®": 6143,
      "Ġconditions": 6144,
      "Ġcollege": 6145,
      "Ġmathemat": 6146,
      "men": 6147,
      "ĠçĶ±": 6148,
      "edom": 6149,
      "ä¹ı": 6150,
      "è¯ļ": 6151,
      "å¹´éĩĮ": 6152,
      "å®ŀåľ¨": 6153,
      "è°±": 6154,
      "ĠCal": 6155,
      "izations": 6156,
      "æĢİä¹Īæł·": 6157,
      "Ġended": 6158,
      "ortunately": 6159,
      "Ġexcited": 6160,
      "Ġmagn": 6161,
      "æī°": 6162,
      "éĥ½æ²¡æľī": 6163,
      "Ġactivity": 6164,
      "ĠGe": 6165,
      "å·¥ä½ľçļĦ": 6166,
      "Ġgenes": 6167,
      "Ġkilled": 6168,
      "Ġsuddenly": 6169,
      "Ġsource": 6170,
      "ama": 6171,
      "æ³Ľ": 6172,
      "ĠJapan": 6173,
      "Ġdecision": 6174,
      "Ġremark": 6175,
      "Ġ199": 6176,
      "Ġwait": 6177,
      "DP": 6178,
      "¯æķĳ": 6179,
      "äººçĶŁ": 6180,
      "Ġsequ": 6181,
      "éĥ½çŁ¥éģĵ": 6182,
      "æ¯Ķäºļ": 6183,
      "çĽ¸æ¯Ķ": 6184,
      "è®¤çŁ¥": 6185,
      "ĠBra": 6186,
      "æĶ¾åĪ°": 6187,
      "Ġfinding": 6188,
      "Ġcollabor": 6189,
      "Ġpolice": 6190,
      "Ġrepl": 6191,
      "Ġlarger": 6192,
      "Even": 6193,
      "Ġfing": 6194,
      "Ġfant": 6195,
      "Ġlose": 6196,
      "Ġwebs": 6197,
      "rage": 6198,
      "å®¶éĩĮ": 6199,
      "ured": 6200,
      "å¥¹è¯´": 6201,
      "éĥ¨éĹ¨": 6202,
      "ç±»çļĦ": 6203,
      "ç»ĵè®º": 6204,
      "Ġbrains": 6205,
      "ä¹łæĥ¯": 6206,
      "çĵ¶": 6207,
      "bol": 6208,
      "atory": 6209,
      "æĪĳåĸľæ¬¢": 6210,
      "Ġmine": 6211,
      "ĠIf": 6212,
      "åĳĪ": 6213,
      "å¤ļæł·": 6214,
      "å®¶äºº": 6215,
      "èĥ¡": 6216,
      "ç¼ĺ": 6217,
      "Ġappear": 6218,
      "Ġstanding": 6219,
      "åı¦å¤ĸä¸Ģä¸ª": 6220,
      "Ġaffect": 6221,
      "ä¼Łå¤§": 6222,
      "Ġmedicine": 6223,
      "æĪĳèĩªå·±": 6224,
      "ä¹ĭå¤Ħ": 6225,
      "è·ĥ": 6226,
      "Ġdisapp": 6227,
      "æĴĴ": 6228,
      "å·®å¼Ĥ": 6229,
      "çģ«æĺŁ": 6230,
      "çļĦæł·åŃĲ": 6231,
      "Most": 6232,
      "¢å¤į": 6233,
      "æĿ¯": 6234,
      "æķ¢": 6235,
      "ĠæĪĳåľ¨": 6236,
      "éĿ¢åīį": 6237,
      "Ġenj": 6238,
      "åı¯èĥ½æĢ§": 6239,
      "æħĪ": 6240,
      "Ġminute": 6241,
      "Ġteacher": 6242,
      "Ġcrisis": 6243,
      "çļĦçŃĶæ¡Ī": 6244,
      "13": 6245,
      "Ġbom": 6246,
      "å¯¿": 6247,
      "Ġdoctor": 6248,
      "èĩªåĬ¨": 6249,
      "æĭ¯æķĳ": 6250,
      "cape": 6251,
      "Ġtruly": 6252,
      "éĽĩ": 6253,
      "çļĦäºĭçī©": 6254,
      "others": 6255,
      "Ġincrease": 6256,
      "çļĦæĮĳæĪĺ": 6257,
      "æ¢¦æĥ³": 6258,
      "Ġconversation": 6259,
      "Im": 6260,
      "ror": 6261,
      "ued": 6262,
      "å°ĸ": 6263,
      "æĪĳä»¬æĥ³": 6264,
      "å¾Ĵ": 6265,
      "éĢĬ": 6266,
      "æķ¦": 6267,
      "æ²Ł": 6268,
      "ipt": 6269,
      "åĨħå¿ĥ": 6270,
      "Ġphil": 6271,
      "Ġblind": 6272,
      "Ġindeed": 6273,
      "åĭĩ": 6274,
      "å·¥ç¨ĭå¸Ī": 6275,
      "çĺ¤": 6276,
      "æ¼Ĥäº®": 6277,
      "ä»Ķç»Ĩ": 6278,
      "Don": 6279,
      "Ġfine": 6280,
      "æľĢå¤§": 6281,
      "å²©": 6282,
      "é©¬ä¸Ĭ": 6283,
      "æĥĬè®¶": 6284,
      "Ġproducts": 6285,
      "æĤ£èĢħ": 6286,
      "çļĦç©ºéĹ´": 6287,
      "estern": 6288,
      "Ġstar": 6289,
      "Ġstars": 6290,
      "å¸¸å¸¸": 6291,
      "Ġ17": 6292,
      "Ġcold": 6293,
      "æĢĿè®®": 6294,
      "é¼ĵåĬ±": 6295,
      "Ġimpossible": 6296,
      "èĶ": 6297,
      "çļĦè¿ĩç¨ĭ": 6298,
      "Ġcard": 6299,
      "æĺ¯çĶ±": 6300,
      "ä¸ĭä¸Ģ": 6301,
      "Ġ16": 6302,
      "Ġè¿ĻéĩĮ": 6303,
      "Ġsorts": 6304,
      "äº¿ç¾İåħĥ": 6305,
      "Ġsky": 6306,
      "Ġpublish": 6307,
      "Ġsuccessful": 6308,
      "Ġposition": 6309,
      "Ġç¾İåĽ½": 6310,
      "Ĥèļģ": 6311,
      "Ġluck": 6312,
      "rap": 6313,
      "æĬµ": 6314,
      "Ġkil": 6315,
      "æĪĲéķ¿": 6316,
      "è¿ĺåľ¨": 6317,
      "Ġcomplicated": 6318,
      "é«ĺçļĦ": 6319,
      "å¹³è¡¡": 6320,
      "ĠæĿ¥èĩª": 6321,
      "Ġolder": 6322,
      "èļĤèļģ": 6323,
      "cise": 6324,
      "è¿ĻæĿ¡": 6325,
      "æĪĳä»¬å¼Ģå§ĭ": 6326,
      "though": 6327,
      "å¯¹æŃ¤": 6328,
      "åı¯ä»¥åľ¨": 6329,
      "Ġunivers": 6330,
      "ĠåĽłä¸ºä»ĸä»¬": 6331,
      "Ġphen": 6332,
      "æīįæĺ¯": 6333,
      "Ġafford": 6334,
      "rate": 6335,
      "ugh": 6336,
      "zz": 6337,
      "Ġport": 6338,
      "Ġdam": 6339,
      "ä¸Ĭåįĩ": 6340,
      "çļĦç«": 6341,
      "ologists": 6342,
      "ĠJohn": 6343,
      "Ġperspective": 6344,
      "nces": 6345,
      "inct": 6346,
      "åİĮ": 6347,
      "èī°": 6348,
      "åķ¦": 6349,
      "ç¼ĵ": 6350,
      "Ġkept": 6351,
      "Ġauthor": 6352,
      "Ġcitizens": 6353,
      "Ġåıªæľī": 6354,
      "inated": 6355,
      "isms": 6356,
      "Ġbur": 6357,
      "Ġpen": 6358,
      "Ġlands": 6359,
      "æĿ¥äºĨ": 6360,
      "urt": 6361,
      "åı¯æĺ¯": 6362,
      "amm": 6363,
      "èµĭ": 6364,
      "å¾Īå¥½çļĦ": 6365,
      "èº«ä»½": 6366,
      "èĭ±è¯Ń": 6367,
      "çĮİ": 6368,
      "èħº": 6369,
      "Ġtraditional": 6370,
      "Ġachieve": 6371,
      "Ġsite": 6372,
      "onst": 6373,
      "Ġfram": 6374,
      "ä»İæľª": 6375,
      "Ġmanage": 6376,
      "åħ¬å¼Ģ": 6377,
      "æĶ¾å¼ĥ": 6378,
      "Ġstudies": 6379,
      "Ġmilitary": 6380,
      "ç£ģ": 6381,
      "Ġinternational": 6382,
      "yr": 6383,
      "Ġlower": 6384,
      "rams": 6385,
      "çĲ´": 6386,
      "Ġ14": 6387,
      "è®°ä½ı": 6388,
      "é¥Ń": 6389,
      "Ġgalax": 6390,
      "ky": 6391,
      "ä¸§": 6392,
      "Ġcat": 6393,
      "åħĦ": 6394,
      "Ġforms": 6395,
      "useum": 6396,
      "ĠæĪĳä»¬åľ¨": 6397,
      "æįĲ": 6398,
      "ĠChrist": 6399,
      "æľīä¸Ģå¤©": 6400,
      "Ġpolicy": 6401,
      "Ġstraight": 6402,
      "Any": 6403,
      "Ġè·Ł": 6404,
      "Ġcart": 6405,
      "ä¸įä»ħä»ħæĺ¯": 6406,
      "æĿ¥æºĲ": 6407,
      "åģ·": 6408,
      "å¿į": 6409,
      "è®¾è®¡çļĦ": 6410,
      "å±ĤéĿ¢": 6411,
      "Ġearth": 6412,
      "Ġign": 6413,
      "Ġpack": 6414,
      "è¿ĺæ²¡æľī": 6415,
      "Ġworkers": 6416,
      "soci": 6417,
      "çļĦæĶ¶": 6418,
      "Ġorganization": 6419,
      "ç¬¬äºĮä¸ª": 6420,
      "å¤ªéĺ³èĥ½": 6421,
      "æ°§åĮĸ": 6422,
      "çļĦæĶ¹åıĺ": 6423,
      "Ġnuclear": 6424,
      "ining": 6425,
      "Ġwild": 6426,
      "Ġfasc": 6427,
      "è¿Ļä¹Łæĺ¯": 6428,
      "èĦī": 6429,
      "ĠTV": 6430,
      "ĠHIV": 6431,
      "è§ģçļĦ": 6432,
      "ĠYeah": 6433,
      "Ġspecific": 6434,
      "ä¾Ŀèµĸ": 6435,
      "åį«æĺŁ": 6436,
      "è¯ĬæĸŃ": 6437,
      "å¾ªçİ¯": 6438,
      "fact": 6439,
      "äººæ°ĳ": 6440,
      "Ġusually": 6441,
      "åĻ¢": 6442,
      "èİ«": 6443,
      "Ġpoints": 6444,
      "Ġreading": 6445,
      "æĪĳæĬĬ": 6446,
      "Ġbal": 6447,
      "ä¸įäºĨ": 6448,
      "çĽĴ": 6449,
      "åıĳåĩº": 6450,
      "çĽ¸å¯¹": 6451,
      "éķĩ": 6452,
      "åħ¬åĽŃ": 6453,
      "è¿Ĳè¡Į": 6454,
      "æľªæĿ¥çļĦ": 6455,
      "Ġseries": 6456,
      "Ġregion": 6457,
      "Ġpieces": 6458,
      "Ġpurp": 6459,
      "çļĦä¸ĢäºĽ": 6460,
      "rect": 6461,
      "æĺĨ": 6462,
      "Ġmention": 6463,
      "è¿Ļä½į": 6464,
      "ĠAll": 6465,
      "ĠCar": 6466,
      "å»ºè®¾": 6467,
      "ĠTw": 6468,
      "Ġcontrib": 6469,
      "åİŁå§ĭ": 6470,
      "è§ģè¿ĩ": 6471,
      "æĺŁç³»": 6472,
      "ä»»ä½ķäºº": 6473,
      "Ġä»İèĢĮ": 6474,
      "Ġdistrib": 6475,
      "æī¿è®¤": 6476,
      "çļĦçŁ¥": 6477,
      "çĪĨçĤ¸": 6478,
      "oint": 6479,
      "çļĦè®¾è®¡": 6480,
      "Ġmist": 6481,
      "è¿ĻæĦıåĳ³çĿĢ": 6482,
      "è®¯": 6483,
      "ä¸įå¹¸": 6484,
      "Ġheav": 6485,
      "åģļçļĦäºĭæĥħ": 6486,
      "Ġalg": 6487,
      "Ġ21": 6488,
      "æīĵç®Ĺ": 6489,
      "å¿ħè¦ģ": 6490,
      "èµĦæľ¬": 6491,
      "Ġmoral": 6492,
      "Ġtraining": 6493,
      "Ġsquare": 6494,
      "èī¾æ»ĭçĹħ": 6495,
      "çļĦçĬ¶": 6496,
      "ays": 6497,
      "å®ĥä¼ļ": 6498,
      "Ġdoc": 6499,
      "åĥıæĺ¯": 6500,
      "éķ¿å¤§": 6501,
      "Ġaddress": 6502,
      "åıĳçĶŁäºĨä»Ģä¹Ī": 6503,
      "Ġmassive": 6504,
      "Ġservice": 6505,
      "éĴĪå¯¹": 6506,
      "çļĦç³»ç»Ł": 6507,
      "ĠâĢĶâĢĶ": 6508,
      "imb": 6509,
      "åŃ¦éĻ¢": 6510,
      "çº¯": 6511,
      "iven": 6512,
      "ĠåĽłä¸ºæĪĳ": 6513,
      "å¥³åĦ¿": 6514,
      "Ġsmaller": 6515,
      "åħįè´¹": 6516,
      "Ġ90": 6517,
      "æĵįä½ľ": 6518,
      "Ġphenomen": 6519,
      "Ġthrow": 6520,
      "Ġsand": 6521,
      "Ġswe": 6522,
      "Ġhop": 6523,
      "Ġlines": 6524,
      "ica": 6525,
      "sect": 6526,
      "è¿ĻäºĽä¸ľè¥¿": 6527,
      "Ġsomehow": 6528,
      "ĠMan": 6529,
      "ç»Īäºİ": 6530,
      "é¸¡": 6531,
      "ä¸įåı¯æĢĿè®®": 6532,
      "è°·æŃĮ": 6533,
      "Ġrecognize": 6534,
      "Ġburn": 6535,
      "ä¸ĭæĿ¥çļĦ": 6536,
      "Ġalive": 6537,
      "Ġanymore": 6538,
      "éĴ¢": 6539,
      "èĪĴ": 6540,
      "Ġå½ĵæĹ¶": 6541,
      "æķĪæŀľ": 6542,
      "æĻºæħ§": 6543,
      "è´«åĽ°": 6544,
      "Ġelectricity": 6545,
      "é©¾é©¶": 6546,
      "Ġoxy": 6547,
      "æ´ģ": 6548,
      "Ġupon": 6549,
      "Ġenorm": 6550,
      "agine": 6551,
      "éĽķ": 6552,
      "æıĲåĪ°": 6553,
      "æ¨¡æĭŁ": 6554,
      "Ġdecisions": 6555,
      "Ġsolutions": 6556,
      "äº«åıĹ": 6557,
      "æĹ©æľŁ": 6558,
      "çļĦæ¯Ķ": 6559,
      "èļĬ": 6560,
      "çļĦæĢ§": 6561,
      "å¤įæĿĤçļĦ": 6562,
      "Today": 6563,
      "ä½ĵåĨħ": 6564,
      "æ¯ıæ¬¡": 6565,
      "æ¼ł": 6566,
      "é£Łåĵģ": 6567,
      "ï¼ģâĢĿ": 6568,
      "éĺ¿å¯Į": 6569,
      "Ġengage": 6570,
      "çļĦæĸĩåĮĸ": 6571,
      "éĺ¿å¯Įæ±Ĺ": 6572,
      "Se": 6573,
      "ping": 6574,
      "time": 6575,
      "eral": 6576,
      "çļĦæ¡": 6577,
      "Ġseconds": 6578,
      "èµļ": 6579,
      "æģ¢å¤į": 6580,
      "æĭīåħĭ": 6581,
      "Ġbeings": 6582,
      "è°Īè°Ī": 6583,
      "èħĲ": 6584,
      "æĿ¥èĩªäºİ": 6585,
      "Ġtreatment": 6586,
      "fer": 6587,
      "go": 6588,
      "Ġurban": 6589,
      "åĲĦä¸ª": 6590,
      "ç½ĳä¸Ĭ": 6591,
      "åĮħåĲ«": 6592,
      "Ġterm": 6593,
      "èĬĤçĽ®": 6594,
      "Ġeffort": 6595,
      "è´«ç©·": 6596,
      "Ġpatterns": 6597,
      "åŁ¹åħ»": 6598,
      "æĺ¯ä¸įæĺ¯": 6599,
      "Ġyeah": 6600,
      "åĲĮæĦı": 6601,
      "è¢Ń": 6602,
      "çİ°åľ¨æĪĳä»¬": 6603,
      "ĠPr": 6604,
      "epend": 6605,
      "åİŁåĪĻ": 6606,
      "äº¤æĺĵ": 6607,
      "æĪĲä¸ºäºĨ": 6608,
      "æĲŃ": 6609,
      "çļĦæĦıä¹ī": 6610,
      "Ġdetect": 6611,
      "çĨŁæĤī": 6612,
      "è¿Ī": 6613,
      "èĩĤ": 6614,
      "è¿Ļä¸ªé¡¹çĽ®": 6615,
      "ĠæĪĳä»¬å°±": 6616,
      "Ġweren": 6617,
      "ä¿¡ä»»": 6618,
      "è§Ĥå¿µ": 6619,
      "çģ°": 6620,
      "åķ¡": 6621,
      "è·¯ä¸Ĭ": 6622,
      "æĹ¥æľ¬": 6623,
      "çĮ©çĮ©": 6624,
      "Ġcritical": 6625,
      "Ġsou": 6626,
      "åĴĸ": 6627,
      "æĭĴ": 6628,
      "ĠæĪĳä¼ļ": 6629,
      "Ġactual": 6630,
      "éĩįå¤į": 6631,
      "thern": 6632,
      "Ġslight": 6633,
      "å·´è¥¿": 6634,
      "Ġmachines": 6635,
      "Ġzero": 6636,
      "Ġemploy": 6637,
      "Ġprivate": 6638,
      "ĠèĻ½çĦ¶": 6639,
      "Ġplease": 6640,
      "ä¸Ģåľº": 6641,
      "Those": 6642,
      "èĤĮ": 6643,
      "åĸ·": 6644,
      "Ġroll": 6645,
      "åĪ«çļĦ": 6646,
      "Ġbecoming": 6647,
      "Ġbiology": 6648,
      "Ġrespond": 6649,
      "Ġfreedom": 6650,
      "Ġdangerous": 6651,
      "Ġstrugg": 6652,
      "Ġå°¤åħ¶": 6653,
      "rel": 6654,
      "æľīæĹ¶åĢĻ": 6655,
      "ently": 6656,
      "å¹´æĿ¥": 6657,
      "aging": 6658,
      "Ġprote": 6659,
      "æķĻæİĪ": 6660,
      "ç¡®ä¿Ŀ": 6661,
      "å®īå¾·": 6662,
      "Ġwritten": 6663,
      "Ġboard": 6664,
      "Ġskills": 6665,
      "åįļå£«": 6666,
      "Ġphysics": 6667,
      "Ġprovide": 6668,
      "éļľç¢į": 6669,
      "çļĦæŁĲ": 6670,
      "Sh": 6671,
      "ox": 6672,
      "Ġcook": 6673,
      "è¿Ļç±»": 6674,
      "åľ¨è¿ĻäºĽ": 6675,
      "rab": 6676,
      "ops": 6677,
      "ĠSp": 6678,
      "Ġprice": 6679,
      "ä»Ĭå¹´": 6680,
      "Ġhealthy": 6681,
      "éĩĩåıĸ": 6682,
      "Ġbacteria": 6683,
      "rum": 6684,
      "Ġthr": 6685,
      "sequ": 6686,
      "åģļå¾Ĺ": 6687,
      "ĠLe": 6688,
      "ç¿°": 6689,
      "çł´åĿı": 6690,
      "å·¦åı³": 6691,
      "èĵĿèī²": 6692,
      "Ġversion": 6693,
      "Ġäººç±»": 6694,
      "çľĭæ³ķ": 6695,
      "åĲİéĿ¢": 6696,
      "å¹´åĲİ": 6697,
      "éĿ¢åĮħ": 6698,
      "èĦĬ": 6699,
      "éĹ®é¢ĺçļĦ": 6700,
      "éķ¿æľŁ": 6701,
      "Ġunique": 6702,
      "ĠPro": 6703,
      "åĪĽå»º": 6704,
      "Ġloved": 6705,
      "ĠAfgh": 6706,
      "çļĦæĽ´": 6707,
      "æī«æıı": 6708,
      "17": 6709,
      "ĠæĹł": 6710,
      "Ġ70": 6711,
      "Ġtown": 6712,
      "ä½łæĥ³": 6713,
      "çļĦæ±": 6714,
      "å¥½å¤Ħ": 6715,
      "æĮ¯": 6716,
      "Ġexpensive": 6717,
      "æī¾åĩº": 6718,
      "çĮ«": 6719,
      "çªĹ": 6720,
      "Ġincreasing": 6721,
      "æŃ¦åĻ¨": 6722,
      "æ©": 6723,
      "çħ": 6724,
      "ä½³": 6725,
      "çļĦæ¢": 6726,
      "imately": 6727,
      "è¯´è¯Ŀ": 6728,
      "æĦĪ": 6729,
      "ĠæĪĳä»¬éľĢè¦ģ": 6730,
      "Ġquant": 6731,
      "Ġanywhere": 6732,
      "éħ¸": 6733,
      "æĲ¬": 6734,
      "Ġcareer": 6735,
      "åĿļæĮģ": 6736,
      "åĴĸåķ¡": 6737,
      "Yeah": 6738,
      "ĠéľĢè¦ģ": 6739,
      "çļĦåľ°": 6740,
      "çļĦåıĳå±ķ": 6741,
      "erman": 6742,
      "Ġpage": 6743,
      "çļĦæĭ": 6744,
      "å¯Ħ": 6745,
      "Ġforth": 6746,
      "å¦»åŃĲ": 6747,
      "Ġcomfort": 6748,
      "Ġspect": 6749,
      "çĶµæ±ł": 6750,
      "ç½®ä¿¡": 6751,
      "Ġwaiting": 6752,
      "Ġcosts": 6753,
      "dom": 6754,
      "Ġtrou": 6755,
      "çļĦé«ĺ": 6756,
      "itation": 6757,
      "æĺ¯ä»İ": 6758,
      "åħ¹": 6759,
      "ashing": 6760,
      "çĦ¦": 6761,
      "åĪ¶åº¦": 6762,
      "Ġcloud": 6763,
      "èº«è¾¹": 6764,
      "ä½įäºİ": 6765,
      "199": 6766,
      "æ¢°": 6767,
      "ustrial": 6768,
      "Ġneighborhood": 6769,
      "ec": 6770,
      "ried": 6771,
      "ĠæŃ£åľ¨": 6772,
      "Ġbodies": 6773,
      "Ġdoctors": 6774,
      "Ġtrick": 6775,
      "åĻ¨å®ĺ": 6776,
      "Ġfamous": 6777,
      "Ġsecret": 6778,
      "Ġmolec": 6779,
      "Ġä½ľä¸º": 6780,
      "ä¸¢": 6781,
      "Ġsal": 6782,
      "Ġmental": 6783,
      "Ġwhe": 6784,
      "ä½łå¿ħé¡»": 6785,
      "çļĦæ·": 6786,
      "ä¹ĭæīĢä»¥": 6787,
      "Who": 6788,
      "Ġcover": 6789,
      "Ġcontent": 6790,
      "æĶ¹åĸĦ": 6791,
      "å²ģçļĦ": 6792,
      "é²¨": 6793,
      "Ġdiseases": 6794,
      "æ½®": 6795,
      "Ġearlier": 6796,
      "Ġçľĭ": 6797,
      "inating": 6798,
      "åŃ£": 6799,
      "å¾Īå¤§çļĦ": 6800,
      "Ġshot": 6801,
      "ĠSw": 6802,
      "Ġwilling": 6803,
      "æĸ¯çī¹": 6804,
      "Ġremind": 6805,
      "åħĥç´ł": 6806,
      "Ġstrange": 6807,
      "æĻºèĥ½": 6808,
      "åĨľä¸ļ": 6809,
      "Ġlistening": 6810,
      "Ġinstitutions": 6811,
      "èĤ¿çĺ¤": 6812,
      "na": 6813,
      "oid": 6814,
      "ĠçĦ¶èĢĮ": 6815,
      "æĺ¯æĢİæł·": 6816,
      "iced": 6817,
      "Ġworry": 6818,
      "åĵ²": 6819,
      "å·¥åİĤ": 6820,
      "acity": 6821,
      "çĪ±çļĦ": 6822,
      "avid": 6823,
      "æĿĥåĬĽ": 6824,
      "Ġcoun": 6825,
      "æľīè¶£çļĦ": 6826,
      "Ġpainting": 6827,
      "Ġoccur": 6828,
      "Right": 6829,
      "Ġlad": 6830,
      "lebr": 6831,
      "Ġweb": 6832,
      "å¸Ń": 6833,
      "ceed": 6834,
      "Ġdog": 6835,
      "çļĦç¨": 6836,
      "çļĦçĭ": 6837,
      "Ġjud": 6838,
      "Ġexh": 6839,
      "ĠMars": 6840,
      "åĪĽæĦı": 6841,
      "ç©¶ç«Ł": 6842,
      "èĩ³äºİ": 6843,
      "èµ°è¿Ľ": 6844,
      "çĶŁçī©åŃ¦": 6845,
      "Ġdrink": 6846,
      "Ġcalcul": 6847,
      "è¿ħ": 6848,
      "æĺ¯è¿Ļæł·çļĦ": 6849,
      "æĪĳä»¬èĥ½å¤Ł": 6850,
      "Ġeth": 6851,
      "ä½łéľĢè¦ģ": 6852,
      "ä¸Ĭä¸ĩ": 6853,
      "éĥ½å¾Ī": 6854,
      "oles": 6855,
      "åŃ¦åĪ°": 6856,
      "è°İ": 6857,
      "Ġdesp": 6858,
      "å¤įåĪ¶": 6859,
      "Ġgovernments": 6860,
      "å±ħä½ı": 6861,
      "Ġdeterm": 6862,
      "çĬ¯ç½ª": 6863,
      "Ġdirection": 6864,
      "Ġclearly": 6865,
      "ç«ŀäºī": 6866,
      "Ġvacc": 6867,
      "Ġimmediately": 6868,
      "ĠAfghan": 6869,
      "ĠX": 6870,
      "Ġpark": 6871,
      "æĪĳä»¬æ²¡æľī": 6872,
      "æĢĴ": 6873,
      "èĩªè¡Į": 6874,
      "çŁ¥çļĦ": 6875,
      "Ġplastic": 6876,
      "Ġ13": 6877,
      "ained": 6878,
      "æĢİä¹Īåģļ": 6879,
      "Ġexplore": 6880,
      "Ġmagic": 6881,
      "Ġintelligence": 6882,
      "Somet": 6883,
      "Ġcry": 6884,
      "iti": 6885,
      "å®½": 6886,
      "Ġweight": 6887,
      "çļĦæı": 6888,
      "amic": 6889,
      "ulf": 6890,
      "iest": 6891,
      "ĠRight": 6892,
      "èįĴ": 6893,
      "Ġgreatest": 6894,
      "Ġtransport": 6895,
      "è¶ħçº§": 6896,
      "ĠAmericans": 6897,
      "Ġglass": 6898,
      "rees": 6899,
      "Ġcust": 6900,
      "itude": 6901,
      "å¾Īéķ¿": 6902,
      "èĢĮå·²": 6903,
      "Ġran": 6904,
      "è´¡": 6905,
      "è®©å®ĥ": 6906,
      "ĠAt": 6907,
      "ĠEast": 6908,
      "åıįå¯¹": 6909,
      "å¼ºå¤§": 6910,
      "çĶŁåĳ½çļĦ": 6911,
      "çļĦæ¯į": 6912,
      "Ġarchitecture": 6913,
      "back": 6914,
      "cies": 6915,
      "mic": 6916,
      "Ġå¦Ĥ": 6917,
      "Ġcatch": 6918,
      "Ġmatch": 6919,
      "è¿Ļä¸ªè¯į": 6920,
      "iling": 6921,
      "Ġrid": 6922,
      "ç¾Ĭ": 6923,
      "udd": 6924,
      "bert": 6925,
      "ĠOr": 6926,
      "åł¡": 6927,
      "å¾Ģå¾Ģ": 6928,
      "Ġneurons": 6929,
      "æĪĳåıĳçİ°": 6930,
      "ä¼ļåıĳçĶŁ": 6931,
      "Ġjump": 6932,
      "ç»ĨèĬĤ": 6933,
      "Ġgreater": 6934,
      "Ġfamiliar": 6935,
      "åıł": 6936,
      "aly": 6937,
      "ä»ĸæĺ¯": 6938,
      "èĢĲ": 6939,
      "Ġstore": 6940,
      "çİ»": 6941,
      "Ġatm": 6942,
      "è¾¨": 6943,
      "Ġthroughout": 6944,
      "Ġhimself": 6945,
      "åŃĺåľ¨äºİ": 6946,
      "å¸®åĬ©æĪĳä»¬": 6947,
      "çĬ¶åĨµ": 6948,
      "Ġfinal": 6949,
      "Ġlaws": 6950,
      "éļ¾ä»¥ç½®ä¿¡": 6951,
      "Ġfloor": 6952,
      "æĺĨèĻ«": 6953,
      "ball": 6954,
      "oty": 6955,
      "ä½łæľī": 6956,
      "åı¯æĮģç»Ń": 6957,
      "æķı": 6958,
      "å¾Ĺä»¥": 6959,
      "åıĺéĿ©": 6960,
      "æĢ§æģĭ": 6961,
      "ĠCity": 6962,
      "åİŁåŃĲ": 6963,
      "æīĵåį°": 6964,
      "æ¼Ķå¥ı": 6965,
      "é²¸": 6966,
      "Ġveh": 6967,
      "éĻĦè¿ĳ": 6968,
      "Ġmethod": 6969,
      "met": 6970,
      "orrow": 6971,
      "éĤ£åĦ¿": 6972,
      "çľĭå¾ħ": 6973,
      "åĩºçİ°åľ¨": 6974,
      "éľį": 6975,
      "éĥģ": 6976,
      "åħ¶ä¸Ńä¸Ģä¸ª": 6977,
      "Ġwalked": 6978,
      "Ġoppos": 6979,
      "è´¡çĮ®": 6980,
      "bb": 6981,
      "atives": 6982,
      "ä¸ĭäºĨ": 6983,
      "ĠSte": 6984,
      "Ġsaving": 6985,
      "èĤº": 6986,
      "åĲįçļĦ": 6987,
      "æ¡¥": 6988,
      "Ġlevels": 6989,
      "æ¯ıä¸ªäººéĥ½": 6990,
      "Ġfinancial": 6991,
      "ndom": 6992,
      "æĪĳä»¬è®¤ä¸º": 6993,
      "åŃķ": 6994,
      "ä¸Ģä¸ªå°ı": 6995,
      "åį·": 6996,
      "èµ¶": 6997,
      "ä¹Łåľ¨": 6998,
      "ä¹Łèĥ½": 6999,
      "æĥħç»ª": 7000,
      "åĮºåĪ«": 7001,
      "èĭ±éĽĦ": 7002,
      "Ġapply": 7003,
      "Ġdriving": 7004,
      "çıĬçĳļ": 7005,
      "%ãĢĤ": 7006,
      "pro": 7007,
      "uted": 7008,
      "ĠæĪĳä»¬ä¼ļ": 7009,
      "èĥ¶": 7010,
      "Ġoffic": 7011,
      "Ġemail": 7012,
      "Ġincome": 7013,
      "Ġgenetic": 7014,
      "æ¯Ķå¦Ĥè¯´": 7015,
      "æĹ©ä¸Ĭ": 7016,
      "Ġenvironmental": 7017,
      "Ġ500": 7018,
      "Ġmultip": 7019,
      "æĲľç´¢": 7020,
      "Ġcelebr": 7021,
      "æĪĳæ²¡æľī": 7022,
      "æĺł": 7023,
      "çĶ²": 7024,
      "ĠCent": 7025,
      "è¿Ľä¸ĢæŃ¥": 7026,
      "èĦĨ": 7027,
      "åı¦ä¸Ģç§į": 7028,
      "ç¤¾äº¤": 7029,
      "æĸĩæĺİ": 7030,
      "ĠUniversity": 7031,
      "ï¼įï¼į": 7032,
      "Ġautom": 7033,
      "çļ®èĤ¤": 7034,
      "Ġchallenges": 7035,
      "æĹħè¡Į": 7036,
      "éĺ¿æĭīä¼¯": 7037,
      "Ġwebsite": 7038,
      "Ġçī¹åĪ«": 7039,
      "Ġhous": 7040,
      "çĶ¨æĪ·": 7041,
      "å¾Ĺå¤ļ": 7042,
      "Ġrange": 7043,
      "eless": 7044,
      "ç¾İå¥½": 7045,
      "ä½łä»¬çļĦ": 7046,
      "Ġlegs": 7047,
      "ä¸ĢäºĽäºº": 7048,
      "Ġä½łçļĦ": 7049,
      "å±ķçİ°": 7050,
      "çļĦæķĪ": 7051,
      "å¾·åĽ½": 7052,
      "Ġdecade": 7053,
      "èİ·åıĸ": 7054,
      "Ġteaching": 7055,
      "ä¼¦æķ¦": 7056,
      "Ġtypes": 7057,
      "Ġpressure": 7058,
      "çļĦæ¢¦": 7059,
      "å¹¼": 7060,
      "çĽŁ": 7061,
      "åģļçļĦæĺ¯": 7062,
      "istics": 7063,
      "Ġactive": 7064,
      "ables": 7065,
      "ologist": 7066,
      "è§ģåĪ°": 7067,
      "è®°èĢħ": 7068,
      "èµĦæĸĻ": 7069,
      "Ġhumanity": 7070,
      "attle": 7071,
      "çļĦæ¸¸": 7072,
      "æ°ĶåĢĻåıĺåĮĸ": 7073,
      "Ġenjoy": 7074,
      "cope": 7075,
      "åĪ·": 7076,
      "aries": 7077,
      "æĿī": 7078,
      "å¯¹å¾ħ": 7079,
      "Ġrise": 7080,
      "Ġtherefore": 7081,
      "ĠMar": 7082,
      "resh": 7083,
      "itted": 7084,
      "Ġä½ĨæĪĳ": 7085,
      "Ġrandom": 7086,
      "åıĳå±ķä¸Ń": 7087,
      "è¿½æ±Ĥ": 7088,
      "çļĦæĥħåĨµä¸ĭ": 7089,
      "Ġoptim": 7090,
      "çļĦçĪ¶æ¯į": 7091,
      "Ġmobile": 7092,
      "rastruct": 7093,
      "çļĦæ¶Ī": 7094,
      "Ġfantastic": 7095,
      "ID": 7096,
      "af": 7097,
      "iot": 7098,
      "ĠæľĢåĲİ": 7099,
      "Ġcrow": 7100,
      "æľīæīĢ": 7101,
      "å¼Ģå¿ĥ": 7102,
      "Ġvict": 7103,
      "ĠOkay": 7104,
      "çº¦ç¿°": 7105,
      "åĩĨç¡®": 7106,
      "Ġlaugh": 7107,
      "æİĴæĶ¾": 7108,
      "ĠIsl": 7109,
      "Ġservices": 7110,
      "èģĶåĲĪåĽ½": 7111,
      "atically": 7112,
      "Ġple": 7113,
      "ä¸Ģéĥ¨åĪĨ": 7114,
      "orry": 7115,
      "å°ļ": 7116,
      "ä¸įä»ħä»ħ": 7117,
      "å¸ģ": 7118,
      "Ġshift": 7119,
      "iles": 7120,
      "æĪĲåĳĺ": 7121,
      "ç´¯": 7122,
      "åįģäº¿": 7123,
      "Ġgradu": 7124,
      "Ġvalues": 7125,
      "Ġmeeting": 7126,
      "vision": 7127,
      "Ġè¿Ľè¡Į": 7128,
      "Ġpan": 7129,
      "Ġfit": 7130,
      "èĢį": 7131,
      "çľł": 7132,
      "æĹ¶çļĦ": 7133,
      "ils": 7134,
      "ä»Ģä¹Īåĳ¢": 7135,
      "çľĭåĪ°çļĦæĺ¯": 7136,
      "å¹³åı°": 7137,
      "æĶ¶åĪ°": 7138,
      "Ġproduction": 7139,
      "Ġinterview": 7140,
      "å¨ľ": 7141,
      "æ¿ĢåĬ¨": 7142,
      "å¯Ĩçłģ": 7143,
      "ä¾ĿçĦ¶": 7144,
      "åĩłä¸ªæľĪ": 7145,
      "Ġvari": 7146,
      "Another": 7147,
      "çĩĥæĸĻ": 7148,
      "Ġfuel": 7149,
      "éĤ®ä»¶": 7150,
      "2000": 7151,
      "Ġåħ¶": 7152,
      "æĺĤ": 7153,
      "Ġdyn": 7154,
      "æľīæĦıæĢĿ": 7155,
      "åĴĮåħ¶ä»ĸ": 7156,
      "è¡°": 7157,
      "ç»ĻäºĪ": 7158,
      "åħĭæĸ¯": 7159,
      "Ġdecades": 7160,
      "å¾®çĶŁçī©": 7161,
      "ç½Ĺæĸ¯": 7162,
      "ä¼¤å®³": 7163,
      "Ġsociet": 7164,
      "Ġterrible": 7165,
      "æ£Ģæµĭ": 7166,
      "çĸ«èĭĹ": 7167,
      "æ±¡æŁĵ": 7168,
      "èĽĭçĻ½è´¨": 7169,
      "Imagine": 7170,
      "ystem": 7171,
      "ä¸ªä½ĵ": 7172,
      "æĪĳä»¬æŃ£åľ¨": 7173,
      "äºĨè¿Ļ": 7174,
      "äºĨè¿ĻäºĽ": 7175,
      "stit": 7176,
      "ä½Ĩè¿Ļ": 7177,
      "æĪĲåįĥ": 7178,
      "çī¹å®ļ": 7179,
      "è¯Ŀé¢ĺ": 7180,
      "Ġdecide": 7181,
      "æĪĲä¸ºä¸Ģä¸ª": 7182,
      "çĹĽèĭ¦": 7183,
      "Ġbroad": 7184,
      "èĮĥåĽ´åĨħ": 7185,
      "Ġpractice": 7186,
      "çļĦçĥŃ": 7187,
      "Ġå¾Īå¤ļ": 7188,
      "ĠåĲĳ": 7189,
      "Ġä¾ĭå¦Ĥ": 7190,
      "ches": 7191,
      "åºĦ": 7192,
      "çļĦç¼": 7193,
      "æ³°": 7194,
      "åĩłå¹´åīį": 7195,
      "Ġprep": 7196,
      "åŃĺåľ¨çļĦ": 7197,
      "ç¬ĳå£°": 7198,
      "çļĦæł¸": 7199,
      "airs": 7200,
      "æĪĲåĬŁçļĦ": 7201,
      "ç§ĺå¯Ĩ": 7202,
      "é¹ħ": 7203,
      "itor": 7204,
      "æĪĳä»¬çĶ¨": 7205,
      "ä¼ļåľ¨": 7206,
      "ä¼ļè¢«": 7207,
      "éĹª": 7208,
      "Ġord": 7209,
      "éªĹ": 7210,
      "æĸĩåŃĹ": 7211,
      "è®¸å¤ļäºº": 7212,
      "æ»¡è¶³": 7213,
      "Ġprograms": 7214,
      "Ġpolitics": 7215,
      "çļĦæķĻèĤ²": 7216,
      "Ġencou": 7217,
      "è¿ħéĢŁ": 7218,
      "zil": 7219,
      "Ġå¤§å®¶": 7220,
      "è¯´çļĦæĺ¯": 7221,
      "çİ°åľº": 7222,
      "è¿Ļä¸ªäºº": 7223,
      "Ġinteg": 7224,
      "ä¾§": 7225,
      "éĿŀå¸¸éĩįè¦ģ": 7226,
      "å®Įæķ´": 7227,
      "Ġuseful": 7228,
      "Ġbeauty": 7229,
      "æħ¢æħ¢": 7230,
      "Ġfollowing": 7231,
      "Ġengineering": 7232,
      "è´Ńä¹°": 7233,
      "ĠQ": 7234,
      "Ġtiss": 7235,
      "Ġahead": 7236,
      "æĪĳåİ»": 7237,
      "ä¸įå¤Ł": 7238,
      "è½´": 7239,
      "èĬ¬": 7240,
      "äºĮæ°§åĮĸ": 7241,
      "åıĺå¾ĹæĽ´": 7242,
      "Ġinfrastruct": 7243,
      "Ġvarious": 7244,
      "æŃ£ç¡®çļĦ": 7245,
      "æ¨": 7246,
      "æĪĳå½ĵæĹ¶": 7247,
      "Ġnation": 7248,
      "Ġforget": 7249,
      "çĶŁçļĦ": 7250,
      "å¾Īå®¹æĺĵ": 7251,
      "Ġchoices": 7252,
      "æĳĩ": 7253,
      "Ġrespect": 7254,
      "ondon": 7255,
      "éĢĶå¾Ħ": 7256,
      "Ġatmosphere": 7257,
      "aign": 7258,
      "çļĦè§Ĵåº¦": 7259,
      "ä¸Ģå®¶": 7260,
      "edia": 7261,
      "Ġhair": 7262,
      "æ¯ĶèµĽ": 7263,
      "çī¹å¾ģ": 7264,
      "åĳĺå·¥": 7265,
      "åŁºåĽłç»Ħ": 7266,
      "Ġconnection": 7267,
      "Ġperformance": 7268,
      "Ġhonest": 7269,
      "å½»åºķ": 7270,
      "Ġcolleagues": 7271,
      "Ġremarkable": 7272,
      "24": 7273,
      "Ġæĥ³": 7274,
      "ä¸ĢåįĬ": 7275,
      "key": 7276,
      "Ġconsequ": 7277,
      "ç¾İéĩĳ": 7278,
      "Ġ24": 7279,
      "ĠåĽłä¸ºå®ĥ": 7280,
      "Ġsurger": 7281,
      "æ¶ĪèĢĹ": 7282,
      "Ġpopular": 7283,
      "ç£¨": 7284,
      "Ġjournal": 7285,
      "Ġbabies": 7286,
      "åħĦå¼Ł": 7287,
      "Ġenormous": 7288,
      "Ġè®©æĪĳ": 7289,
      "Ġdram": 7290,
      "åĩĢ": 7291,
      "Ġassoci": 7292,
      "æľĢåĸľæ¬¢": 7293,
      "Ġalthough": 7294,
      "æľºåĪ¶": 7295,
      "ement": 7296,
      "å£ģ": 7297,
      "Ġrace": 7298,
      "Ġsurround": 7299,
      "æĳ¸": 7300,
      "Ġinvented": 7301,
      "Ġhelped": 7302,
      "Ġè¿Ļæĺ¯ä¸Ģä¸ª": 7303,
      "éĩĬæĶ¾": 7304,
      "åĩºçİ°äºĨ": 7305,
      "Ġphysic": 7306,
      "Ġåıªè¦ģ": 7307,
      "Ġfemale": 7308,
      "èľľèľĤ": 7309,
      "IT": 7310,
      "rated": 7311,
      "çļĦè¡Įä¸º": 7312,
      "Ġmal": 7313,
      "arter": 7314,
      "Ġweap": 7315,
      "æĥĳ": 7316,
      "è¯´æ³ķ": 7317,
      "Ġuses": 7318,
      "ĠHar": 7319,
      "åİŁçĲĨ": 7320,
      "ĠWestern": 7321,
      "æ·±åħ¥": 7322,
      "Ġorganizations": 7323,
      "å¹¿æ³Ľ": 7324,
      "Ġstandard": 7325,
      "Ġshared": 7326,
      "aul": 7327,
      "æĪĳæĿ¥": 7328,
      "åĪĳ": 7329,
      "åĮ¹": 7330,
      "è¿ĻäºĽéĹ®é¢ĺ": 7331,
      "æ¬²": 7332,
      "ĠBl": 7333,
      "ĠLondon": 7334,
      "ĠæľīäºĽ": 7335,
      "Ġinstance": 7336,
      "æĳĦå½±": 7337,
      "ervation": 7338,
      "Ġspirit": 7339,
      "equ": 7340,
      "ray": 7341,
      "used": 7342,
      "æīĶ": 7343,
      "æĿ¥çľĭçľĭ": 7344,
      "åīįéĿ¢": 7345,
      "è¿Ľåİ»": 7346,
      "Ġæĺ¯åĽłä¸º": 7347,
      "éĶĻäºĨ": 7348,
      "åİĨåı²ä¸Ĭ": 7349,
      "åĺ´": 7350,
      "è¿Ļå¼łçħ§çīĩ": 7351,
      "Ġdestro": 7352,
      "è¶ĭåĬ¿": 7353,
      "èķ": 7354,
      "æĪĳçļĦæĦıæĢĿæĺ¯": 7355,
      "ises": 7356,
      "æĺ¯è¿Ļæł·": 7357,
      "ä¸ĢåĿĹ": 7358,
      "æĪĳä»¬èĩªå·±": 7359,
      "æĪĳä»¬å¦Ĥä½ķ": 7360,
      "è¿Ļä¸ªæķħäºĭ": 7361,
      "antic": 7362,
      "æ²¡ä»Ģä¹Ī": 7363,
      "Ġmale": 7364,
      "ĠSch": 7365,
      "åħ¨åĽ½": 7366,
      "Ġexpress": 7367,
      "ĠGerman": 7368,
      "ĠFacebook": 7369,
      "åħ·ä½ĵ": 7370,
      "Ġrelative": 7371,
      "Ġcondition": 7372,
      "Ġflying": 7373,
      "Ġmotiv": 7374,
      "Ġeffects": 7375,
      "Ġaid": 7376,
      "æĪª": 7377,
      "eny": 7378,
      "å¾Īå°ĳ": 7379,
      "Ġworst": 7380,
      "çŁ¿": 7381,
      "çĽ¸æľº": 7382,
      "çļĦæĹ¥": 7383,
      "çļĦæĹł": 7384,
      "ĠåĽłä¸ºæĪĳä»¬": 7385,
      "Ġspeech": 7386,
      "Ġraise": 7387,
      "éĩĳèŀį": 7388,
      "Ġunderstood": 7389,
      "Ġdiagn": 7390,
      "ios": 7391,
      "çļĦä¹¦": 7392,
      "orge": 7393,
      "Ġnut": 7394,
      "ç©´": 7395,
      "Which": 7396,
      "ĠMy": 7397,
      "è¥¿åĵ¥": 7398,
      "Ġæĺ¯ä¸Ģä¸ª": 7399,
      "æļĤ": 7400,
      "Ġdemonst": 7401,
      "çľŁå®ŀçļĦ": 7402,
      "Ġstreets": 7403,
      "çģŃç»Ŀ": 7404,
      "å¢¨è¥¿åĵ¥": 7405,
      "ĠBrazil": 7406,
      "oe": 7407,
      "çļĦæľºä¼ļ": 7408,
      "Ġpig": 7409,
      "Ġdrop": 7410,
      "åºĶå¯¹": 7411,
      "åĽ¾ä¹¦": 7412,
      "Ġsurve": 7413,
      "Ġcollective": 7414,
      "ç¾¤ä½ĵ": 7415,
      "Ġsupply": 7416,
      "åįļå®¢": 7417,
      "ä¸»ä¹īèĢħ": 7418,
      "ornia": 7419,
      "æī§è¡Į": 7420,
      "èĻļæĭŁ": 7421,
      "çļĦç¥ŀç»ı": 7422,
      "Ġtemperature": 7423,
      "pes": 7424,
      "ufact": 7425,
      "Ġbase": 7426,
      "åĪ°å¤Ħ": 7427,
      "æĭĽ": 7428,
      "åĪĨå¸ĥ": 7429,
      "osing": 7430,
      "Ġwhose": 7431,
      "Ġåľ¨è¿Ļä¸ª": 7432,
      "Ġtax": 7433,
      "åħ¬ä¼Ĺ": 7434,
      "èİİ": 7435,
      "Ġscr": 7436,
      "Ġpossibly": 7437,
      "çļĦæ°Ķ": 7438,
      "board": 7439,
      "ä¸°å¯Į": 7440,
      "äºĮæ°§åĮĸç¢³": 7441,
      "21": 7442,
      "Like": 7443,
      "iate": 7444,
      "now": 7445,
      "wise": 7446,
      "æĺ¯åħ³äºİ": 7447,
      "å¯¸": 7448,
      "ç»ĻäºĨ": 7449,
      "æĸĩç«ł": 7450,
      "ricult": 7451,
      "ç©¿è¿ĩ": 7452,
      "çļĦçŁ¥è¯Ĩ": 7453,
      "Ġslightly": 7454,
      "PS": 7455,
      "Ġban": 7456,
      "Ġyell": 7457,
      "ä¸įå¥½": 7458,
      "ä¸ºæŃ¢": 7459,
      "å°ĨæĿ¥": 7460,
      "Ġmostly": 7461,
      "ç»ĦåĲĪ": 7462,
      "Ġcommer": 7463,
      "Ġgene": 7464,
      "åĽ¢ä½ĵ": 7465,
      "Ġå¥¹ä»¬": 7466,
      "Ġstopped": 7467,
      "ç¥ŀç»ıåħĥ": 7468,
      "ä»İæĿ¥æ²¡æľī": 7469,
      "è¾©è®º": 7470,
      "çļĦçĶŁçī©": 7471,
      "Ġsad": 7472,
      "Ġsick": 7473,
      "åľ¨æĪĳçļĦ": 7474,
      "åŃĶ": 7475,
      "çĽ²": 7476,
      "åģļè¿ĩ": 7477,
      "è¢ĸ": 7478,
      "Ġanyway": 7479,
      "æĻ¨": 7480,
      "è±ª": 7481,
      "Inst": 7482,
      "æ£ĢæŁ¥": 7483,
      "off": 7484,
      "æ¦": 7485,
      "ä¸Ģé¡¹": 7486,
      "Ġgent": 7487,
      "ä¸įå¤ª": 7488,
      "âĢĺ": 7489,
      "å°±æľī": 7490,
      "æīĢåģļçļĦ": 7491,
      "éģ¥": 7492,
      "ĠAustr": 7493,
      "æľºæ¢°": 7494,
      "çľŁçļĦæĺ¯": 7495,
      "å¤ĸéĿ¢": 7496,
      "Ġbelow": 7497,
      "è¿Ļä¹Īå¤ļ": 7498,
      "Ġsurvive": 7499,
      "åĪºæ¿Ģ": 7500,
      "Ġcauses": 7501,
      "Ġtelevision": 7502,
      "RI": 7503,
      "ok": 7504,
      "è²": 7505,
      "æĪĳä»Ĭå¤©": 7506,
      "ä¸Ģä»¶äºĭ": 7507,
      "Ġinsect": 7508,
      "arm": 7509,
      "ifornia": 7510,
      "iring": 7511,
      "éĹ®æĪĳ": 7512,
      "ĠéĤ£ä¸ª": 7513,
      "Ġsmell": 7514,
      "Ġtrade": 7515,
      "å¼ºçĥĪ": 7516,
      "Ġpurpose": 7517,
      "Ġcustom": 7518,
      "uct": 7519,
      "yl": 7520,
      "èł": 7521,
      "çļĦåıĺåĮĸ": 7522,
      "anced": 7523,
      "ä¸ªå°ıæĹ¶": 7524,
      "Ġstress": 7525,
      "Ġshark": 7526,
      "olve": 7527,
      "åģļä¸Ģä¸ª": 7528,
      "çļĦäººåı£": 7529,
      "èµ°äºĨ": 7530,
      "å¡«": 7531,
      "çļĦæķ°éĩı": 7532,
      "ä¼Ĭæĸ¯": 7533,
      "åĲ¯åıĳ": 7534,
      "è¡£æľį": 7535,
      "Ġsummer": 7536,
      "æĪĲåįĥä¸Ĭä¸ĩ": 7537,
      "Are": 7538,
      "ĠĠ": 7539,
      "çļĦæīĢæľī": 7540,
      "ä¸Ńæľī": 7541,
      "æİª": 7542,
      "çĤ¹æĺ¯": 7543,
      "çļĦäººçĶŁ": 7544,
      "æıĲéĨĴ": 7545,
      "load": 7546,
      "çĬ¹": 7547,
      "Ġbelief": 7548,
      "çıį": 7549,
      "Ġradio": 7550,
      "Ġlegal": 7551,
      "æ¹¾": 7552,
      "Ġinfrastructure": 7553,
      "Ġtens": 7554,
      "inate": 7555,
      "repre": 7556,
      "Ġsus": 7557,
      "Ġmut": 7558,
      "ç»¼": 7559,
      "ä¸ĩäºº": 7560,
      "æľŁéĹ´": 7561,
      "çĮ´": 7562,
      "Ġinvent": 7563,
      "åıĸåĨ³": 7564,
      "å²ģçļĦæĹ¶åĢĻ": 7565,
      "Ġslide": 7566,
      "Ġartist": 7567,
      "é»ĳäºº": 7568,
      "Ġswitch": 7569,
      "ä¼ĺç§Ģ": 7570,
      "å¤§å¤ļæķ°äºº": 7571,
      "Ġrelationships": 7572,
      "Ġtotal": 7573,
      "çļĦæ³ķ": 7574,
      "çļĦæ¯įäº²": 7575,
      "reprene": 7576,
      "nel": 7577,
      "çĴ": 7578,
      "Ġir": 7579,
      "ĠiP": 7580,
      "arian": 7581,
      "Ġstates": 7582,
      "èĥ½åľ¨": 7583,
      "éĢ»": 7584,
      "amb": 7585,
      "å¾Īç®Ģåįķ": 7586,
      "Ġheat": 7587,
      "åıªéľĢè¦ģ": 7588,
      "å£®": 7589,
      "éļ¾æ°ĳ": 7590,
      "Ġprevent": 7591,
      "éĢīä¸¾": 7592,
      "Ġä¸įç®¡": 7593,
      "ç®ĢçĽ´": 7594,
      "å¤§éĩıçļĦ": 7595,
      "Ġdirectly": 7596,
      "vest": 7597,
      "±ä¹Ĳ": 7598,
      "çļĦåŃ¦çĶŁ": 7599,
      "ä¸Ģç¾¤": 7600,
      "ä»ĸä»¬åı¯ä»¥": 7601,
      "ä¹Łä¸įä¼ļ": 7602,
      "Ġaltern": 7603,
      "unk": 7604,
      "ç®Ń": 7605,
      "éļĨ": 7606,
      "iber": 7607,
      "é»İ": 7608,
      "åĪĽéĢłåĬĽ": 7609,
      "è§£åĨ³æĸ¹æ¡Ī": 7610,
      "Ġmeters": 7611,
      "Ġcapacity": 7612,
      "ĠæľĢç»Ī": 7613,
      "Ġcultural": 7614,
      "çļĦç¬¬ä¸Ģä¸ª": 7615,
      "æİĮæı¡": 7616,
      "çļĦç¾İåĽ½": 7617,
      "Ġdoub": 7618,
      "Ġå¥½": 7619,
      "Ġtask": 7620,
      "æī®": 7621,
      "åį¢": 7622,
      "èĢħä»¬": 7623,
      "ĠMus": 7624,
      "æľŁå¾ħ": 7625,
      "æ¿ĢåĬ±": 7626,
      "æĬ¥éģĵ": 7627,
      "éĢĤåĲĪ": 7628,
      "çļĦç¤¾åĮº": 7629,
      "è®¤è¯ĨåĪ°": 7630,
      "èģļéĽĨ": 7631,
      "Ġcommunicate": 7632,
      "æµªè´¹": 7633,
      "æı´åĬ©": 7634,
      "Ġphilos": 7635,
      "æ¨ª": 7636,
      "cles": 7637,
      "ef": 7638,
      "gain": 7639,
      "Ġmamm": 7640,
      "Ġhus": 7641,
      "è¿ĻçĤ¹": 7642,
      "è¿Ļæ®µ": 7643,
      "ley": 7644,
      "ä½łä¸į": 7645,
      "çļĦæ½": 7646,
      "åºŀ": 7647,
      "å°±æĺ¯è¿Ļæł·": 7648,
      "Ġmanufact": 7649,
      "çļĦæĹ¶åĪ»": 7650,
      "åĲįä¸º": 7651,
      "ä¼Ĭæĭīåħĭ": 7652,
      "Ġelectron": 7653,
      "Ġprofound": 7654,
      "èĪŀåı°": 7655,
      "Ġexperiments": 7656,
      "è¾ĵåħ¥": 7657,
      "Chris": 7658,
      "Ġpaid": 7659,
      "ĠCalifornia": 7660,
      "iam": 7661,
      "my": 7662,
      "wood": 7663,
      "Ġå®Įåħ¨": 7664,
      "æĺ¯å¯¹": 7665,
      "Ġdad": 7666,
      "Ġdimens": 7667,
      "å®ĥåľ¨": 7668,
      "åıĳæĮ¥": 7669,
      "ander": 7670,
      "ĠCong": 7671,
      "éĥ¨èĲ½": 7672,
      "èİī": 7673,
      "anging": 7674,
      "Ġ300": 7675,
      "Ġcentral": 7676,
      "çİ©åħ·": 7677,
      "Ġbiological": 7678,
      "çļĦæĬķ": 7679,
      "åĲĦç§įåĲĦ": 7680,
      "æĴŃæĶ¾": 7681,
      "æĭĴç»Ŀ": 7682,
      "ĠAfghanistan": 7683,
      "çļĦåħ³ç³»": 7684,
      "Ġmix": 7685,
      "æľµ": 7686,
      "åģļçļĦäºĭ": 7687,
      "Ġrule": 7688,
      "è°ĭ": 7689,
      "cience": 7690,
      "ĠMc": 7691,
      "Ġdispl": 7692,
      "æľĽè¿ľ": 7693,
      "èµ°åĪ°": 7694,
      "lications": 7695,
      "Ġcontroll": 7696,
      "Ġeasily": 7697,
      "è¡Ģç®¡": 7698,
      "Ġmembers": 7699,
      "åĨĽéĺŁ": 7700,
      "Ġswim": 7701,
      "Ġtremend": 7702,
      "çļĦç¥ĸ": 7703,
      "Ġsymbol": 7704,
      "åĪ¤æĸŃ": 7705,
      "Ġcampaign": 7706,
      "water": 7707,
      "edd": 7708,
      "Ġet": 7709,
      "åľ°è¯´": 7710,
      "åĩºä¸Ģä¸ª": 7711,
      "cks": 7712,
      "ĠæĪĳè¦ģ": 7713,
      "éģĵè·¯": 7714,
      "æ³ķåĽ½": 7715,
      "æĥħæĦŁ": 7716,
      "åĬłä¸Ĭ": 7717,
      "åĲĪçĲĨ": 7718,
      "Ġä»ĸä»¬çļĦ": 7719,
      "order": 7720,
      "Ġscan": 7721,
      "å¥ĩå¦Ļ": 7722,
      "é»ĳæļĹ": 7723,
      "æĬ¥åĳĬ": 7724,
      "Ġvisit": 7725,
      "Ġhyd": 7726,
      "Ġresponsibility": 7727,
      "Ġdegrees": 7728,
      "ä¼Ĭæĸ¯åħ°": 7729,
      "rim": 7730,
      "¹æŀľ": 7731,
      "Ġçľĭçľĭ": 7732,
      "Ġbought": 7733,
      "ancy": 7734,
      "Ġloss": 7735,
      "ĠIra": 7736,
      "å¸¦æĿ¥çļĦ": 7737,
      "ä¼łéĢĴ": 7738,
      "Ġä¹Łæĺ¯": 7739,
      "Ġä»ĸè¯´": 7740,
      "çĶ»éĿ¢": 7741,
      "éĩĩçĶ¨": 7742,
      "Ġreflect": 7743,
      "æĮīçħ§": 7744,
      "ç¿»è¯ĳ": 7745,
      "Ġsocieties": 7746,
      "æľĽè¿ľéķľ": 7747,
      "ira": 7748,
      "å¤§ä¼Ĺ": 7749,
      "æĪĲæŀľ": 7750,
      "è¿ĻäºĽæĺ¯": 7751,
      "æľĢåĪĿ": 7752,
      "ä»İäºĭ": 7753,
      "éĿ¢ç§¯": 7754,
      "è·µ": 7755,
      "è¿ĽæĿ¥": 7756,
      "Ġagricult": 7757,
      "èĭ¹æŀľ": 7758,
      "Ġspeaking": 7759,
      "Ġå½ĵæĪĳä»¬": 7760,
      "æ¬¢è¿İ": 7761,
      "Ġanswers": 7762,
      "æĻ®éģį": 7763,
      "ä¼ĬæľĹ": 7764,
      "ç¼ºä¹ı": 7765,
      "çĪ¸çĪ¸": 7766,
      "çļĦçĪ¶äº²": 7767,
      "åıĸåĨ³äºİ": 7768,
      "band": 7769,
      "fl": 7770,
      "uing": 7771,
      "yle": 7772,
      "ä¸Ģç³»åĪĹ": 7773,
      "è¿Ļä¹Ł": 7774,
      "è¿Ļä¸¤": 7775,
      "raid": 7776,
      "adem": 7777,
      "Ġnoticed": 7778,
      "åĲĮæĢ§æģĭ": 7779,
      "æĬĬè¿Ļä¸ª": 7780,
      "å§Ķ": 7781,
      "Ġtwice": 7782,
      "åĲĪéĢĤ": 7783,
      "æĢĿç»´": 7784,
      "rench": 7785,
      "Ġfeels": 7786,
      "Ġcreativity": 7787,
      "ç»´æĮģ": 7788,
      "Ġplanets": 7789,
      "äº§çĶŁäºĨ": 7790,
      "cules": 7791,
      "éº»çĥ¦": 7792,
      "Ġreduce": 7793,
      "Ġsignificant": 7794,
      "300": 7795,
      "hone": 7796,
      "ä¸Ī": 7797,
      "çļĦåŁİå¸Ĥ": 7798,
      "æĪĳä¸įæĺ¯": 7799,
      "ening": 7800,
      "Ġdying": 7801,
      "icles": 7802,
      "æĹĹ": 7803,
      "Ġang": 7804,
      "èµı": 7805,
      "Ġvast": 7806,
      "èĥİ": 7807,
      "ç¥Ŀ": 7808,
      "èµ°åĲĳ": 7809,
      "ä¾¿å®ľ": 7810,
      "Ġmarkets": 7811,
      "æĦŁè§īåĪ°": 7812,
      "Ġhistor": 7813,
      "çĽ¸å½ĵäºİ": 7814,
      "æĢĢçĸĳ": 7815,
      "çļĦæ¨¡å¼ı": 7816,
      "Ġmicrob": 7817,
      "å¯¿åĳ½": 7818,
      "Ġoxygen": 7819,
      "èĦĨå¼±": 7820,
      "çļĦæ¢¦æĥ³": 7821,
      "Ġgentle": 7822,
      "45": 7823,
      "ened": 7824,
      "ä½łèĩªå·±": 7825,
      "ett": 7826,
      "èĢ¶": 7827,
      "ste": 7828,
      "å¤§æ°Ķ": 7829,
      "Ġshock": 7830,
      "ĠæĪĳå°±": 7831,
      "æ¬£": 7832,
      "åĥıè¿Ļæł·": 7833,
      "æīĭæ®µ": 7834,
      "Ġplayed": 7835,
      "Ġboys": 7836,
      "Ġå¦ĤæŀľæĪĳä»¬": 7837,
      "Ġfunny": 7838,
      "æĳĦåĥı": 7839,
      "çļĦæŃ»": 7840,
      "Ġdaughter": 7841,
      "Ġemotional": 7842,
      "Ġsurprising": 7843,
      "Ġanaly": 7844,
      "Ġsustainable": 7845,
      "Ġafraid": 7846,
      "house": 7847,
      "Ġè°¢è°¢": 7848,
      "çļĦéĥ¨åĪĨ": 7849,
      "çļĦéĢŁåº¦": 7850,
      "Ġgun": 7851,
      "åĩºçīĪ": 7852,
      "çĿ£": 7853,
      "izes": 7854,
      "åĬłå·ŀ": 7855,
      "rupt": 7856,
      "Ġdifferently": 7857,
      "ĠOh": 7858,
      "Ġnetworks": 7859,
      "Ġoriginal": 7860,
      "Ġcloser": 7861,
      "æ¶īåıĬ": 7862,
      "æĶ»åĩ»": 7863,
      "Ġpublished": 7864,
      "çĴĥ": 7865,
      "gy": 7866,
      "æ²¡éĶĻ": 7867,
      "åī²": 7868,
      "ä»İä¸Ń": 7869,
      "ĠAd": 7870,
      "Ġexpand": 7871,
      "phone": 7872,
      "çŃīå¾ħ": 7873,
      "Ġhighly": 7874,
      "æ¢ħ": 7875,
      "æģĲé¾Ļ": 7876,
      "Ġdevices": 7877,
      "çīĪæľ¬": 7878,
      "çİ»çĴĥ": 7879,
      "Ġå¤ļ": 7880,
      "çļĦç»ıæµİ": 7881,
      "åľ¨åĵªéĩĮ": 7882,
      "aling": 7883,
      "Ġhabit": 7884,
      "åģļæ³ķ": 7885,
      "è¿ĻäºĽæķ°æį®": 7886,
      "anda": 7887,
      "ĠArab": 7888,
      "Ġevolved": 7889,
      "ĠOne": 7890,
      "Ġentreprene": 7891,
      "æĲº": 7892,
      "Ġcorner": 7893,
      "Ġwindow": 7894,
      "Ġmission": 7895,
      "Ġbroken": 7896,
      "éģĹä¼ł": 7897,
      "Ġcommunication": 7898,
      "åĳĪçİ°": 7899,
      "1000": 7900,
      "rie": 7901,
      "çļĦéĩįè¦ģ": 7902,
      "æĪĳéľĢè¦ģ": 7903,
      "æĪĳä¸ĢçĽ´": 7904,
      "Ġmid": 7905,
      "è¯±": 7906,
      "Ġbeat": 7907,
      "å½ĵä»ĸä»¬": 7908,
      "æĬĬä»ĸä»¬": 7909,
      "ä½łä»¬çŁ¥éģĵ": 7910,
      "å¤ĸçļĦ": 7911,
      "Ġcontact": 7912,
      "èī²åĪĹ": 7913,
      "ĠéĤ£éĩĮ": 7914,
      "æľŁæľĽ": 7915,
      "å¤±åİ»äºĨ": 7916,
      "çº¢èī²": 7917,
      "æ¼«çĶ»": 7918,
      "çļĦæ´»åĬ¨": 7919,
      "ĠIraq": 7920,
      "ius": 7921,
      "win": 7922,
      "Ġä»»ä½ķ": 7923,
      "ãĢĤ\"": 7924,
      "æĺ¥": 7925,
      "ä¸Ģå¼Ģå§ĭ": 7926,
      "Ġdance": 7927,
      "Ġlack": 7928,
      "ä¸įä¸Ģæł·": 7929,
      "Ġforces": 7930,
      "çĽ¾": 7931,
      "Ġgold": 7932,
      "empt": 7933,
      "çĲĨæĥ³": 7934,
      "åĽŀäºĭ": 7935,
      "æ±ī": 7936,
      "åĵªä¸ª": 7937,
      "othes": 7938,
      "ä¾ĽåºĶ": 7939,
      "ception": 7940,
      "äº§çĶŁçļĦ": 7941,
      "ashion": 7942,
      "å¹»çģ¯": 7943,
      "Many": 7944,
      "Ġefficient": 7945,
      "æ¾³": 7946,
      "æ²ŁéĢļ": 7947,
      "Instead": 7948,
      "EO": 7949,
      "mp": 7950,
      "´æľĽ": 7951,
      "Ġut": 7952,
      "çļĦé¡¹çĽ®": 7953,
      "Ġwood": 7954,
      "orith": 7955,
      "æķ¬": 7956,
      "å¥½å¥ĩ": 7957,
      "è¿Ļæĺ¯æĪĳä»¬": 7958,
      "éĩįå¤§": 7959,
      "æıĴ": 7960,
      "Ġindepend": 7961,
      "æŀģåħ¶": 7962,
      "å£«åħµ": 7963,
      "Ġproduced": 7964,
      "çļĦæĬ¥": 7965,
      "å±ħæ°ĳ": 7966,
      "çļĦçĪ±": 7967,
      "é¡ºä¾¿": 7968,
      "Ġinspired": 7969,
      "çļĦæĶ¿æ²»": 7970,
      "èĩªè¡Įè½¦": 7971,
      "mon": 7972,
      "reg": 7973,
      "å¤º": 7974,
      "cell": 7975,
      "å¾Īæĺİæĺ¾": 7976,
      "atell": 7977,
      "è®©äººä»¬": 7978,
      "ç³Ĭ": 7979,
      "çĶµåĬĽ": 7980,
      "Ġcoff": 7981,
      "ĠNational": 7982,
      "Ġrapid": 7983,
      "è¶ħè¶Ĭ": 7984,
      "Ġaddition": 7985,
      "é³": 7986,
      "Ġreco": 7987,
      "èĩªéĹŃ": 7988,
      "è¿ĻäºĽéĥ½æĺ¯": 7989,
      "å¥½æ¶Īæģ¯": 7990,
      "çī©åĵģ": 7991,
      "Ġcompon": 7992,
      "æĸ¯æŀĹ": 7993,
      "ä¸¤å¹´": 7994,
      "Ġdifferences": 7995,
      "ĠéĤ£æĺ¯": 7996,
      "é¦Ī": 7997,
      "æµ·è±": 7998,
      "Ġhelping": 7999,
      "æ¯ķä¸ļ": 8000,
      "Ġalgorith": 8001,
      "è¢Ńåĩ»": 8002,
      "ä¸įåıªæĺ¯": 8003,
      "ä¸ºæŃ¤": 8004,
      "èĥ½çľĭåĪ°": 8005,
      "å¿§": 8006,
      "ï¼ŁâĢľ": 8007,
      "åĲĮä¸Ģä¸ª": 8008,
      "åĵŃ": 8009,
      "Ġspaces": 8010,
      "ĠCom": 8011,
      "çļĦæĹ¶ä»£": 8012,
      "Ġresist": 8013,
      "çĶŁæ´»çļĦ": 8014,
      "çļĦæĸ¹åĲĳ": 8015,
      "å¾ĹåĪ°çļĦ": 8016,
      "Ġexperiences": 8017,
      "Ġmountain": 8018,
      "lim": 8019,
      "isco": 8020,
      "Ġhom": 8021,
      "è¿Ļä¸¤ä¸ª": 8022,
      "æĪĳä»¬ä¸įèĥ½": 8023,
      "icon": 8024,
      "çļĦæ£": 8025,
      "åĩ¯": 8026,
      "æĪĲå°±": 8027,
      "è´·": 8028,
      "Ġä½łå°±": 8029,
      "äººä»¬çļĦ": 8030,
      "çĭ¬çī¹": 8031,
      "ĠIndian": 8032,
      "Ġscientist": 8033,
      "å·¦è¾¹": 8034,
      "æ¸©åº¦": 8035,
      "Ġmolecules": 8036,
      "çļĦæģĲ": 8037,
      "Un": 8038,
      "æĪĳä»¬å¸ĮæľĽ": 8039,
      "Ġhall": 8040,
      "rael": 8041,
      "çľĭäºĨ": 8042,
      "éĥ½è¦ģ": 8043,
      "ĠæĪĳä»¬è¦ģ": 8044,
      "aced": 8045,
      "ĠChris": 8046,
      "Ġconference": 8047,
      "ä¸ĸçķĮä¸ĬæľĢ": 8048,
      "éļĲèĹı": 8049,
      "ä¸Īå¤«": 8050,
      "Ġæīįèĥ½": 8051,
      "Ġoh": 8052,
      "Ġhole": 8053,
      "ä¸ĢçĶŁ": 8054,
      "ä¸Ģä»½": 8055,
      "Ġdiversity": 8056,
      "çĶ³": 8057,
      "è¯¢": 8058,
      "äºĨåĲĹ": 8059,
      "ä¸įä¹ħ": 8060,
      "å¥´": 8061,
      "ä»ĸä»¬æľī": 8062,
      "Ġknowing": 8063,
      "ĠSan": 8064,
      "ĠShe": 8065,
      "Ġagree": 8066,
      "éªĳ": 8067,
      "æ»ļ": 8068,
      "Ġblog": 8069,
      "Ġå°±ä¼ļ": 8070,
      "Ġdesigners": 8071,
      "åĪĽéĢłäºĨ": 8072,
      "ĠæĪĸèĢħæĺ¯": 8073,
      "èĽĽ": 8074,
      "Ġclassroom": 8075,
      "Ġmissing": 8076,
      "çĶŁæĢģç³»ç»Ł": 8077,
      "Ġreligion": 8078,
      "Ġtrouble": 8079,
      "hy": 8080,
      "æĨ": 8081,
      "Ġä½¿çĶ¨": 8082,
      "Ġè¯·": 8083,
      "Ġç»ĵæŀľ": 8084,
      "æĿ¥åģļ": 8085,
      "Ġfort": 8086,
      "ooper": 8087,
      "è¯´åĪ°": 8088,
      "çľĭä¸į": 8089,
      "Ġshoot": 8090,
      "Ġseemed": 8091,
      "ĠCl": 8092,
      "å¼ıçļĦ": 8093,
      "é«ĺåº¦": 8094,
      "Ġgotten": 8095,
      "æ¡ĳ": 8096,
      "Ġrare": 8097,
      "æµģè¡Į": 8098,
      "Ġbasis": 8099,
      "Ġdemand": 8100,
      "Ġpassed": 8101,
      "åĨľæ°ĳ": 8102,
      "è¯Ħè®º": 8103,
      "Ġidentity": 8104,
      "Ġdreams": 8105,
      "Ġjoin": 8106,
      "Ġnearly": 8107,
      "èĩªéĹŃçĹĩ": 8108,
      "Ġver": 8109,
      "Ġsatell": 8110,
      "è¯´æľį": 8111,
      "æĦ¤": 8112,
      "è®¾æĥ³": 8113,
      "åĽ¾è¡¨": 8114,
      "ä¸¾ä¸ª": 8115,
      "idden": 8116,
      "Ġbringing": 8117,
      "çļĦæŃ£": 8118,
      "ç¨³å®ļ": 8119,
      "Ġcrowd": 8120,
      "éĢ»è¾ĳ": 8121,
      "çļĦæ½ľ": 8122,
      "Ġ$": 8123,
      "Ġwire": 8124,
      "åºĨ": 8125,
      "æĬĽ": 8126,
      "å¾Īæľīè¶£": 8127,
      "term": 8128,
      "ulner": 8129,
      "Ġrough": 8130,
      "çºµ": 8131,
      "åĬ¨çļĦ": 8132,
      "èµ·äºĨ": 8133,
      "çļĦæĹħ": 8134,
      "Ġflight": 8135,
      "æŀģç«¯": 8136,
      "Ġattract": 8137,
      "åı¤èĢģ": 8138,
      "çļĦæµģ": 8139,
      "Ġvolunt": 8140,
      "çļĦç½ĳç»ľ": 8141,
      "Ġsurgery": 8142,
      "¬éĹ´": 8143,
      "è¿ģ": 8144,
      "Ġhost": 8145,
      "alia": 8146,
      "äºĨä¸įèµ·": 8147,
      "ç»©": 8148,
      "ä½łä¸įèĥ½": 8149,
      "Ġreb": 8150,
      "åĲİæŀľ": 8151,
      "ears": 8152,
      "èĦĤ": 8153,
      "Ġclimb": 8154,
      "Ġpoet": 8155,
      "ä¸»æĦı": 8156,
      "è¯ĨåĪ«": 8157,
      "ä¹Ĳè§Ĥ": 8158,
      "è£ģ": 8159,
      "åŃĹæ¯į": 8160,
      "Ġå½ĵæĪĳ": 8161,
      "è°ĥæķ´": 8162,
      "çļĦæĶ¯": 8163,
      "ä¸´åºĬ": 8164,
      "exic": 8165,
      "Ġdeliver": 8166,
      "Ġtarget": 8167,
      "ae": 8168,
      "Ġå¹´": 8169,
      "è¿Ļåıª": 8170,
      "Ġeating": 8171,
      "Ġseas": 8172,
      "å¯¹è±¡": 8173,
      "åĵĩ": 8174,
      "å°Ĩè¦ģ": 8175,
      "åĽŀåİ»": 8176,
      "ä»¶äºĭæĥħ": 8177,
      "Ġbackground": 8178,
      "å¸¦åĪ°": 8179,
      "åĲįåı«": 8180,
      "åºĶè¯¥æĺ¯": 8181,
      "åħ±äº«": 8182,
      "Ġconsid": 8183,
      "Ġforever": 8184,
      "æŁĲç§įç¨ĭåº¦ä¸Ĭ": 8185,
      "Ġspending": 8186,
      "å¿ĺè®°": 8187,
      "Ġæĸ°": 8188,
      "Ġtun": 8189,
      "çļĦè¿Ļä¸ª": 8190,
      "åıĻ": 8191,
      "Ġfat": 8192,
      "Ġinj": 8193,
      "Think": 8194,
      "Ġaspect": 8195,
      "å¾Īä¹ħ": 8196,
      "istry": 8197,
      "Ġtrip": 8198,
      "Ġplat": 8199,
      "ç±į": 8200,
      "è§ĴèĲ½": 8201,
      "Ġlights": 8202,
      "éĻ¤éĿŀ": 8203,
      "åĭĥ": 8204,
      "Ġhearing": 8205,
      "Ġcomplexity": 8206,
      "ä¼°è®¡": 8207,
      "èĸĦ": 8208,
      "Ġbirds": 8209,
      "Ġcru": 8210,
      "Ġnone": 8211,
      "é«ĺä¸Ń": 8212,
      "Ġstudying": 8213,
      "é»ĳçĮ©çĮ©": 8214,
      "å´©": 8215,
      "è¹Ī": 8216,
      "IDS": 8217,
      "do": 8218,
      "åĪĢ": 8219,
      "icking": 8220,
      "ä¸Ģä¸ªéĹ®é¢ĺ": 8221,
      "æĭ¼": 8222,
      "è¿Ļæĺ¯ä¸Ģç§į": 8223,
      "ç¨İ": 8224,
      "ĠRuss": 8225,
      "Ġindustrial": 8226,
      "åĪĻæĺ¯": 8227,
      "èĩ´åĬĽ": 8228,
      "ĠYes": 8229,
      "çĨĬ": 8230,
      "cript": 8231,
      "Two": 8232,
      "Ġopposite": 8233,
      "Your": 8234,
      "çļĦä¸Ģç§į": 8235,
      "çļĦä½įç½®": 8236,
      "reci": 8237,
      "ä½łåı¯èĥ½": 8238,
      "å°±è¦ģ": 8239,
      "å¤§åŀĭ": 8240,
      "çĶŁæĦı": 8241,
      "çļĦçĤ": 8242,
      "å¾ĹäºĨ": 8243,
      "å¼Ģè½¦": 8244,
      "care": 8245,
      "è¡Įèµ°": 8246,
      "åħ¬å¹³": 8247,
      "æ¶Ĥ": 8248,
      "ording": 8249,
      "Ġcreates": 8250,
      "åĵªåĦ¿": 8251,
      "å¯Įæľī": 8252,
      "å®¢æĪ·": 8253,
      "åĺĽ": 8254,
      "çļĦçĲĨè®º": 8255,
      "çļĦæĻº": 8256,
      "è¦ĨçĽĸ": 8257,
      "Ġcommercial": 8258,
      "Ġetc": 8259,
      "gth": 8260,
      "ri": 8261,
      "ux": 8262,
      "é¥¿": 8263,
      "Ġæīį": 8264,
      "ĽçĽ¾": 8265,
      "atures": 8266,
      "Ġhack": 8267,
      "ctually": 8268,
      "éĤ£å¤©": 8269,
      "åİ¨": 8270,
      "æķĮ": 8271,
      "åıĳå¸ĥ": 8272,
      "éģµ": 8273,
      "æ²¡æ³ķ": 8274,
      "åĲĮä¸Ģ": 8275,
      "èĥĸ": 8276,
      "æ¼ı": 8277,
      "äº¤è°Ī": 8278,
      "orders": 8279,
      "Ġraised": 8280,
      "rength": 8281,
      "é¥¥": 8282,
      "Ġfully": 8283,
      "çģ¾éļ¾": 8284,
      "åŁºéĩĳä¼ļ": 8285,
      "From": 8286,
      "Ġwide": 8287,
      "Ġfol": 8288,
      "Ġweird": 8289,
      "å°±è¿Ļæł·": 8290,
      "ifying": 8291,
      "Ġtrib": 8292,
      "æĮ£": 8293,
      "éĺµ": 8294,
      "è¾¹ç¼ĺ": 8295,
      "Ġtraffic": 8296,
      "Ġaccom": 8297,
      "Ġairpl": 8298,
      "èĥĮåĲİ": 8299,
      "åı³è¾¹": 8300,
      "Ġinvestment": 8301,
      "Ġfocused": 8302,
      "éĢıæĺİ": 8303,
      "æĹģè¾¹": 8304,
      "cop": 8305,
      "ees": 8306,
      "âĶ": 8307,
      "ĠWhy": 8308,
      "çļĦåĨħå®¹": 8309,
      "Ġcore": 8310,
      "Ġmuseum": 8311,
      "è¿Ļåıªæĺ¯": 8312,
      "aria": 8313,
      "ä¸įåģľ": 8314,
      "ä¹Łä¸įæĺ¯": 8315,
      "å®ŀè·µ": 8316,
      "pping": 8317,
      "æĬĬæĪĳ": 8318,
      "å¿ĥçļĦ": 8319,
      "æ°Ķä½ĵ": 8320,
      "æŃ»äºĨ": 8321,
      "Ġeasier": 8322,
      "ä¾ĿéĿł": 8323,
      "ä¼Ļä¼´": 8324,
      "éľĩæĥĬ": 8325,
      "âĶĢ": 8326,
      "rical": 8327,
      "val": 8328,
      "Ġske": 8329,
      "æĪĪ": 8330,
      "è¿Ļå¹ħ": 8331,
      "è¯´æĺ¯": 8332,
      "ä»Ģä¹ĪæĹ¶åĢĻ": 8333,
      "roud": 8334,
      "osystem": 8335,
      "åīįè¿Ľ": 8336,
      "èĤĥ": 8337,
      "é«ĵ": 8338,
      "åĸ»": 8339,
      "Ġparty": 8340,
      "éĴ»": 8341,
      "Ġ198": 8342,
      "Ġå¤§çº¦": 8343,
      "ç£ħ": 8344,
      "Ġsexual": 8345,
      "åĲ¯åĬ¨": 8346,
      "åĢ¾åĲĳ": 8347,
      "çļĦç¨ĭ": 8348,
      "å«": 8349,
      "ä¸ºä½ķ": 8350,
      "Ġstrength": 8351,
      "çī§": 8352,
      "åİļ": 8353,
      "çĶ¨å®ĥ": 8354,
      "éĥ½è¢«": 8355,
      "Ġrout": 8356,
      "Ġvulner": 8357,
      "æ²¡æľīä»Ģä¹Ī": 8358,
      "æĮĤ": 8359,
      "å°Ĩåħ¶": 8360,
      "åĽŀåºĶ": 8361,
      "åĲĪæ³ķ": 8362,
      "Ġpartners": 8363,
      "Ġboat": 8364,
      "çľŁçļĦå¾Ī": 8365,
      "éĢģåĪ°": 8366,
      "Ġopportunities": 8367,
      "åľ¨éĤ£åĦ¿": 8368,
      "Ġdinos": 8369,
      "Ġcoffee": 8370,
      "ratic": 8371,
      "Ġing": 8372,
      "Ġur": 8373,
      "Ġä¸Ĭ": 8374,
      "ä¸Ģçīĩ": 8375,
      "åĲĵ": 8376,
      "ä¸įå¯¹": 8377,
      "çļĦæĤ": 8378,
      "ä¼ļåĦ¿": 8379,
      "illiant": 8380,
      "artment": 8381,
      "ĠæĪĳè§īå¾Ĺ": 8382,
      "è¿ĺèĥ½": 8383,
      "Ġåľ¨æĪĳ": 8384,
      "ĠMexic": 8385,
      "ä½¿æĪĳä»¬": 8386,
      "ĠRe": 8387,
      "æ¡Ĩ": 8388,
      "Ġgenome": 8389,
      "è½¬ç§»": 8390,
      "Ġenter": 8391,
      "Ġcrim": 8392,
      "æ¢¯": 8393,
      "Ġcorrect": 8394,
      "Ġinfect": 8395,
      "ography": 8396,
      "çļĦæ²»": 8397,
      "Ġdescribe": 8398,
      "Ġlucky": 8399,
      "ç»¼åĲĪ": 8400,
      "Ġtremendous": 8401,
      "çļĦåĳ¢": 8402,
      "çļĦåŁºç¡Ģ": 8403,
      "æĪĳè¢«": 8404,
      "Ġfold": 8405,
      "ä¸įè¶³": 8406,
      "çļĦæ¬": 8407,
      "irt": 8408,
      "åľ°ä¸Ĭ": 8409,
      "éĻĮ": 8410,
      "è¾Ľ": 8411,
      "çĲĨçĶ±": 8412,
      "ĠRo": 8413,
      "åĳĬè¯īä»ĸä»¬": 8414,
      "æĢ»ç»ĵ": 8415,
      "Ġmatters": 8416,
      "çļĦæ°ĳ": 8417,
      "Ġharm": 8418,
      "Ġkilomet": 8419,
      "èł¢": 8420,
      "hand": 8421,
      "ï½": 8422,
      "Ġåĩłä¹İ": 8423,
      "æĪĳåıªæĺ¯": 8424,
      "æĺ¨": 8425,
      "Ġgiant": 8426,
      "å¸Ĳ": 8427,
      "åĴĮæĪĳä»¬": 8428,
      "Ġliber": 8429,
      "ulations": 8430,
      "æĭĸ": 8431,
      "ĠæĪĳä»¬å¿ħé¡»": 8432,
      "æĽ´æľī": 8433,
      "å®ĥä»¬æĺ¯": 8434,
      "ä»£çłģ": 8435,
      "åĲ¬è¯´è¿ĩ": 8436,
      "Ġimportantly": 8437,
      "ä¸ĵåĪ©": 8438,
      "Ġpossibility": 8439,
      "Ġparad": 8440,
      "çļĦçĲĨè§£": 8441,
      "Ġecosystem": 8442,
      "Tube": 8443,
      "èª": 8444,
      "Ġä¸¤": 8445,
      "ä¸Ģèĩ´": 8446,
      "åľ¨æŃ¤": 8447,
      "äººåľ¨": 8448,
      "Ġstem": 8449,
      "ä¸ĬåŃ¦": 8450,
      "Ġjustice": 8451,
      "å§»": 8452,
      "Ġcla": 8453,
      "å°ĳå¹´": 8454,
      "è°Īè¯Ŀ": 8455,
      "Ġremain": 8456,
      "è½¬åĮĸ": 8457,
      "å¼ºå¤§çļĦ": 8458,
      "åį°è±¡": 8459,
      "Ġmetap": 8460,
      "Ġstructures": 8461,
      "Ġconsciousness": 8462,
      "èµĭäºĪ": 8463,
      "son": 8464,
      "Ġtherap": 8465,
      "Ġmouth": 8466,
      "Ġproud": 8467,
      "æľīæľº": 8468,
      "äººåĴĮ": 8469,
      "Ġrepe": 8470,
      "rog": 8471,
      "æł·åŃĲ": 8472,
      "Ġnotion": 8473,
      "æ¬º": 8474,
      "ĠMich": 8475,
      "æıŃ": 8476,
      "åĩłå¤©": 8477,
      "ĠDo": 8478,
      "åĨ³çŃĸ": 8479,
      "åĲĳä½łä»¬": 8480,
      "è±¡å¾ģ": 8481,
      "ĠFor": 8482,
      "aker": 8483,
      "Ġbrings": 8484,
      "Ġturning": 8485,
      "æŃ»åİ»": 8486,
      "æ·±åĪ»": 8487,
      "Ġ400": 8488,
      "è¡Ĺéģĵ": 8489,
      "ĠIsrael": 8490,
      "Ġfailure": 8491,
      "ĠBecause": 8492,
      "Ġpuzz": 8493,
      "èī°éļ¾": 8494,
      "Ġdespite": 8495,
      "Ġä¸ĸçķĮ": 8496,
      "ï¼Į\"": 8497,
      "æĪĳå¿ħé¡»": 8498,
      "Ġcred": 8499,
      "ä¸Ģè¾¹": 8500,
      "è¿Ļåľº": 8501,
      "ĠIran": 8502,
      "Ġforg": 8503,
      "Ġheld": 8504,
      "è´¸": 8505,
      "ively": 8506,
      "éĻĪ": 8507,
      "èĤ©": 8508,
      "åıĹå®³": 8509,
      "å½¢æĢģ": 8510,
      "é¢Ĩè¢ĸ": 8511,
      "å¼ºè°ĥ": 8512,
      "ç©¿çĿĢ": 8513,
      "Ġadvant": 8514,
      "åħħæ»¡äºĨ": 8515,
      "Ġbenefits": 8516,
      "Ġultimately": 8517,
      "Ġfairly": 8518,
      "Ġvirtual": 8519,
      "å¹»çģ¯çīĩ": 8520,
      "Ġplatform": 8521,
      "75": 8522,
      "based": 8523,
      "äººå·¥": 8524,
      "å®ĥåı¯ä»¥": 8525,
      "æĥ³çŁ¥éģĵ": 8526,
      "Ġshop": 8527,
      "Ġsharing": 8528,
      "æ³¥": 8529,
      "æľĢé«ĺ": 8530,
      "Ġalt": 8531,
      "æĮĳ": 8532,
      "è¿ĽäºĨ": 8533,
      "ĠLet": 8534,
      "éĤ£ä¹Īå¤ļ": 8535,
      "è¿Ľè¡ĮäºĨ": 8536,
      "Ġtransm": 8537,
      "è§ĦåĪĴ": 8538,
      "åķĨåĵģ": 8539,
      "Ġstuck": 8540,
      "æİ¢æµĭ": 8541,
      "Ġentirely": 8542,
      "è¶³å¤ŁçļĦ": 8543,
      "ipped": 8544,
      "å©ļå§»": 8545,
      "çĽ¸åĲĮçļĦ": 8546,
      "å°Ĭéĩį": 8547,
      "Ġlandscape": 8548,
      "ä¸ĢåĪ»": 8549,
      "çļĦæĳ": 8550,
      "çľŁçĽ¸": 8551,
      "æīĭæĮĩ": 8552,
      "æĻ°": 8553,
      "ĠPar": 8554,
      "ĠDr": 8555,
      "Ġdesert": 8556,
      "ä½¿çĶ¨çļĦ": 8557,
      "Ġdistance": 8558,
      "Ġmagaz": 8559,
      "èĨľ": 8560,
      "Ġä½¿å¾Ĺ": 8561,
      "åŁĥåıĬ": 8562,
      "çļĦæĮĩ": 8563,
      "Ġemotions": 8564,
      "è¡¡éĩı": 8565,
      "ĠTwitter": 8566,
      "Ġyellow": 8567,
      "èĩ´åĬĽäºİ": 8568,
      "ront": 8569,
      "Ġtum": 8570,
      "çļĦæľªæĿ¥": 8571,
      "Ġbag": 8572,
      "ä»¥èī²åĪĹ": 8573,
      "Ġancient": 8574,
      "å¯¹åĲĹ": 8575,
      "Ġhell": 8576,
      "ç§įæ¤į": 8577,
      "è¿ĺåı¯ä»¥": 8578,
      "ç¾ŀ": 8579,
      "åº¦çļĦ": 8580,
      "itely": 8581,
      "çļĦäºĭå®ŀ": 8582,
      "æµ·å²¸": 8583,
      "è°ĪåĪ°": 8584,
      "çİ©èĢį": 8585,
      "å¯»å¸¸": 8586,
      "Ġaccur": 8587,
      "Ġphoto": 8588,
      "Ġbomb": 8589,
      "cra": 8590,
      "¾çĹħ": 8591,
      "Ġå¸ĮæľĽ": 8592,
      "reet": 8593,
      "åı¹": 8594,
      "Ġfab": 8595,
      "æī¬": 8596,
      "å°±å¼Ģå§ĭ": 8597,
      "åįµ": 8598,
      "åĳĢ": 8599,
      "çľĭè¿ĩ": 8600,
      "Ġmos": 8601,
      "ada": 8602,
      "è¿Ļæĺ¯åľ¨": 8603,
      "æĢ§åĪ«": 8604,
      "éĩįå»º": 8605,
      "éľĢè¦ģçļĦ": 8606,
      "æĶ¹éĿ©": 8607,
      "çħ§é¡¾": 8608,
      "Ġartists": 8609,
      "Ġaccident": 8610,
      "Ġepide": 8611,
      "Ġnegative": 8612,
      "æīĢè°ĵçļĦ": 8613,
      "èĤĮèĤī": 8614,
      "ij": 8615,
      "zen": 8616,
      "Ġå°Ĩä¼ļ": 8617,
      "Ġtough": 8618,
      "Ġmig": 8619,
      "Ġmort": 8620,
      "vere": 8621,
      "äººç¾¤": 8622,
      "å¾Īå°ı": 8623,
      "æĪĲç«ĭ": 8624,
      "Ġchim": 8625,
      "Ġconcent": 8626,
      "è¿ĺä¼ļ": 8627,
      "åĽłä¸ºæĪĳä»¬": 8628,
      "ichard": 8629,
      "ç½ļ": 8630,
      "åĮĸçŁ³": 8631,
      "æİ¥ä¸ĭæĿ¥çļĦ": 8632,
      "Ġphones": 8633,
      "Ġå¹¶ä¸įæĺ¯": 8634,
      "Ġadapt": 8635,
      "ä¼łæŁĵ": 8636,
      "ysis": 8637,
      "Ġimagination": 8638,
      "ç§»æ°ĳ": 8639,
      "å¯»æ±Ĥ": 8640,
      "ĠæĪĸè®¸": 8641,
      "åįĹéĿŀ": 8642,
      "æĪĳæĺ¯è¯´": 8643,
      "éĶĻè¯¯çļĦ": 8644,
      "å¥ĸåĬ±": 8645,
      "Ġnecessarily": 8646,
      "ford": 8647,
      "mark": 8648,
      "ĠåĪĽéĢł": 8649,
      "Ġcand": 8650,
      "isible": 8651,
      "åľ¨è¿ĩåİ»çļĦ": 8652,
      "icians": 8653,
      "rogen": 8654,
      "celer": 8655,
      "ä½ĨæĪĳä»¬": 8656,
      "ulated": 8657,
      "ĠæĪĳåı¯ä»¥": 8658,
      "çĿĢæīĭ": 8659,
      "è¿Ľå±ķ": 8660,
      "æĦŁåıĹåĪ°": 8661,
      "æıĲåįĩ": 8662,
      "Ġcalls": 8663,
      "è§Ĩè§Ĵ": 8664,
      "Ġattempt": 8665,
      "äºİæĺ¯æĪĳ": 8666,
      "Ġregular": 8667,
      "çļĦç¬¬äºĮ": 8668,
      "æ²Ļæ¼ł": 8669,
      "ĠAsia": 8670,
      "çļĦçĸ¾çĹħ": 8671,
      "Ġdefinition": 8672,
      "éĤ»å±ħ": 8673,
      "Ġphenomenon": 8674,
      "åıĳå±ķä¸ŃåĽ½å®¶": 8675,
      "Ġhusband": 8676,
      "cest": 8677,
      "ha": 8678,
      "Ġfle": 8679,
      "edic": 8680,
      "åľ¨ä»ĸ": 8681,
      "å¤§èĩªçĦ¶": 8682,
      "Ġseed": 8683,
      "å¦ĤåĲĮ": 8684,
      "å¯¹æĪĳè¯´": 8685,
      "åĬ¨æľº": 8686,
      "è¢«ç§°ä¸º": 8687,
      "ç¾İå¦Ļ": 8688,
      "Ġä½łçŁ¥éģĵ": 8689,
      "ä¸»é¢ĺ": 8690,
      "è·ŁæĪĳ": 8691,
      "Ġflag": 8692,
      "Ġmoments": 8693,
      "åĽ´ç»ķ": 8694,
      "Ġopened": 8695,
      "Ġå¤§æ¦Ĥ": 8696,
      "ä¸¥èĤĥ": 8697,
      "Ġbreast": 8698,
      "Ġfigured": 8699,
      "Ġrequire": 8700,
      "Ġreligious": 8701,
      "Ġbrand": 8702,
      "Ġtissue": 8703,
      "stein": 8704,
      "é¬": 8705,
      "ĠæıĲä¾Ľ": 8706,
      "Ġèĩ³å°ĳ": 8707,
      "æĪĳå¾Ĺ": 8708,
      "Ġbillions": 8709,
      "Ġinform": 8710,
      "åľ¨äºĨ": 8711,
      "Ġnor": 8712,
      "rand": 8713,
      "æīĢéľĢ": 8714,
      "äºĭä¸ļ": 8715,
      "æİĺ": 8716,
      "å¤©çĦ¶": 8717,
      "éĥ¨çļĦ": 8718,
      "çī¹æĢ§": 8719,
      "æĪĳçļĦå·¥ä½ľ": 8720,
      "Ġamb": 8721,
      "Ġbright": 8722,
      "çĮª": 8723,
      "Ġappl": 8724,
      "æĹ¥å¸¸": 8725,
      "æĬ¥çº¸": 8726,
      "å½ķåĥı": 8727,
      "åįİçĽĽ": 8728,
      "Ġargument": 8729,
      "Ġleadership": 8730,
      "è½¨éģĵ": 8731,
      "å¤ļæł·æĢ§": 8732,
      "Com": 8733,
      "Ġå°ı": 8734,
      "çļĦå¥³æĢ§": 8735,
      "ï¼ħ": 8736,
      "Ġbone": 8737,
      "Ġbud": 8738,
      "Ġbound": 8739,
      "Ġbatter": 8740,
      "Ġfashion": 8741,
      "ä»¥ä¸ĭ": 8742,
      "å¤§å°ı": 8743,
      "ifically": 8744,
      "æĮĸ": 8745,
      "åħ³èģĶ": 8746,
      "åŃĺæ´»": 8747,
      "å¤§å®¶éĥ½": 8748,
      "æīĵçĶµè¯Ŀ": 8749,
      "Ġbrother": 8750,
      "éĩĳå±ŀ": 8751,
      "Ġcreatures": 8752,
      "However": 8753,
      "æľĭåıĭä»¬": 8754,
      "çº³ç±³": 8755,
      "åľ¨è¿ĻåĦ¿": 8756,
      "ĠEuropean": 8757,
      "èĿĩ": 8758,
      "Ġsuffering": 8759,
      "Ġnecessary": 8760,
      "Ġdestroy": 8761,
      "åįİçĽĽé¡¿": 8762,
      "His": 8763,
      "è¿Ŀ": 8764,
      "Ġcogn": 8765,
      "Ġmill": 8766,
      "çĶ°": 8767,
      "Ġbees": 8768,
      "ä¸įçŁ¥": 8769,
      "ä¸įåĸľæ¬¢": 8770,
      "äººå£«": 8771,
      "åŃĻ": 8772,
      "Ġreve": 8773,
      "Ġancest": 8774,
      "éĢĨ": 8775,
      "æ³Ħ": 8776,
      "Ġexer": 8777,
      "Ġteen": 8778,
      "ager": 8779,
      "éĿŀå¸¸æľī": 8780,
      "æĺİç¡®": 8781,
      "ĠEd": 8782,
      "Ġuniversity": 8783,
      "ĠNor": 8784,
      "Ġremote": 8785,
      "connect": 8786,
      "Ġhelps": 8787,
      "æĮĩæķ°": 8788,
      "Ġelements": 8789,
      "è§£åĨ³éĹ®é¢ĺ": 8790,
      "é¢Ħéĺ²": 8791,
      "198": 8792,
      "è¡Ģæ¶²": 8793,
      "èĪŀè¹Ī": 8794,
      "ç´§å¼ł": 8795,
      "çļĦçĹħäºº": 8796,
      "å®īå¾·æ£®": 8797,
      "çļĦæ¸¸æĪı": 8798,
      "éĻĮçĶŁ": 8799,
      "lin": 8800,
      "tle": 8801,
      "Ġsorry": 8802,
      "è¿Ķ": 8803,
      "Ġpounds": 8804,
      "äººä½ĵ": 8805,
      "æĿĨ": 8806,
      "åĪ°ä¸Ģä¸ª": 8807,
      "urch": 8808,
      "Ġsector": 8809,
      "åĽłæĸ¯åĿ¦": 8810,
      "çŁ¶": 8811,
      "åİ»çľĭ": 8812,
      "ç½ķ": 8813,
      "Ġevents": 8814,
      "åĪ©çļĦ": 8815,
      "æķĻåłĤ": 8816,
      "Ġappreci": 8817,
      "è´¹çĶ¨": 8818,
      "Ġparticles": 8819,
      "ä¸ĵæ³¨": 8820,
      "Ġcorpor": 8821,
      "çĳŁ": 8822,
      "æ½ľæ°´": 8823,
      "çļĦæĶ¿åºľ": 8824,
      "ä¸¾ä¸ªä¾ĭåŃĲ": 8825,
      "Re": 8826,
      "Ġtom": 8827,
      "ä¸Ģåı°": 8828,
      "å°¿": 8829,
      "ä¸Ĭæľī": 8830,
      "åľ°éĿ¢": 8831,
      "å½ĵä»Ĭ": 8832,
      "Ġriver": 8833,
      "çº¤": 8834,
      "ĠæĪĳä»¬èĥ½": 8835,
      "åĽłä¸ºæĪĳ": 8836,
      "æľ¬æĿ¥": 8837,
      "æįī": 8838,
      "çīĩæ®µ": 8839,
      "æĶ¾å¤§": 8840,
      "åįķè¯į": 8841,
      "Ġappe": 8842,
      "æĢİä¹ĪåĬŀ": 8843,
      "çİ¯ä¿Ŀ": 8844,
      "äºĨè§£åĪ°": 8845,
      "æĭ¿çĿĢ": 8846,
      "ĠWeb": 8847,
      "é¥°": 8848,
      "Ġsignal": 8849,
      "Ġforeign": 8850,
      "Ġcharge": 8851,
      "Ġfailed": 8852,
      "ĠæŃ£å¦Ĥ": 8853,
      "ç§ģäºº": 8854,
      "ç²ĴåŃĲ": 8855,
      "Ġinfluence": 8856,
      "æĿīçŁ¶": 8857,
      "Ġpleas": 8858,
      "kn": 8859,
      "Ġä»Ĭå¤©": 8860,
      "çļĦåīį": 8861,
      "Ġtor": 8862,
      "verse": 8863,
      "å¤§è§Ħæ¨¡": 8864,
      "å¯¹æĸ¹": 8865,
      "åľ°ä¸ĭ": 8866,
      "Ġnote": 8867,
      "ä½ľå®¶": 8868,
      "ĠæĪĳä»¬æľī": 8869,
      "ä½Ĩæĺ¯æĪĳ": 8870,
      "Ġcoast": 8871,
      "åĸĤ": 8872,
      "Ġdisp": 8873,
      "Ġä»ĸä»¬ä¼ļ": 8874,
      "åĨįçĶŁ": 8875,
      "å¾·éĩĮ": 8876,
      "Ġstudied": 8877,
      "Ġcheap": 8878,
      "æĿĳåºĦ": 8879,
      "Ġemotion": 8880,
      "Ġwalls": 8881,
      "Ġfaith": 8882,
      "aff": 8883,
      "rict": 8884,
      "ties": 8885,
      "ĠæĪĲä¸º": 8886,
      "inally": 8887,
      "æĺ¯è°ģ": 8888,
      "ä¸ĢçĻ¾": 8889,
      "Ġegg": 8890,
      "roll": 8891,
      "Ġstream": 8892,
      "ulpt": 8893,
      "ĠSc": 8894,
      "ĠMiddle": 8895,
      "ç»Ļä»ĸ": 8896,
      "æĹłæīĢ": 8897,
      "çĽ´è§ī": 8898,
      "è½¬æį¢": 8899,
      "Ġsculpt": 8900,
      "åĨĻçļĦ": 8901,
      "å°¼æĹ¥": 8902,
      "ä¾¿æĺ¯": 8903,
      "æ¯Ĵåĵģ": 8904,
      "Ġleading": 8905,
      "æľīè¶£çļĦæĺ¯": 8906,
      "èĤ¯å°¼äºļ": 8907,
      "Ġsucceed": 8908,
      "æī¿è¯º": 8909,
      "é£ŀè¡ĮåĻ¨": 8910,
      "éĶĢåĶ®": 8911,
      "Ġresponsible": 8912,
      "ashington": 8913,
      "Ġcounter": 8914,
      "BG": 8915,
      "dimens": 8916,
      "iage": 8917,
      "¡èĲ": 8918,
      "Ġbread": 8919,
      "Ġmouse": 8920,
      "Ġnorth": 8921,
      "ctions": 8922,
      "Ġship": 8923,
      "uman": 8924,
      "åĪĨè£Ĥ": 8925,
      "Ġ150": 8926,
      "æģ¨": 8927,
      "æĹłçº¿": 8928,
      "å£³": 8929,
      "Ġagre": 8930,
      "åĬłæĭ¿": 8931,
      "çĦ¶åĲİæĪĳ": 8932,
      "èĩ³ä»Ĭ": 8933,
      "æŃ»äºİ": 8934,
      "Ġä¸ĢçĽ´": 8935,
      "æķĪçİĩ": 8936,
      "å¹²ç»Ĩèĥŀ": 8937,
      "ification": 8938,
      "çļĦæķ°åŃĹ": 8939,
      "Ġheads": 8940,
      "èĳ¡èĲ": 8941,
      "Ġholding": 8942,
      "åŁ¹è®Ń": 8943,
      "Ġconvin": 8944,
      "Ġcycle": 8945,
      "Ġcompetition": 8946,
      "Ġfarmers": 8947,
      "çļĦæķĪæŀľ": 8948,
      "çļĦæ²»çĸĹ": 8949,
      "èĳ¡èĲĦ": 8950,
      "ĠçľĭåĪ°": 8951,
      "Ġåıĳçİ°": 8952,
      "çļĦéĤ£äºĽ": 8953,
      "çļĦç»ıåİĨ": 8954,
      "itable": 8955,
      "ä¸Ģä»£": 8956,
      "å®¾": 8957,
      "enty": 8958,
      "uments": 8959,
      "çļĦäººç±»": 8960,
      "ç¾İæ´²": 8961,
      "åı¯èĥ½çļĦ": 8962,
      "å±ķå¼Ģ": 8963,
      "ibr": 8964,
      "æ»´": 8965,
      "Ġprevious": 8966,
      "å¸ĥé²ģ": 8967,
      "è¿Ļå°±æĺ¯ä¸ºä»Ģä¹Ī": 8968,
      "issions": 8969,
      "æĸ¹éĿ¢çļĦ": 8970,
      "Ġpresident": 8971,
      "Ġæ¯ıä¸ª": 8972,
      "éĺ³åħī": 8973,
      "Ġrestaur": 8974,
      "Ġhyp": 8975,
      "Ġhorr": 8976,
      "æģĴæĺŁ": 8977,
      "Ġstrategy": 8978,
      "æħĪåĸĦ": 8979,
      "400": 8980,
      "Over": 8981,
      "ugg": 8982,
      "vant": 8983,
      "Ġèĩª": 8984,
      "inc": 8985,
      "inist": 8986,
      "çļĦåħ¬åı¸": 8987,
      "çļĦå·¥åħ·": 8988,
      "Ġcooper": 8989,
      "åĲ¹": 8990,
      "lection": 8991,
      "idents": 8992,
      "oop": 8993,
      "æĥ³åĥı": 8994,
      "Ġspot": 8995,
      "Ġcompared": 8996,
      "Ġquote": 8997,
      "ĠGreat": 8998,
      "ĠDavid": 8999,
      "è¿ĺæľīä¸Ģä¸ª": 9000,
      "ĠFrench": 9001,
      "Ġoffer": 9002,
      "çĪ±åĽłæĸ¯åĿ¦": 9003,
      "Ġletter": 9004,
      "Ġchildhood": 9005,
      "Ġindic": 9006,
      "éļıåĲİ": 9007,
      "çķĻä¸ĭ": 9008,
      "Ġgender": 9009,
      "ä»ªåĻ¨": 9010,
      "ç¬¦åĲĪ": 9011,
      "Ġadults": 9012,
      "Ġæķ´ä¸ª": 9013,
      "Ġåħ¨çĲĥ": 9014,
      "Ġtast": 9015,
      "Ġnarr": 9016,
      "alled": 9017,
      "Ġund": 9018,
      "åģļä¸ĢäºĽ": 9019,
      "ĠAb": 9020,
      "Ġsport": 9021,
      "å°Ĩå®ĥ": 9022,
      "åĬłéĢŁ": 9023,
      "çĸŁ": 9024,
      "èĥ¸": 9025,
      "ĠNiger": 9026,
      "ibilities": 9027,
      "å¤Ħåľ¨": 9028,
      "æĪĸèĢħæĺ¯": 9029,
      "æĬĢèĥ½": 9030,
      "æĤ¬": 9031,
      "Ġshouldn": 9032,
      "å·®åĪ«": 9033,
      "å¾ĭå¸Ī": 9034,
      "éĩĩè®¿": 9035,
      "Ġdiscovery": 9036,
      "Ġdeeply": 9037,
      "Ġavoid": 9038,
      "ç©Ĩæĸ¯æŀĹ": 9039,
      "uild": 9040,
      "Ġwis": 9041,
      "æľīä¸Ģç§į": 9042,
      "ä¼Ĳ": 9043,
      "åıĳå°Ħ": 9044,
      "Ġexch": 9045,
      "è¾Ī": 9046,
      "æķ°ä»¥": 9047,
      "éĿŀå¸¸éĿŀå¸¸": 9048,
      "åħ¬éĩĮ": 9049,
      "Ġacceler": 9050,
      "å½±çīĩ": 9051,
      "å¹³éĿ¢": 9052,
      "ä¸ĩç¾İåħĥ": 9053,
      "ĠJust": 9054,
      "æ·¡": 9055,
      "Ġbrilliant": 9056,
      "æ®µæĹ¶éĹ´": 9057,
      "éļıæľº": 9058,
      "Ġorganisms": 9059,
      "Ġequal": 9060,
      "å¿ĹæĦ¿": 9061,
      "ä¼ĺåĬ¿": 9062,
      "Ġnewsp": 9063,
      "æĽ²çº¿": 9064,
      "æ´ĽæĿīçŁ¶": 9065,
      "å¿½çķ¥": 9066,
      "Ġbalance": 9067,
      "Ġdocument": 9068,
      "Ġwheel": 9069,
      "Ġphilosoph": 9070,
      "gypt": 9071,
      "Once": 9072,
      "vity": 9073,
      "çĽĹ": 9074,
      "Ġjoy": 9075,
      "åŃĲä¸Ĭ": 9076,
      "Ġmaint": 9077,
      "åĥıæĪĳ": 9078,
      "æ´»è·ĥ": 9079,
      "éĩıåŃĲ": 9080,
      "Ġpoem": 9081,
      "è§Ĥçľĭ": 9082,
      "æīĵçł´": 9083,
      "æłĩè®°": 9084,
      "Ġtransp": 9085,
      "ç§°ä½ľ": 9086,
      "æİ¨åĬ¨": 9087,
      "æĵħ": 9088,
      "Ġdouble": 9089,
      "æĬĵä½ı": 9090,
      "Ġleaving": 9091,
      "Take": 9092,
      "gn": 9093,
      "atr": 9094,
      "å¤®": 9095,
      "æŃ§": 9096,
      "throp": 9097,
      "è¿Ļä¸ªæĥ³æ³ķ": 9098,
      "åģļäºĽä»Ģä¹Ī": 9099,
      "ä¹ĭåĨħ": 9100,
      "ĠæĪĳä¹Ł": 9101,
      "çĤİ": 9102,
      "éĩįçĤ¹": 9103,
      "Ġmanaged": 9104,
      "åĪ¶å®ļ": 9105,
      "å±ķè§Ī": 9106,
      "ĠNA": 9107,
      "éĶģ": 9108,
      "æ¡£": 9109,
      "ĠWashington": 9110,
      "Ġbelong": 9111,
      "ĠAnderson": 9112,
      "çļĦéĹ®é¢ĺæĺ¯": 9113,
      "æ¸ħæĻ°": 9114,
      "Ġdollar": 9115,
      "çļĦæĢ»": 9116,
      "Ġcolors": 9117,
      "èĲ¥åħ»": 9118,
      "èĨĢ": 9119,
      "çļĦæ¸©": 9120,
      "Ġtypical": 9121,
      "Ġargue": 9122,
      "Ġfighting": 9123,
      "å®£ä¼ł": 9124,
      "è²Į": 9125,
      "ï¹": 9126,
      "ĠWhen": 9127,
      "ĠéĻ¤äºĨ": 9128,
      "çļĦåħī": 9129,
      "Ġfresh": 9130,
      "Ġdue": 9131,
      "ä¼į": 9132,
      "çļĦæļ": 9133,
      "ä½Ĩåľ¨": 9134,
      "Ġshel": 9135,
      "å¾ĹæĽ´": 9136,
      "Ġchick": 9137,
      "éģĵçĲĨ": 9138,
      "çĦ¶åĲİæĪĳä»¬": 9139,
      "ç»ĵå©ļ": 9140,
      "Ġæĺ¯åľ¨": 9141,
      "Ġprior": 9142,
      "æķĻåŃ¦": 9143,
      "Ġadop": 9144,
      "å¹³æĸ¹": 9145,
      "éļ¾éģĵ": 9146,
      "æīįä¼ļ": 9147,
      "ä¸ºä»Ģä¹Īè¦ģ": 9148,
      "Hey": 9149,
      "éĩĳéĴ±": 9150,
      "ĠKeny": 9151,
      "Ġcrime": 9152,
      "éĺ¿å°Ķ": 9153,
      "Ġlesson": 9154,
      "å»ºçŃĳå¸Ī": 9155,
      "åħħåĪĨ": 9156,
      "Ġbusinesses": 9157,
      "Ġwatched": 9158,
      "exp": 9159,
      "Ġconstruct": 9160,
      "çĸĳéĹ®": 9161,
      "Ġoceans": 9162,
      "Ġfrequ": 9163,
      "Ġmajority": 9164,
      "Ġdegree": 9165,
      "çļĦæĢĿæĥ³": 9166,
      "Ġunfortunately": 9167,
      "éĻ·åħ¥": 9168,
      "é½¿": 9169,
      "Ġfascinating": 9170,
      "Sometimes": 9171,
      "åĽ¾ä¹¦é¦Ĩ": 9172,
      "dimensional": 9173,
      "Ġèĩªå·±": 9174,
      "Ġåıį": 9175,
      "Ġå¸®åĬ©": 9176,
      "æĪĳéĿŀå¸¸": 9177,
      "Ġble": 9178,
      "ara": 9179,
      "thes": 9180,
      "ä¸ŃæľĢ": 9181,
      "å¥½äºĭ": 9182,
      "oses": 9183,
      "çİ°åľ¨çļĦ": 9184,
      "çŃ¹": 9185,
      "ç¤ģ": 9186,
      "æŁ±": 9187,
      "Ġunc": 9188,
      "Ġhero": 9189,
      "Ġå®ĥæĺ¯": 9190,
      "è¿ľè¿ľ": 9191,
      "Ġleads": 9192,
      "Ġcaught": 9193,
      "Ġengineers": 9194,
      "Ġlimited": 9195,
      "ä¼ģä¸ļå®¶": 9196,
      "Ġembra": 9197,
      "çļĦç½ĳç«Ļ": 9198,
      "æĬĳéĥģ": 9199,
      "Ġexhib": 9200,
      "çļĦçĤ¹": 9201,
      "99": 9202,
      "Again": 9203,
      "Google": 9204,
      "right": 9205,
      "ses": 9206,
      "çļĦè§ĤçĤ¹": 9207,
      "Ġsister": 9208,
      "åĨł": 9209,
      "çľĭä¸įåĪ°": 9210,
      "çİ°çĬ¶": 9211,
      "åľ°ä½į": 9212,
      "çº¹": 9213,
      "åºĶå½ĵ": 9214,
      "Ġunlike": 9215,
      "åĽ¾æ¡Ī": 9216,
      "ä¸īåįģ": 9217,
      "ruption": 9218,
      "athy": 9219,
      "Ġbridge": 9220,
      "æ¼Ķç¤º": 9221,
      "æŀģäºĨ": 9222,
      "å²ģæĹ¶": 9223,
      "Ġbelieved": 9224,
      "æľĢåĲİä¸Ģä¸ª": 9225,
      "Ġfinished": 9226,
      "æĺ¯ä¸ĢåĲį": 9227,
      "Ġphotos": 9228,
      "éŃĤ": 9229,
      "è¸ı": 9230,
      "Ġprofessional": 9231,
      "çļĦç²¾ç¥ŀ": 9232,
      "Actually": 9233,
      "hold": 9234,
      "ino": 9235,
      "Ġpurs": 9236,
      "å®«": 9237,
      "Ġlunch": 9238,
      "Ġwearing": 9239,
      "å¼¯": 9240,
      "ç§Ł": 9241,
      "ä»ĸä»¬æīĢ": 9242,
      "èµ«": 9243,
      "åľ°çĲĨ": 9244,
      "Ġpros": 9245,
      "pper": 9246,
      "å¼Ģå±ķ": 9247,
      "åīª": 9248,
      "éĩıçļĦ": 9249,
      "Ġclosed": 9250,
      "ĠPark": 9251,
      "iable": 9252,
      "åľºæĻ¯": 9253,
      "ĠéĤ£æĹ¶": 9254,
      "è¾¾å°Ķ": 9255,
      "èĢģå¹´": 9256,
      "å¥ĩè¿¹": 9257,
      "Ġrelated": 9258,
      "åį³å°Ĩ": 9259,
      "äºīè®º": 9260,
      "ä¸ĵéĹ¨": 9261,
      "Ġè®©ä»ĸä»¬": 9262,
      "Ġprototy": 9263,
      "åĢ¾åĲ¬": 9264,
      "Ġinstitution": 9265,
      "æĳĨèĦ±": 9266,
      "è¯ŀçĶŁ": 9267,
      "Ġå°¤åħ¶æĺ¯": 9268,
      "%ï¼Į": 9269,
      "car": 9270,
      "ked": 9271,
      "Ġé«ĺ": 9272,
      "ĠçłĶç©¶": 9273,
      "Ġç¤¾ä¼ļ": 9274,
      "Ġtit": 9275,
      "Ġcos": 9276,
      "Ġfoss": 9277,
      "Ġfaces": 9278,
      "ä¸Ģéģį": 9279,
      "çļĦæ¤": 9280,
      "ä¸ºæĪĳä»¬": 9281,
      "æĿ¥è®²": 9282,
      "agers": 9283,
      "ĠDar": 9284,
      "è¿ĻéĩĮæĺ¯": 9285,
      "é©¬æĭī": 9286,
      "æĮĩåĩº": 9287,
      "å¼ķåıĳ": 9288,
      "Ġcreation": 9289,
      "Ġedge": 9290,
      "ographic": 9291,
      "Ġpaint": 9292,
      "å¸¦æĿ¥äºĨ": 9293,
      "Ġbenefit": 9294,
      "é½Ĳ": 9295,
      "ĠBritish": 9296,
      "Second": 9297,
      "au": 9298,
      "word": 9299,
      "Ġtour": 9300,
      "Ġhidden": 9301,
      "Ġnames": 9302,
      "entally": 9303,
      "å¤§éĻĨ": 9304,
      "çī¢": 9305,
      "æŃī": 9306,
      "Ġrot": 9307,
      "cked": 9308,
      "åĵº": 9309,
      "åĽłä¸ºå®ĥ": 9310,
      "æĹłäºº": 9311,
      "ĠBang": 9312,
      "ĠEgypt": 9313,
      "åĲĪæĪĲ": 9314,
      "Ġinvisible": 9315,
      "åħ¶å®ŀæĺ¯": 9316,
      "æĭ¿åĪ°": 9317,
      "ä¿®å¤į": 9318,
      "çļĦçģµ": 9319,
      "ength": 9320,
      "Ġastron": 9321,
      "Ġseparate": 9322,
      "Ġconcerned": 9323,
      "Ġvolunte": 9324,
      "é¬¼": 9325,
      "mar": 9326,
      "çļĦä¸į": 9327,
      "çļĦåİĨåı²": 9328,
      "çļĦä½ľåĵģ": 9329,
      "çļĦæį": 9330,
      "ä»¥ä¸Ĭ": 9331,
      "åģļè¿Ļä¸ª": 9332,
      "å½ĵä½ľ": 9333,
      "åĩºåıĳ": 9334,
      "æĦŁçŁ¥": 9335,
      "æ¸Ķ": 9336,
      "Ġotherwise": 9337,
      "çĸ¼": 9338,
      "èĬĿ": 9339,
      "ĠDan": 9340,
      "äº§ä¸ļ": 9341,
      "ä¿ĿçķĻ": 9342,
      "çļĦæķ´": 9343,
      "åĲ¬è¯´": 9344,
      "åĳĬè¯īå¤§å®¶": 9345,
      "æ¡Īä¾ĭ": 9346,
      "Ġfollowed": 9347,
      "é©±åĬ¨": 9348,
      "çļĦçĬ¶æĢģ": 9349,
      "æī®æ¼Ķ": 9350,
      "Go": 9351,
      "ael": 9352,
      "eff": 9353,
      "Ġiron": 9354,
      "çļĦå°±æĺ¯": 9355,
      "Ġhate": 9356,
      "æĺ¯ä½ł": 9357,
      "å¤§åĪ©äºļ": 9358,
      "Ġmoves": 9359,
      "Ġsoil": 9360,
      "æ³½": 9361,
      "å¹´äºĨ": 9362,
      "ä½ľåĩº": 9363,
      "æ°ı": 9364,
      "å¤©æĸĩ": 9365,
      "Ġeveryday": 9366,
      "æķĻå¸Ī": 9367,
      "æ»©": 9368,
      "èģĶéĤ¦": 9369,
      "Ġgrad": 9370,
      "Ġelement": 9371,
      "èħĬ": 9372,
      "Ġopin": 9373,
      "æĬķç¥¨": 9374,
      "Ġcapable": 9375,
      "Ġgrown": 9376,
      "Ġgrass": 9377,
      "Ġrefuge": 9378,
      "æĵİ": 9379,
      "Ġconstantly": 9380,
      "ä¼ģé¹ħ": 9381,
      "Ġmotor": 9382,
      "Ġanti": 9383,
      "Ġintellect": 9384,
      "ç§ĴéĴŁ": 9385,
      "Ġsurprise": 9386,
      "Ġslowly": 9387,
      "åĨĴéĻ©": 9388,
      "çļĦæŃ»äº¡": 9389,
      "wide": 9390,
      "çļĦä¸įåĲĮ": 9391,
      "çļĦåĬ¨çī©": 9392,
      "çļĦé£Łçī©": 9393,
      "çļĦåĲįåŃĹ": 9394,
      "æĪĳåıª": 9395,
      "æĪĳè®°å¾Ĺ": 9396,
      "Ġmir": 9397,
      "Ġpun": 9398,
      "æľīæ²¡æľī": 9399,
      "è®¢": 9400,
      "äººçī©": 9401,
      "éĤ£æĹ¶åĢĻ": 9402,
      "åĨĮ": 9403,
      "å¤ļäºĨ": 9404,
      "illed": 9405,
      "terday": 9406,
      "å¾Ĺå¾Ī": 9407,
      "çŁĽçĽ¾": 9408,
      "ĠæĪĳæĺ¯": 9409,
      "udience": 9410,
      "Ġnoise": 9411,
      "æıĲåıĸ": 9412,
      "æ¡¶": 9413,
      "éļ¾é¢ĺ": 9414,
      "ĠChar": 9415,
      "Ġ35": 9416,
      "å¼ķæĵİ": 9417,
      "é»ĳå®¢": 9418,
      "ä»·åĢ¼è§Ĥ": 9419,
      "åĤ¬": 9420,
      "ç»ĥä¹ł": 9421,
      "Ġtrained": 9422,
      "Ġsteps": 9423,
      "æ··åĲĪ": 9424,
      "æĹĭè½¬": 9425,
      "å¤ıå¤©": 9426,
      "Ġinsects": 9427,
      "Ġkilometers": 9428,
      "Ġmosqu": 9429,
      "known": 9430,
      "å°¼æĹ¥åĪ©äºļ": 9431,
      "uros": 9432,
[...]
